{
  "version": "1.0",
  "truncation": null,
  "padding": null,
  "added_tokens": [
    {
      "id": 0,
      "content": "[PAD]",
      "single_word": false,
      "lstrip": false,
      "rstrip": false,
      "normalized": false,
      "special": true
    },
    {
      "id": 1,
      "content": "[UNK]",
      "single_word": false,
      "lstrip": false,
      "rstrip": false,
      "normalized": false,
      "special": true
    },
    {
      "id": 2,
      "content": "[BOS]",
      "single_word": false,
      "lstrip": false,
      "rstrip": false,
      "normalized": false,
      "special": true
    },
    {
      "id": 3,
      "content": "[EOS]",
      "single_word": false,
      "lstrip": false,
      "rstrip": false,
      "normalized": false,
      "special": true
    },
    {
      "id": 4,
      "content": "<RESPONSE>",
      "single_word": false,
      "lstrip": false,
      "rstrip": false,
      "normalized": false,
      "special": true
    }
  ],
  "normalizer": null,
  "pre_tokenizer": {
    "type": "Whitespace"
  },
  "post_processor": null,
  "decoder": null,
  "model": {
    "type": "BPE",
    "dropout": null,
    "unk_token": "[UNK]",
    "continuing_subword_prefix": null,
    "end_of_word_suffix": null,
    "fuse_unk": false,
    "byte_fallback": false,
    "ignore_merges": false,
    "vocab": {
      "[PAD]": 0,
      "[UNK]": 1,
      "[BOS]": 2,
      "[EOS]": 3,
      "<RESPONSE>": 4,
      "!": 5,
      "\"": 6,
      "#": 7,
      "$": 8,
      "%": 9,
      "&": 10,
      "'": 11,
      "(": 12,
      ")": 13,
      "*": 14,
      "+": 15,
      ",": 16,
      "-": 17,
      ".": 18,
      "/": 19,
      "0": 20,
      "1": 21,
      "2": 22,
      "3": 23,
      "4": 24,
      "5": 25,
      "6": 26,
      "7": 27,
      "8": 28,
      "9": 29,
      ":": 30,
      ";": 31,
      "<": 32,
      "=": 33,
      ">": 34,
      "?": 35,
      "@": 36,
      "A": 37,
      "B": 38,
      "C": 39,
      "D": 40,
      "E": 41,
      "F": 42,
      "G": 43,
      "H": 44,
      "I": 45,
      "J": 46,
      "K": 47,
      "L": 48,
      "M": 49,
      "N": 50,
      "O": 51,
      "P": 52,
      "Q": 53,
      "R": 54,
      "S": 55,
      "T": 56,
      "U": 57,
      "V": 58,
      "W": 59,
      "X": 60,
      "Y": 61,
      "Z": 62,
      "[": 63,
      "\\": 64,
      "]": 65,
      "^": 66,
      "_": 67,
      "`": 68,
      "a": 69,
      "b": 70,
      "c": 71,
      "d": 72,
      "e": 73,
      "f": 74,
      "g": 75,
      "h": 76,
      "i": 77,
      "j": 78,
      "k": 79,
      "l": 80,
      "m": 81,
      "n": 82,
      "o": 83,
      "p": 84,
      "q": 85,
      "r": 86,
      "s": 87,
      "t": 88,
      "u": 89,
      "v": 90,
      "w": 91,
      "x": 92,
      "y": 93,
      "z": 94,
      "~": 95,
      "£": 96,
      "é": 97,
      "’": 98,
      "“": 99,
      "”": 100,
      "👌": 101,
      "📚": 102,
      "🙀": 103,
      "🤪": 104,
      "th": 105,
      "an": 106,
      "er": 107,
      "ou": 108,
      "in": 109,
      "st": 110,
      "re": 111,
      "at": 112,
      "on": 113,
      "ss": 114,
      "ing": 115,
      "you": 116,
      "to": 117,
      "ant": 118,
      "ssi": 119,
      "ser": 120,
      "el": 121,
      "User": 122,
      "me": 123,
      "ssist": 124,
      "ssistant": 125,
      "Assistant": 126,
      "or": 127,
      "en": 128,
      "al": 129,
      "is": 130,
      "the": 131,
      "it": 132,
      "and": 133,
      "ha": 134,
      "le": 135,
      "ve": 136,
      "be": 137,
      "ow": 138,
      "that": 139,
      "ed": 140,
      "ar": 141,
      "ot": 142,
      "ay": 143,
      "so": 144,
      "wi": 145,
      "se": 146,
      "ion": 147,
      "are": 148,
      "ly": 149,
      "of": 150,
      "fe": 151,
      "he": 152,
      "ro": 153,
      "ke": 154,
      "as": 155,
      "for": 156,
      "li": 157,
      "my": 158,
      "ri": 159,
      "have": 160,
      "do": 161,
      "es": 162,
      "wh": 163,
      "out": 164,
      "gh": 165,
      "de": 166,
      "ut": 167,
      "ther": 168,
      "with": 169,
      "am": 170,
      "go": 171,
      "ab": 172,
      "ch": 173,
      "lo": 174,
      "ge": 175,
      "ver": 176,
      "ld": 177,
      "feel": 178,
      "can": 179,
      "tr": 180,
      "your": 181,
      "ti": 182,
      "ne": 183,
      "ic": 184,
      "not": 185,
      "thing": 186,
      "ad": 187,
      "ould": 188,
      "ll": 189,
      "id": 190,
      "nd": 191,
      "one": 192,
      "ust": 193,
      "now": 194,
      "ac": 195,
      "but": 196,
      "ally": 197,
      "ble": 198,
      "su": 199,
      "end": 200,
      "wor": 201,
      "ght": 202,
      "hel": 203,
      "co": 204,
      "ate": 205,
      "some": 206,
      "pe": 207,
      "about": 208,
      "like": 209,
      "time": 210,
      "pre": 211,
      "help": 212,
      "mo": 213,
      "Th": 214,
      "blem": 215,
      "roblem": 216,
      "any": 217,
      "this": 218,
      "ation": 219,
      "how": 220,
      "if": 221,
      "od": 222,
      "get": 223,
      "ink": 224,
      "day": 225,
      "up": 226,
      "fri": 227,
      "very": 228,
      "friend": 229,
      "just": 230,
      "ell": 231,
      "ter": 232,
      "pp": 233,
      "mot": 234,
      "It": 235,
      "think": 236,
      "ce": 237,
      "ma": 238,
      "all": 239,
      "jo": 240,
      "nt": 241,
      "was": 242,
      "..": 243,
      "there": 244,
      "hi": 245,
      "we": 246,
      "king": 247,
      "know": 248,
      "her": 249,
      "motion": 250,
      "will": 251,
      "ir": 252,
      "gy": 253,
      "been": 254,
      "what": 255,
      "ind": 256,
      "Problem": 257,
      "op": 258,
      "RE": 259,
      "trate": 260,
      "ough": 261,
      "ON": 262,
      "ul": 263,
      "job": 264,
      "SE": 265,
      "art": 266,
      "SP": 267,
      "Strate": 268,
      "Emotion": 269,
      "RESP": 270,
      "ONSE": 271,
      "Strategy": 272,
      "RESPONSE": 273,
      "way": 274,
      "ur": 275,
      "don": 276,
      "really": 277,
      "work": 278,
      "depre": 279,
      "con": 280,
      "good": 281,
      "us": 282,
      "feeling": 283,
      "ex": 284,
      "ue": 285,
      "see": 286,
      "going": 287,
      "ry": 288,
      "ca": 289,
      "ho": 290,
      "they": 291,
      "et": 292,
      "would": 293,
      "mp": 294,
      "ound": 295,
      "tal": 296,
      "ssion": 297,
      "sel": 298,
      "use": 299,
      "other": 300,
      "Wh": 301,
      "har": 302,
      "That": 303,
      "un": 304,
      "ta": 305,
      "try": 306,
      "per": 307,
      "ent": 308,
      "ct": 309,
      "ok": 310,
      "sit": 311,
      "ye": 312,
      "want": 313,
      "rom": 314,
      "und": 315,
      "self": 316,
      "How": 317,
      "depression": 318,
      "friends": 319,
      "she": 320,
      "ere": 321,
      "no": 322,
      "under": 323,
      "has": 324,
      "hard": 325,
      "more": 326,
      "ep": 327,
      "stand": 328,
      "from": 329,
      "our": 330,
      "doing": 331,
      "ank": 332,
      "mi": 333,
      "rea": 334,
      "ment": 335,
      "today": 336,
      "cause": 337,
      "ely": 338,
      "talk": 339,
      "understand": 340,
      "ople": 341,
      "right": 342,
      "Hel": 343,
      "make": 344,
      "Hello": 345,
      "them": 346,
      "able": 347,
      "ven": 348,
      "when": 349,
      "people": 350,
      "ving": 351,
      "ine": 352,
      "What": 353,
      "xi": 354,
      "Yes": 355,
      "You": 356,
      "too": 357,
      "ting": 358,
      "sor": 359,
      "la": 360,
      "things": 361,
      "anxi": 362,
      "ide": 363,
      "hear": 364,
      "need": 365,
      "Do": 366,
      "because": 367,
      "gre": 368,
      "ea": 369,
      "had": 370,
      "could": 371,
      "ive": 372,
      "did": 373,
      "sa": 374,
      "him": 375,
      "po": 376,
      "well": 377,
      "sh": 378,
      "ful": 379,
      "sure": 380,
      "ong": 381,
      "year": 382,
      "sad": 383,
      "own": 384,
      "fo": 385,
      "part": 386,
      "happ": 387,
      "stion": 388,
      "ave": 389,
      "mu": 390,
      "lot": 391,
      "act": 392,
      "So": 393,
      "af": 394,
      "sorry": 395,
      "Hi": 396,
      "ci": 397,
      "bet": 398,
      "ort": 399,
      "bo": 400,
      "much": 401,
      "ure": 402,
      "brea": 403,
      "find": 404,
      "may": 405,
      "problem": 406,
      "ety": 407,
      "ily": 408,
      "ill": 409,
      "ried": 410,
      "ress": 411,
      "pl": 412,
      "anxiety": 413,
      "every": 414,
      "sound": 415,
      "times": 416,
      "uation": 417,
      "rough": 418,
      "pa": 419,
      "The": 420,
      "take": 421,
      "di": 422,
      "better": 423,
      "situation": 424,
      "ack": 425,
      "ol": 426,
      "over": 427,
      "even": 428,
      "stress": 429,
      "com": 430,
      "mic": 431,
      "break": 432,
      "ner": 433,
      "pro": 434,
      "ag": 435,
      "son": 436,
      "also": 437,
      "ous": 438,
      "life": 439,
      "dif": 440,
      "diff": 441,
      "something": 442,
      "who": 443,
      "fam": 444,
      "gr": 445,
      "does": 446,
      "ance": 447,
      "come": 448,
      "supp": 449,
      "str": 450,
      "should": 451,
      "great": 452,
      "ice": 453,
      "cr": 454,
      "Have": 455,
      "family": 456,
      "start": 457,
      "yes": 458,
      "new": 459,
      "through": 460,
      "Is": 461,
      "fir": 462,
      "ang": 463,
      "vid": 464,
      "down": 465,
      "anything": 466,
      "ness": 467,
      "tell": 468,
      "sounds": 469,
      "fin": 470,
      "sp": 471,
      "il": 472,
      "having": 473,
      "gge": 474,
      "off": 475,
      "cho": 476,
      "long": 477,
      "comp": 478,
      "dis": 479,
      "being": 480,
      "whi": 481,
      "Thank": 482,
      "My": 483,
      "ap": 484,
      "care": 485,
      "person": 486,
      "si": 487,
      "qu": 488,
      "ck": 489,
      "back": 490,
      "ways": 491,
      "ated": 492,
      "let": 493,
      "...": 494,
      "someone": 495,
      "say": 496,
      "by": 497,
      "But": 498,
      "might": 499,
      "myself": 500,
      "seem": 501,
      "ain": 502,
      "its": 503,
      "ations": 504,
      "partner": 505,
      "clo": 506,
      "ight": 507,
      "ty": 508,
      "happen": 509,
      "thank": 510,
      "getting": 511,
      "age": 512,
      "rel": 513,
      "est": 514,
      "ies": 515,
      "best": 516,
      "still": 517,
      "spe": 518,
      "ongoing": 519,
      "keep": 520,
      "stu": 521,
      "ie": 522,
      "ating": 523,
      "fore": 524,
      "were": 525,
      "sadness": 526,
      "ought": 527,
      "home": 528,
      "He": 529,
      "bad": 530,
      "then": 531,
      "after": 532,
      "years": 533,
      "though": 534,
      "ult": 535,
      "lea": 536,
      "hip": 537,
      "ssed": 538,
      "fa": 539,
      "mind": 540,
      "mation": 541,
      "uestion": 542,
      "breakup": 543,
      "got": 544,
      "lit": 545,
      "same": 546,
      "yourself": 547,
      "ande": 548,
      "andemic": 549,
      "tried": 550,
      "feelings": 551,
      "pandemic": 552,
      "love": 553,
      "before": 554,
      "trying": 555,
      "always": 556,
      "chool": 557,
      "only": 558,
      "here": 559,
      "And": 560,
      "read": 561,
      "pr": 562,
      "ace": 563,
      "hope": 564,
      "ggestion": 565,
      "support": 566,
      "ose": 567,
      "ard": 568,
      "where": 569,
      "med": 570,
      "diffic": 571,
      "ig": 572,
      "thought": 573,
      "school": 574,
      "mon": 575,
      "tle": 576,
      "ef": 577,
      "ask": 578,
      "May": 579,
      "give": 580,
      "cer": 581,
      "cris": 582,
      "ers": 583,
      "his": 584,
      "crisis": 585,
      "most": 586,
      "problems": 587,
      "ity": 588,
      "never": 589,
      "iss": 590,
      "leep": 591,
      "idea": 592,
      "cou": 593,
      "maybe": 594,
      "difficult": 595,
      "into": 596,
      "set": 597,
      "ek": 598,
      "line": 599,
      "than": 600,
      "pare": 601,
      "che": 602,
      "man": 603,
      "week": 604,
      "why": 605,
      "press": 606,
      "ever": 607,
      "ggestions": 608,
      "mb": 609,
      "No": 610,
      "ually": 611,
      "Oh": 612,
      "many": 613,
      "little": 614,
      "look": 615,
      "live": 616,
      "She": 617,
      "Question": 618,
      "Well": 619,
      "ish": 620,
      "bit": 621,
      "gl": 622,
      "Are": 623,
      "their": 624,
      "We": 625,
      "ps": 626,
      "ite": 627,
      "app": 628,
      "cont": 629,
      "posit": 630,
      "Maybe": 631,
      "im": 632,
      "If": 633,
      "imp": 634,
      "inter": 635,
      "ince": 636,
      "won": 637,
      "Yea": 638,
      "else": 639,
      "ning": 640,
      "kind": 641,
      "relations": 642,
      "red": 643,
      "thers": 644,
      "relationship": 645,
      "sleep": 646,
      "cour": 647,
      "adv": 648,
      "stay": 649,
      "list": 650,
      "Others": 651,
      "happy": 652,
      "ug": 653,
      "makes": 654,
      "days": 655,
      "toge": 656,
      "together": 657,
      "month": 658,
      "depressed": 659,
      "working": 660,
      "ence": 661,
      "fr": 662,
      "again": 663,
      "okay": 664,
      "kid": 665,
      "Pro": 666,
      "wo": 667,
      "br": 668,
      "put": 669,
      "hone": 670,
      "lear": 671,
      "used": 672,
      "oking": 673,
      "They": 674,
      "first": 675,
      "Af": 676,
      "talking": 677,
      "fort": 678,
      "online": 679,
      "Yeah": 680,
      "seems": 681,
      "finit": 682,
      "peri": 683,
      "sometimes": 684,
      "cla": 685,
      "move": 686,
      "wr": 687,
      "while": 688,
      "parent": 689,
      "making": 690,
      "ild": 691,
      "finitely": 692,
      "ten": 693,
      "around": 694,
      "pressure": 695,
      "heal": 696,
      "since": 697,
      "cal": 698,
      "fear": 699,
      "deal": 700,
      "ions": 701,
      "everything": 702,
      "cial": 703,
      "sha": 704,
      "gu": 705,
      "ade": 706,
      "ssur": 707,
      "ason": 708,
      "viding": 709,
      "ues": 710,
      "looking": 711,
      "bel": 712,
      "each": 713,
      "int": 714,
      "away": 715,
      "ssurance": 716,
      "sid": 717,
      "ra": 718,
      "firmation": 719,
      "last": 720,
      "call": 721,
      "mean": 722,
      "anyone": 723,
      "Su": 724,
      "kids": 725,
      "which": 726,
      "made": 727,
      "led": 728,
      "class": 729,
      "side": 730,
      "Suggestions": 731,
      "those": 732,
      "iz": 733,
      "Rea": 734,
      "der": 735,
      "Affirmation": 736,
      "Reassurance": 737,
      "Providing": 738,
      "Some": 739,
      "om": 740,
      "experi": 741,
      "definitely": 742,
      "actually": 743,
      "ieve": 744,
      "differ": 745,
      "parents": 746,
      "There": 747,
      "another": 748,
      "alone": 749,
      "stud": 750,
      "ise": 751,
      "done": 752,
      "ately": 753,
      "these": 754,
      "pay": 755,
      "In": 756,
      "mone": 757,
      "bro": 758,
      "doesn": 759,
      "cent": 760,
      "ick": 761,
      "ary": 762,
      "plan": 763,
      "gue": 764,
      "listen": 765,
      "few": 766,
      "said": 767,
      "close": 768,
      "ago": 769,
      "cially": 770,
      "money": 771,
      "tre": 772,
      "emp": 773,
      "yea": 774,
      "cur": 775,
      "tur": 776,
      "hello": 777,
      "child": 778,
      "ouse": 779,
      "past": 780,
      "strug": 781,
      "enough": 782,
      "didn": 783,
      "irl": 784,
      "health": 785,
      "due": 786,
      "meet": 787,
      "stressed": 788,
      "girl": 789,
      "others": 790,
      "wal": 791,
      "ward": 792,
      "pret": 793,
      "boy": 794,
      "ction": 795,
      "Can": 796,
      "worried": 797,
      "lease": 798,
      "guess": 799,
      "bab": 800,
      "ood": 801,
      "dont": 802,
      "fi": 803,
      "av": 804,
      "tough": 805,
      "lost": 806,
      "believe": 807,
      "must": 808,
      "found": 809,
      "anger": 810,
      "memb": 811,
      "eas": 812,
      "advice": 813,
      "rent": 814,
      "fre": 815,
      "mar": 816,
      "This": 817,
      "cor": 818,
      "chan": 819,
      "mal": 820,
      "Not": 821,
      "worry": 822,
      "reason": 823,
      "different": 824,
      "real": 825,
      "ready": 826,
      "Thanks": 827,
      "anxious": 828,
      "less": 829,
      "rect": 830,
      "coun": 831,
      "everyone": 832,
      "ple": 833,
      "uring": 834,
      "par": 835,
      "frust": 836,
      "fect": 837,
      ":)": 838,
      "acade": 839,
      "pretty": 840,
      "au": 841,
      "thanks": 842,
      "academic": 843,
      "iv": 844,
      "Ok": 845,
      "upset": 846,
      "helps": 847,
      "mor": 848,
      "sider": 849,
      "ster": 850,
      "reach": 851,
      "gi": 852,
      "tive": 853,
      "house": 854,
      "frustr": 855,
      "taking": 856,
      "grou": 857,
      "wa": 858,
      "ned": 859,
      "helpful": 860,
      "sing": 861,
      "issues": 862,
      "sol": 863,
      "moment": 864,
      "consider": 865,
      "ff": 866,
      "nor": 867,
      "joy": 868,
      "positive": 869,
      "Just": 870,
      "ID": 871,
      "lar": 872,
      "nice": 873,
      "recent": 874,
      "hour": 875,
      "import": 876,
      "ft": 877,
      "during": 878,
      "chat": 879,
      "least": 880,
      "Good": 881,
      "course": 882,
      "important": 883,
      "hur": 884,
      "sc": 885,
      "CO": 886,
      "col": 887,
      "pt": 888,
      "tor": 889,
      "dr": 890,
      "An": 891,
      "place": 892,
      "boyfriend": 893,
      "covid": 894,
      "thinking": 895,
      "min": 896,
      "glad": 897,
      "walk": 898,
      "ame": 899,
      "true": 900,
      "night": 901,
      "vi": 902,
      "VID": 903,
      "COVID": 904,
      "haps": 905,
      "study": 906,
      "two": 907,
      "When": 908,
      "gree": 909,
      "tain": 910,
      "helped": 911,
      "interest": 912,
      "low": 913,
      "mat": 914,
      "nex": 915,
      "prof": 916,
      "haven": 917,
      "dec": 918,
      "happened": 919,
      "bus": 920,
      "bu": 921,
      "yeah": 922,
      "months": 923,
      "issue": 924,
      "ren": 925,
      "ggest": 926,
      "both": 927,
      "dog": 928,
      "ific": 929,
      "started": 930,
      "lu": 931,
      "als": 932,
      "open": 933,
      "coming": 934,
      "member": 935,
      "current": 936,
      "change": 937,
      "formation": 938,
      "rist": 939,
      "honest": 940,
      "gn": 941,
      "ste": 942,
      "cess": 943,
      "closure": 944,
      "bably": 945,
      "told": 946,
      "emotion": 947,
      "mas": 948,
      "comm": 949,
      "Sometimes": 950,
      "spec": 951,
      "....": 952,
      "recently": 953,
      "conf": 954,
      "trust": 955,
      "complet": 956,
      "using": 957,
      "elt": 958,
      "stressful": 959,
      "enjoy": 960,
      "experience": 961,
      "old": 962,
      "pecially": 963,
      "exam": 964,
      "show": 965,
      "next": 966,
      "ess": 967,
      "felt": 968,
      "point": 969,
      "lon": 970,
      "te": 971,
      "elf": 972,
      "colle": 973,
      "correct": 974,
      "Self": 975,
      "arch": 976,
      "therap": 977,
      "share": 978,
      "bl": 979,
      "cu": 980,
      "jobs": 981,
      "soon": 982,
      "ities": 983,
      "especially": 984,
      "big": 985,
      "hand": 986,
      "already": 987,
      "acti": 988,
      "ist": 989,
      "ings": 990,
      "sm": 991,
      "eng": 992,
      "vers": 993,
      "suggest": 994,
      "lol": 995,
      "disclosure": 996,
      "loy": 997,
      "ts": 998,
      "motiv": 999,
      "wanted": 1000,
      "once": 1001,
      "feels": 1002,
      "ical": 1003,
      "je": 1004,
      "nothing": 1005,
      "vir": 1006,
      "concer": 1007,
      "vide": 1008,
      "ener": 1009,
      "ristmas": 1010,
      "probably": 1011,
      "ces": 1012,
      "Ch": 1013,
      "Would": 1014,
      "fun": 1015,
      "possi": 1016,
      "holi": 1017,
      "such": 1018,
      "foc": 1019,
      "exp": 1020,
      "band": 1021,
      "gling": 1022,
      "sen": 1023,
      "without": 1024,
      "broke": 1025,
      "agree": 1026,
      "add": 1027,
      "girlfriend": 1028,
      "wish": 1029,
      "att": 1030,
      "sur": 1031,
      "vent": 1032,
      "normal": 1033,
      "hus": 1034,
      "ys": 1035,
      "wonder": 1036,
      "head": 1037,
      "preci": 1038,
      "husband": 1039,
      "mom": 1040,
      "went": 1041,
      "solut": 1042,
      "struggling": 1043,
      "spend": 1044,
      "test": 1045,
      "lection": 1046,
      "iness": 1047,
      "ear": 1048,
      "quite": 1049,
      "hours": 1050,
      "actly": 1051,
      "appreci": 1052,
      "aught": 1053,
      "spon": 1054,
      "miss": 1055,
      "certain": 1056,
      "ody": 1057,
      "isn": 1058,
      "spea": 1059,
      "rible": 1060,
      "social": 1061,
      "fut": 1062,
      "book": 1063,
      "milar": 1064,
      "leave": 1065,
      "sort": 1066,
      "ull": 1067,
      "wrong": 1068,
      "college": 1069,
      "fine": 1070,
      "future": 1071,
      "Ref": 1072,
      "Al": 1073,
      "respon": 1074,
      "cre": 1075,
      "acc": 1076,
      "play": 1077,
      "inv": 1078,
      "Reflection": 1079,
      "similar": 1080,
      "worth": 1081,
      "daught": 1082,
      "specific": 1083,
      "fully": 1084,
      "high": 1085,
      "completely": 1086,
      "face": 1087,
      "step": 1088,
      "wife": 1089,
      "convers": 1090,
      "lonely": 1091,
      "trou": 1092,
      "des": 1093,
      "resu": 1094,
      "search": 1095,
      "ph": 1096,
      "sed": 1097,
      "scare": 1098,
      "ative": 1099,
      "left": 1100,
      "pect": 1101,
      "lic": 1102,
      "hurt": 1103,
      "Christmas": 1104,
      "vie": 1105,
      "room": 1106,
      "body": 1107,
      "tot": 1108,
      "angry": 1109,
      "yet": 1110,
      "boss": 1111,
      "car": 1112,
      "worse": 1113,
      "opp": 1114,
      "tu": 1115,
      "asking": 1116,
      "lose": 1117,
      "ically": 1118,
      "company": 1119,
      "tic": 1120,
      "finan": 1121,
      "totally": 1122,
      "pain": 1123,
      "Any": 1124,
      "commun": 1125,
      "rela": 1126,
      "outside": 1127,
      "ular": 1128,
      "finding": 1129,
      "Co": 1130,
      "Im": 1131,
      "asing": 1132,
      "conne": 1133,
      "talked": 1134,
      "hob": 1135,
      "free": 1136,
      "heart": 1137,
      "atch": 1138,
      "Did": 1139,
      "far": 1140,
      "ither": 1141,
      "Why": 1142,
      "az": 1143,
      "small": 1144,
      "daughter": 1145,
      "group": 1146,
      "relax": 1147,
      "usu": 1148,
      "classes": 1149,
      "iting": 1150,
      "weeks": 1151,
      "ced": 1152,
      "bed": 1153,
      "affect": 1154,
      "saying": 1155,
      "world": 1156,
      "children": 1157,
      "please": 1158,
      "aw": 1159,
      "chur": 1160,
      "activ": 1161,
      "rest": 1162,
      "remember": 1163,
      "ication": 1164,
      "hr": 1165,
      "Or": 1166,
      "til": 1167,
      "cut": 1168,
      "Be": 1169,
      "opt": 1170,
      "bring": 1171,
      "appreciate": 1172,
      "aren": 1173,
      "ake": 1174,
      "mess": 1175,
      "Ho": 1176,
      "ton": 1177,
      "position": 1178,
      "ors": 1179,
      "comfort": 1180,
      "phone": 1181,
      "ize": 1182,
      "pass": 1183,
      "often": 1184,
      "lately": 1185,
      "20": 1186,
      "ject": 1187,
      "bother": 1188,
      "vel": 1189,
      "scared": 1190,
      "gle": 1191,
      "until": 1192,
      "fortun": 1193,
      "Per": 1194,
      "oh": 1195,
      "Information": 1196,
      "atement": 1197,
      "erc": 1198,
      "mother": 1199,
      "!!": 1200,
      "anymore": 1201,
      "mm": 1202,
      "ills": 1203,
      "exactly": 1204,
      "conversation": 1205,
      "Ah": 1206,
      "easy": 1207,
      "wel": 1208,
      "tired": 1209,
      "ans": 1210,
      "Par": 1211,
      "either": 1212,
      "check": 1213,
      "ier": 1214,
      "vis": 1215,
      "ms": 1216,
      "ves": 1217,
      "afra": 1218,
      "afraid": 1219,
      "sell": 1220,
      "lock": 1221,
      "trouble": 1222,
      "church": 1223,
      "food": 1224,
      "cond": 1225,
      "aphr": 1226,
      "ious": 1227,
      "ctor": 1228,
      "living": 1229,
      "contro": 1230,
      "possible": 1231,
      "ved": 1232,
      "welcome": 1233,
      "Rest": 1234,
      "Paraphr": 1235,
      "Restatement": 1236,
      "Paraphrasing": 1237,
      "den": 1238,
      "focus": 1239,
      "ach": 1240,
      "stop": 1241,
      "res": 1242,
      "cept": 1243,
      "lain": 1244,
      "gener": 1245,
      "cant": 1246,
      "dist": 1247,
      "chang": 1248,
      "chall": 1249,
      "learn": 1250,
      "Does": 1251,
      "turn": 1252,
      "sy": 1253,
      "giving": 1254,
      "thats": 1255,
      "enti": 1256,
      "connect": 1257,
      "mental": 1258,
      "hate": 1259,
      "sk": 1260,
      "cannot": 1261,
      "drink": 1262,
      "ru": 1263,
      "gets": 1264,
      "stuff": 1265,
      "thoughts": 1266,
      "cing": 1267,
      "full": 1268,
      "overwh": 1269,
      "vor": 1270,
      "ments": 1271,
      "ger": 1272,
      "pri": 1273,
      "dealing": 1274,
      "busy": 1275,
      "ken": 1276,
      "vacc": 1277,
      "teach": 1278,
      "nerv": 1279,
      "manage": 1280,
      "overwhel": 1281,
      "safe": 1282,
      "matter": 1283,
      "usually": 1284,
      "holidays": 1285,
      "Perhaps": 1286,
      "nervous": 1287,
      "forward": 1288,
      "become": 1289,
      "helping": 1290,
      "ds": 1291,
      "suggestions": 1292,
      "took": 1293,
      "frustrating": 1294,
      "Covid": 1295,
      "strong": 1296,
      "ast": 1297,
      "fight": 1298,
      "currently": 1299,
      "sense": 1300,
      "question": 1301,
      "wants": 1302,
      "control": 1303,
      "exerc": 1304,
      "mag": 1305,
      "morning": 1306,
      "10": 1307,
      "discu": 1308,
      "experien": 1309,
      "mend": 1310,
      "couple": 1311,
      "came": 1312,
      "contact": 1313,
      "ass": 1314,
      "evening": 1315,
      "ob": 1316,
      "run": 1317,
      "ering": 1318,
      "ork": 1319,
      "tri": 1320,
      "edu": 1321,
      "seeing": 1322,
      "suppor": 1323,
      "fortunately": 1324,
      "watch": 1325,
      "ession": 1326,
      "doctor": 1327,
      "Okay": 1328,
      "encour": 1329,
      "view": 1330,
      "considered": 1331,
      "tonight": 1332,
      "ates": 1333,
      "manag": 1334,
      "Hope": 1335,
      "gan": 1336,
      "suff": 1337,
      "heard": 1338,
      "Please": 1339,
      "worked": 1340,
      "video": 1341,
      "reg": 1342,
      "friendship": 1343,
      "personal": 1344,
      "fail": 1345,
      "mus": 1346,
      "profession": 1347,
      "cle": 1348,
      "therapy": 1349,
      "whole": 1350,
      "ail": 1351,
      "needs": 1352,
      "Its": 1353,
      "wasn": 1354,
      "phys": 1355,
      "gust": 1356,
      "disgust": 1357,
      "hu": 1358,
      "expect": 1359,
      "calm": 1360,
      "concern": 1361,
      "Wow": 1362,
      "minut": 1363,
      "almost": 1364,
      "quit": 1365,
      "wouldn": 1366,
      "Re": 1367,
      "sch": 1368,
      "perhaps": 1369,
      "emotions": 1370,
      "contin": 1371,
      "loyment": 1372,
      "groups": 1373,
      "isol": 1374,
      "bas": 1375,
      "commend": 1376,
      "imag": 1377,
      "men": 1378,
      "val": 1379,
      "ted": 1380,
      "state": 1381,
      "fig": 1382,
      "Hey": 1383,
      "order": 1384,
      "light": 1385,
      "married": 1386,
      "hop": 1387,
      "name": 1388,
      "gone": 1389,
      "fair": 1390,
      "oo": 1391,
      "du": 1392,
      "understanding": 1393,
      "oid": 1394,
      "confid": 1395,
      "ash": 1396,
      "main": 1397,
      "died": 1398,
      "moved": 1399,
      "music": 1400,
      "impro": 1401,
      "guy": 1402,
      "game": 1403,
      "losing": 1404,
      "explain": 1405,
      "distr": 1406,
      "youn": 1407,
      "reading": 1408,
      "nat": 1409,
      "comfortable": 1410,
      "19": 1411,
      "assist": 1412,
      "super": 1413,
      "Now": 1414,
      "recommend": 1415,
      "speak": 1416,
      "bothering": 1417,
      "bies": 1418,
      "dad": 1419,
      "For": 1420,
      "reli": 1421,
      "type": 1422,
      "medi": 1423,
      "terrible": 1424,
      "ility": 1425,
      "tru": 1426,
      "etc": 1427,
      "partic": 1428,
      "particular": 1429,
      "Ex": 1430,
      "row": 1431,
      "pet": 1432,
      "ones": 1433,
      "cope": 1434,
      "treat": 1435,
      "luck": 1436,
      "causing": 1437,
      "Don": 1438,
      "hang": 1439,
      "grad": 1440,
      "prepare": 1441,
      "hobbies": 1442,
      "figure": 1443,
      "neg": 1444,
      "healthy": 1445,
      "motivated": 1446,
      "tend": 1447,
      "vious": 1448,
      "ater": 1449,
      "suc": 1450,
      "resume": 1451,
      "dri": 1452,
      "Li": 1453,
      "gram": 1454,
      "mask": 1455,
      "starting": 1456,
      "reaching": 1457,
      "discuss": 1458,
      "area": 1459,
      "imagine": 1460,
      "decis": 1461,
      "solutely": 1462,
      "Your": 1463,
      "easier": 1464,
      "ortun": 1465,
      "clear": 1466,
      "plac": 1467,
      "sister": 1468,
      "financial": 1469,
      "serious": 1470,
      "case": 1471,
      "wait": 1472,
      "cen": 1473,
      "selves": 1474,
      "invol": 1475,
      "sick": 1476,
      "top": 1477,
      "At": 1478,
      "counsell": 1479,
      "del": 1480,
      "As": 1481,
      "tex": 1482,
      "scary": 1483,
      "worst": 1484,
      "appro": 1485,
      "llow": 1486,
      "loved": 1487,
      "counsel": 1488,
      "Of": 1489,
      "une": 1490,
      "spect": 1491,
      "program": 1492,
      "takes": 1493,
      "challeng": 1494,
      "pat": 1495,
      "student": 1496,
      "ideas": 1497,
      "sleeping": 1498,
      "ict": 1499,
      "opportun": 1500,
      "ition": 1501,
      "local": 1502,
      "goals": 1503,
      "follow": 1504,
      "business": 1505,
      "schedu": 1506,
      "professional": 1507,
      "ref": 1508,
      "eless": 1509,
      "called": 1510,
      "offer": 1511,
      "Also": 1512,
      "seen": 1513,
      "qui": 1514,
      "event": 1515,
      "fac": 1516,
      "ith": 1517,
      "cheated": 1518,
      "distract": 1519,
      "avoid": 1520,
      "orry": 1521,
      "ding": 1522,
      "studying": 1523,
      "Un": 1524,
      "meeting": 1525,
      "Every": 1526,
      "cy": 1527,
      "loss": 1528,
      "telling": 1529,
      "handle": 1530,
      "wow": 1531,
      "wear": 1532,
      "activities": 1533,
      "extre": 1534,
      "relate": 1535,
      "vaccine": 1536,
      "bor": 1537,
      "ush": 1538,
      "riage": 1539,
      "qual": 1540,
      "ga": 1541,
      "slow": 1542,
      "stor": 1543,
      "craz": 1544,
      "sign": 1545,
      "therapist": 1546,
      "comes": 1547,
      "apply": 1548,
      "stead": 1549,
      "happening": 1550,
      "negative": 1551,
      "father": 1552,
      "given": 1553,
      "da": 1554,
      "ending": 1555,
      "manager": 1556,
      "Sorry": 1557,
      "organ": 1558,
      "ub": 1559,
      "unemp": 1560,
      "schedule": 1561,
      "effort": 1562,
      "asked": 1563,
      "knew": 1564,
      "works": 1565,
      "inc": 1566,
      "ween": 1567,
      "project": 1568,
      "sent": 1569,
      "personally": 1570,
      "medit": 1571,
      "hor": 1572,
      "mist": 1573,
      "serv": 1574,
      "learning": 1575,
      "ual": 1576,
      "goes": 1577,
      "dating": 1578,
      "fall": 1579,
      "deser": 1580,
      "allow": 1581,
      "thre": 1582,
      "struggle": 1583,
      "virus": 1584,
      "tra": 1585,
      "ird": 1586,
      "deep": 1587,
      "encourage": 1588,
      "marriage": 1589,
      "oc": 1590,
      "ines": 1591,
      "mood": 1592,
      "bi": 1593,
      "sever": 1594,
      "oom": 1595,
      "ris": 1596,
      "oud": 1597,
      "ben": 1598,
      "willing": 1599,
      "crazy": 1600,
      "income": 1601,
      "God": 1602,
      "extrem": 1603,
      "answ": 1604,
      "longer": 1605,
      "happens": 1606,
      "chatting": 1607,
      "daily": 1608,
      "ends": 1609,
      "sub": 1610,
      "moving": 1611,
      "benef": 1612,
      "hold": 1613,
      "bur": 1614,
      "eat": 1615,
      "nu": 1616,
      "second": 1617,
      "motivation": 1618,
      "options": 1619,
      "words": 1620,
      "extra": 1621,
      "cks": 1622,
      "Try": 1623,
      "exercise": 1624,
      "On": 1625,
      "late": 1626,
      "ended": 1627,
      "relationships": 1628,
      "avail": 1629,
      "available": 1630,
      "ices": 1631,
      "accept": 1632,
      "turk": 1633,
      "igh": 1634,
      "says": 1635,
      "honestly": 1636,
      "between": 1637,
      "ages": 1638,
      "listening": 1639,
      "male": 1640,
      "improve": 1641,
      "gotten": 1642,
      "provide": 1643,
      "suppose": 1644,
      "pur": 1645,
      "information": 1646,
      "mail": 1647,
      "supportive": 1648,
      "example": 1649,
      "ial": 1650,
      "pick": 1651,
      "dest": 1652,
      "tou": 1653,
      "ying": 1654,
      "cover": 1655,
      "general": 1656,
      "dep": 1657,
      "noon": 1658,
      "mer": 1659,
      "career": 1660,
      "interested": 1661,
      "ring": 1662,
      "write": 1663,
      "mad": 1664,
      "met": 1665,
      "term": 1666,
      "gave": 1667,
      "cheating": 1668,
      "extremely": 1669,
      "One": 1670,
      "shame": 1671,
      "concerned": 1672,
      "mit": 1673,
      "wonderful": 1674,
      "level": 1675,
      "wards": 1676,
      "lives": 1677,
      "hal": 1678,
      "brother": 1679,
      "ath": 1680,
      "les": 1681,
      "fiel": 1682,
      "apart": 1683,
      "ping": 1684,
      "needed": 1685,
      "fact": 1686,
      "tail": 1687,
      "afternoon": 1688,
      "medication": 1689,
      "quick": 1690,
      "frustrated": 1691,
      "Sure": 1692,
      "lay": 1693,
      "everyday": 1694,
      "count": 1695,
      "staying": 1696,
      "rep": 1697,
      "join": 1698,
      "understandable": 1699,
      "exc": 1700,
      "ounds": 1701,
      "overwhelmed": 1702,
      "Ab": 1703,
      "putting": 1704,
      "cow": 1705,
      "grand": 1706,
      "plans": 1707,
      "minutes": 1708,
      "aware": 1709,
      "continue": 1710,
      "city": 1711,
      "hind": 1712,
      "divor": 1713,
      "touch": 1714,
      "respect": 1715,
      "saw": 1716,
      "Then": 1717,
      "ized": 1718,
      "De": 1719,
      "temp": 1720,
      "behind": 1721,
      "success": 1722,
      "horrible": 1723,
      "fron": 1724,
      "profess": 1725,
      "na": 1726,
      "ee": 1727,
      "ught": 1728,
      "However": 1729,
      "stru": 1730,
      "ctive": 1731,
      "ream": 1732,
      "tern": 1733,
      "taken": 1734,
      "special": 1735,
      "speaking": 1736,
      "Has": 1737,
      "ni": 1738,
      "stant": 1739,
      "alright": 1740,
      "news": 1741,
      "places": 1742,
      "ford": 1743,
      "afford": 1744,
      "dies": 1745,
      "fresh": 1746,
      "osed": 1747,
      "cry": 1748,
      "sho": 1749,
      "knowing": 1750,
      "counselling": 1751,
      "lish": 1752,
      "finish": 1753,
      "certainly": 1754,
      "deserve": 1755,
      "Was": 1756,
      "ming": 1757,
      "task": 1758,
      "skills": 1759,
      "yo": 1760,
      "wesome": 1761,
      "members": 1762,
      "chance": 1763,
      "knows": 1764,
      "supposed": 1765,
      "woman": 1766,
      "simp": 1767,
      "ital": 1768,
      "decid": 1769,
      "15": 1770,
      "bly": 1771,
      "beg": 1772,
      "lied": 1773,
      "process": 1774,
      "looked": 1775,
      "Mo": 1776,
      "couldn": 1777,
      "die": 1778,
      "pub": 1779,
      "instead": 1780,
      "field": 1781,
      "cowork": 1782,
      "near": 1783,
      "guil": 1784,
      "worrying": 1785,
      "story": 1786,
      "Tell": 1787,
      "challenging": 1788,
      "ele": 1789,
      "option": 1790,
      "risk": 1791,
      "HI": 1792,
      "harder": 1793,
      "unch": 1794,
      "cir": 1795,
      "visit": 1796,
      "lik": 1797,
      "ju": 1798,
      "form": 1799,
      "resul": 1800,
      "drinking": 1801,
      "argu": 1802,
      "acting": 1803,
      "wanting": 1804,
      "compan": 1805,
      "solution": 1806,
      "sites": 1807,
      "previous": 1808,
      "responsi": 1809,
      "mid": 1810,
      "lots": 1811,
      "office": 1812,
      "baby": 1813,
      "suffer": 1814,
      "decision": 1815,
      "hit": 1816,
      "log": 1817,
      "grow": 1818,
      "Like": 1819,
      "however": 1820,
      "hol": 1821,
      "All": 1822,
      "common": 1823,
      "bank": 1824,
      "hoping": 1825,
      "pear": 1826,
      "physical": 1827,
      "season": 1828,
      "learned": 1829,
      "fur": 1830,
      "three": 1831,
      "begin": 1832,
      "weird": 1833,
      "country": 1834,
      "memor": 1835,
      "passed": 1836,
      "ount": 1837,
      "stly": 1838,
      "path": 1839,
      "means": 1840,
      "oken": 1841,
      "team": 1842,
      "ural": 1843,
      "stuck": 1844,
      "Ha": 1845,
      "mine": 1846,
      "shut": 1847,
      "pray": 1848,
      "tual": 1849,
      "lockdown": 1850,
      "games": 1851,
      "awesome": 1852,
      "snow": 1853,
      "incre": 1854,
      "constant": 1855,
      "hopefully": 1856,
      "writing": 1857,
      "ised": 1858,
      "interview": 1859,
      "ote": 1860,
      "haring": 1861,
      "Tr": 1862,
      "short": 1863,
      "situations": 1864,
      "pleas": 1865,
      "party": 1866,
      "half": 1867,
      "spoken": 1868,
      "later": 1869,
      "amaz": 1870,
      "walks": 1871,
      "tech": 1872,
      "holiday": 1873,
      "leg": 1874,
      "Unfortunately": 1875,
      "sucks": 1876,
      "treating": 1877,
      "numb": 1878,
      "ens": 1879,
      "ups": 1880,
      "sharing": 1881,
      "forget": 1882,
      "suggestion": 1883,
      "hot": 1884,
      "weight": 1885,
      "paper": 1886,
      "bal": 1887,
      "wont": 1888,
      "distance": 1889,
      "neigh": 1890,
      "action": 1891,
      "yoga": 1892,
      "sto": 1893,
      "along": 1894,
      "cohol": 1895,
      "unemployment": 1896,
      "ket": 1897,
      "cold": 1898,
      "workers": 1899,
      "board": 1900,
      "keeping": 1901,
      "turned": 1902,
      "public": 1903,
      "Thats": 1904,
      "absolutely": 1905,
      "stem": 1906,
      "char": 1907,
      "haha": 1908,
      "cancer": 1909,
      "text": 1910,
      "bills": 1911,
      "train": 1912,
      "Could": 1913,
      "havi": 1914,
      "behavi": 1915,
      "goal": 1916,
      "interesting": 1917,
      "against": 1918,
      "changed": 1919,
      "ling": 1920,
      "rather": 1921,
      "realize": 1922,
      "virtual": 1923,
      "facing": 1924,
      "communic": 1925,
      "ssing": 1926,
      "Even": 1927,
      "messages": 1928,
      "involved": 1929,
      "eventually": 1930,
      "express": 1931,
      "From": 1932,
      "OK": 1933,
      "tow": 1934,
      "mester": 1935,
      "trav": 1936,
      "ident": 1937,
      "calls": 1938,
      "spending": 1939,
      "symp": 1940,
      "paid": 1941,
      "wise": 1942,
      "communication": 1943,
      "seek": 1944,
      "hosp": 1945,
      "Whi": 1946,
      "ery": 1947,
      "semester": 1948,
      "atever": 1949,
      "brain": 1950,
      "exams": 1951,
      "net": 1952,
      "St": 1953,
      "lies": 1954,
      "mostly": 1955,
      "Because": 1956,
      "ited": 1957,
      "mention": 1958,
      "build": 1959,
      "sal": 1960,
      "ising": 1961,
      "confidence": 1962,
      "approach": 1963,
      "proper": 1964,
      "studies": 1965,
      "medic": 1966,
      "appo": 1967,
      "single": 1968,
      "management": 1969,
      "mistake": 1970,
      "concerns": 1971,
      "decided": 1972,
      "hes": 1973,
      "amount": 1974,
      "complish": 1975,
      "Sleep": 1976,
      "cat": 1977,
      "iver": 1978,
      "jour": 1979,
      "ources": 1980,
      "courses": 1981,
      "young": 1982,
      "sted": 1983,
      "front": 1984,
      "rief": 1985,
      "unfortunately": 1986,
      "hasn": 1987,
      "walking": 1988,
      "answer": 1989,
      "appoint": 1990,
      "whatever": 1991,
      "Pe": 1992,
      "choose": 1993,
      "fault": 1994,
      "books": 1995,
      "opportunity": 1996,
      "town": 1997,
      "air": 1998,
      "email": 1999,
      "ange": 2000,
      "accomplish": 2001,
      "Fri": 2002,
      "kept": 2003,
      "effect": 2004,
      "upsetting": 2005,
      "overcome": 2006,
      "media": 2007,
      "pped": 2008,
      "favor": 2009,
      "respond": 2010,
      "Very": 2011,
      "whats": 2012,
      "buy": 2013,
      "system": 2014,
      "experiencing": 2015,
      "lead": 2016,
      "waiting": 2017,
      "ient": 2018,
      "aged": 2019,
      "fer": 2020,
      "employ": 2021,
      "meditation": 2022,
      "lier": 2023,
      "People": 2024,
      "bt": 2025,
      "dden": 2026,
      "requi": 2027,
      "ses": 2028,
      "load": 2029,
      "ties": 2030,
      "reasons": 2031,
      "mturk": 2032,
      "alot": 2033,
      "sudden": 2034,
      "Problems": 2035,
      "seeking": 2036,
      "shows": 2037,
      "huge": 2038,
      "lack": 2039,
      "nal": 2040,
      "push": 2041,
      "stopp": 2042,
      "ability": 2043,
      "loye": 2044,
      "broken": 2045,
      "employe": 2046,
      "specifically": 2047,
      "regard": 2048,
      "prepared": 2049,
      "ks": 2050,
      "ify": 2051,
      "ention": 2052,
      "didnt": 2053,
      "Gre": 2054,
      "breath": 2055,
      "grade": 2056,
      "counselor": 2057,
      "themselves": 2058,
      "emotional": 2059,
      "tested": 2060,
      "travel": 2061,
      "assi": 2062,
      "ile": 2063,
      "thinks": 2064,
      "ime": 2065,
      "research": 2066,
      "strate": 2067,
      "attention": 2068,
      "Sounds": 2069,
      "proud": 2070,
      "planning": 2071,
      "wake": 2072,
      "inside": 2073,
      "fiance": 2074,
      "energy": 2075,
      "lad": 2076,
      "pot": 2077,
      "haust": 2078,
      "key": 2079,
      "known": 2080,
      "exhaust": 2081,
      "perfect": 2082,
      "hospital": 2083,
      "separ": 2084,
      "quar": 2085,
      "bling": 2086,
      "companies": 2087,
      "Fe": 2088,
      "ied": 2089,
      "hood": 2090,
      "letting": 2091,
      "questions": 2092,
      "unt": 2093,
      "laid": 2094,
      "frustration": 2095,
      "cri": 2096,
      "towards": 2097,
      "practi": 2098,
      "financially": 2099,
      "professor": 2100,
      "gain": 2101,
      "vol": 2102,
      "rece": 2103,
      "ization": 2104,
      "dump": 2105,
      "keeps": 2106,
      "reached": 2107,
      "LO": 2108,
      "mile": 2109,
      "faith": 2110,
      "actions": 2111,
      "clean": 2112,
      "truly": 2113,
      "quickly": 2114,
      "Great": 2115,
      "dream": 2116,
      "maj": 2117,
      "typ": 2118,
      "--": 2119,
      "ber": 2120,
      "affected": 2121,
      "isolated": 2122,
      "coping": 2123,
      "correctly": 2124,
      "earlier": 2125,
      "teacher": 2126,
      "To": 2127,
      "aut": 2128,
      "dead": 2129,
      "detail": 2130,
      "wea": 2131,
      "experienced": 2132,
      "fee": 2133,
      "ease": 2134,
      "overwhelming": 2135,
      "gro": 2136,
      "aring": 2137,
      "knowled": 2138,
      "unable": 2139,
      "mix": 2140,
      "ah": 2141,
      "hamed": 2142,
      "ashamed": 2143,
      "yester": 2144,
      "fill": 2145,
      "itch": 2146,
      "necess": 2147,
      "pregn": 2148,
      "market": 2149,
      "lict": 2150,
      "spective": 2151,
      "conflict": 2152,
      "ential": 2153,
      "Feel": 2154,
      "Get": 2155,
      "aging": 2156,
      "Me": 2157,
      "nel": 2158,
      "ars": 2159,
      "anywhere": 2160,
      "web": 2161,
      "30": 2162,
      "appear": 2163,
      "considering": 2164,
      "basically": 2165,
      "gradu": 2166,
      "ny": 2167,
      "ries": 2168,
      "specially": 2169,
      "igno": 2170,
      "decide": 2171,
      "Hopefully": 2172,
      "journal": 2173,
      "ove": 2174,
      "cool": 2175,
      "paying": 2176,
      "regular": 2177,
      "Since": 2178,
      "bility": 2179,
      "degree": 2180,
      "message": 2181,
      "natural": 2182,
      "Hone": 2183,
      "rout": 2184,
      "Being": 2185,
      "several": 2186,
      "assign": 2187,
      "yesterday": 2188,
      "Honestly": 2189,
      "service": 2190,
      ").": 2191,
      "movie": 2192,
      "Things": 2193,
      "ift": 2194,
      "memories": 2195,
      "ahead": 2196,
      "ancing": 2197,
      "present": 2198,
      "affecting": 2199,
      "cl": 2200,
      "medical": 2201,
      "mally": 2202,
      "female": 2203,
      "logy": 2204,
      "employment": 2205,
      "hobby": 2206,
      "dro": 2207,
      "till": 2208,
      "site": 2209,
      "breaking": 2210,
      "coworkers": 2211,
      "early": 2212,
      "osing": 2213,
      "commit": 2214,
      "Many": 2215,
      "dd": 2216,
      "mand": 2217,
      "gover": 2218,
      "icial": 2219,
      "spir": 2220,
      "pattern": 2221,
      "??": 2222,
      "tomor": 2223,
      "report": 2224,
      "divorce": 2225,
      "tomorrow": 2226,
      "dou": 2227,
      "surpr": 2228,
      "date": 2229,
      "cost": 2230,
      "eating": 2231,
      "zoom": 2232,
      "anno": 2233,
      "loc": 2234,
      "direct": 2235,
      "True": 2236,
      "Cor": 2237,
      "ination": 2238,
      "ssues": 2239,
      "arent": 2240,
      "result": 2241,
      "awhile": 2242,
      "doesnt": 2243,
      "finally": 2244,
      "related": 2245,
      "tasks": 2246,
      "Issues": 2247,
      "concen": 2248,
      "comput": 2249,
      "brought": 2250,
      "After": 2251,
      "Ne": 2252,
      "lying": 2253,
      "anyway": 2254,
      "hiring": 2255,
      "cies": 2256,
      "crast": 2257,
      "mentioned": 2258,
      "mis": 2259,
      "sw": 2260,
      "reward": 2261,
      "opin": 2262,
      "applic": 2263,
      "center": 2264,
      "Where": 2265,
      "ging": 2266,
      "smile": 2267,
      "became": 2268,
      "six": 2269,
      "guys": 2270,
      "painful": 2271,
      "jud": 2272,
      "Especially": 2273,
      "fit": 2274,
      "ins": 2275,
      "above": 2276,
      "looks": 2277,
      "fighting": 2278,
      "assistance": 2279,
      "slowly": 2280,
      "NO": 2281,
      "ian": 2282,
      "hearing": 2283,
      "breathing": 2284,
      "choice": 2285,
      "tens": 2286,
      "inclu": 2287,
      "occ": 2288,
      "IT": 2289,
      "ark": 2290,
      "rid": 2291,
      "rict": 2292,
      "within": 2293,
      "fami": 2294,
      "normally": 2295,
      "teen": 2296,
      "guilty": 2297,
      "favorite": 2298,
      "feed": 2299,
      "aff": 2300,
      "ground": 2301,
      "fix": 2302,
      "cum": 2303,
      "resources": 2304,
      "gled": 2305,
      "ond": 2306,
      "struggled": 2307,
      "Thanksgiving": 2308,
      "smart": 2309,
      "Right": 2310,
      "mate": 2311,
      "reco": 2312,
      "Let": 2313,
      "easily": 2314,
      "address": 2315,
      "programs": 2316,
      ":(": 2317,
      "Zoom": 2318,
      "bound": 2319,
      "somewhat": 2320,
      "perspective": 2321,
      "loves": 2322,
      "prote": 2323,
      "hurting": 2324,
      "missing": 2325,
      "major": 2326,
      "alcohol": 2327,
      "guid": 2328,
      "large": 2329,
      "scri": 2330,
      "awful": 2331,
      "truth": 2332,
      "details": 2333,
      "beaut": 2334,
      "elling": 2335,
      "Anything": 2336,
      "opportunities": 2337,
      "door": 2338,
      "agen": 2339,
      "students": 2340,
      "argument": 2341,
      "computer": 2342,
      "beat": 2343,
      "caused": 2344,
      "ourselves": 2345,
      "sig": 2346,
      "fast": 2347,
      "solve": 2348,
      "lonel": 2349,
      "generally": 2350,
      "Ke": 2351,
      "Take": 2352,
      "Work": 2353,
      "sil": 2354,
      "redu": 2355,
      "changes": 2356,
      "watching": 2357,
      "unte": 2358,
      "Keep": 2359,
      "Hmm": 2360,
      "spent": 2361,
      "ube": 2362,
      "stood": 2363,
      "itu": 2364,
      "arely": 2365,
      "offee": 2366,
      "cono": 2367,
      "Exactly": 2368,
      "tempor": 2369,
      "ances": 2370,
      "complic": 2371,
      "meds": 2372,
      "crying": 2373,
      "suffered": 2374,
      "loneliness": 2375,
      "pull": 2376,
      "ants": 2377,
      "emotionally": 2378,
      "trip": 2379,
      "supervis": 2380,
      "Pl": 2381,
      "See": 2382,
      "ures": 2383,
      "likely": 2384,
      "His": 2385,
      "prom": 2386,
      "notic": 2387,
      "connected": 2388,
      "suffering": 2389,
      "confident": 2390,
      "Absolutely": 2391,
      "whe": 2392,
      "ics": 2393,
      "worker": 2394,
      "himself": 2395,
      "community": 2396,
      "circum": 2397,
      "50": 2398,
      "coffee": 2399,
      "active": 2400,
      "drug": 2401,
      "quarant": 2402,
      "volunte": 2403,
      "With": 2404,
      "gig": 2405,
      "instru": 2406,
      "enge": 2407,
      "ower": 2408,
      "closed": 2409,
      "challenge": 2410,
      "antage": 2411,
      "advantage": 2412,
      "drive": 2413,
      "pursu": 2414,
      "store": 2415,
      "Sh": 2416,
      "inner": 2417,
      "aries": 2418,
      "activity": 2419,
      "iction": 2420,
      "burden": 2421,
      "bul": 2422,
      "yours": 2423,
      "space": 2424,
      "valid": 2425,
      "knowledge": 2426,
      "Chi": 2427,
      "vo": 2428,
      "meant": 2429,
      "iful": 2430,
      "nobody": 2431,
      "women": 2432,
      "minute": 2433,
      "relie": 2434,
      "successful": 2435,
      "amazing": 2436,
      "stopped": 2437,
      "circumst": 2438,
      "cha": 2439,
      "que": 2440,
      "meth": 2441,
      "somewhere": 2442,
      "except": 2443,
      "compet": 2444,
      "blue": 2445,
      "beautiful": 2446,
      "bye": 2447,
      "lie": 2448,
      "cook": 2449,
      "provid": 2450,
      "final": 2451,
      "nature": 2452,
      "constantly": 2453,
      "ded": 2454,
      "ssive": 2455,
      "hey": 2456,
      "lig": 2457,
      "nia": 2458,
      "grocer": 2459,
      "bla": 2460,
      "um": 2461,
      "betr": 2462,
      "older": 2463,
      "entire": 2464,
      "betray": 2465,
      "cli": 2466,
      "iled": 2467,
      "pite": 2468,
      "leaving": 2469,
      "playing": 2470,
      "pping": 2471,
      "law": 2472,
      "higher": 2473,
      "itude": 2474,
      "AN": 2475,
      "onna": 2476,
      "sun": 2477,
      "Doing": 2478,
      "strange": 2479,
      "complete": 2480,
      "steps": 2481,
      "pict": 2482,
      "war": 2483,
      "ased": 2484,
      "changing": 2485,
      "Most": 2486,
      "regarding": 2487,
      "practice": 2488,
      "method": 2489,
      "send": 2490,
      "itself": 2491,
      "hardest": 2492,
      "thankful": 2493,
      "difference": 2494,
      "applying": 2495,
      "services": 2496,
      "doubt": 2497,
      "aur": 2498,
      "apo": 2499,
      "ises": 2500,
      "deed": 2501,
      "caught": 2502,
      "sity": 2503,
      "smo": 2504,
      "road": 2505,
      "lift": 2506,
      "post": 2507,
      "spouse": 2508,
      "subject": 2509,
      "New": 2510,
      "gen": 2511,
      "grief": 2512,
      "power": 2513,
      "adult": 2514,
      "save": 2515,
      "cure": 2516,
      "tips": 2517,
      "ceed": 2518,
      "happiness": 2519,
      "stressing": 2520,
      "finals": 2521,
      "sight": 2522,
      "gives": 2523,
      "specialist": 2524,
      "number": 2525,
      "Which": 2526,
      "ba": 2527,
      "bc": 2528,
      "acks": 2529,
      "forever": 2530,
      "period": 2531,
      "physically": 2532,
      "depend": 2533,
      "onment": 2534,
      "taught": 2535,
      "fire": 2536,
      "restaur": 2537,
      "supervisor": 2538,
      "cred": 2539,
      "clu": 2540,
      "dev": 2541,
      "tract": 2542,
      "word": 2543,
      "depressing": 2544,
      "polit": 2545,
      "hopeless": 2546,
      "wearing": 2547,
      "boundaries": 2548,
      "Should": 2549,
      "HR": 2550,
      "goo": 2551,
      "apped": 2552,
      "meaning": 2553,
      "Mar": 2554,
      "nment": 2555,
      "account": 2556,
      "poor": 2557,
      "badly": 2558,
      "searching": 2559,
      "gonna": 2560,
      "hmm": 2561,
      "unk": 2562,
      "sides": 2563,
      "hurts": 2564,
      "accident": 2565,
      "ensive": 2566,
      "stick": 2567,
      "death": 2568,
      "angu": 2569,
      "wondering": 2570,
      "counseling": 2571,
      "patient": 2572,
      "US": 2573,
      "eyes": 2574,
      "ware": 2575,
      "becoming": 2576,
      "session": 2577,
      "Nothing": 2578,
      "lucky": 2579,
      "sn": 2580,
      "staff": 2581,
      "gym": 2582,
      "mentally": 2583,
      "layoff": 2584,
      "simply": 2585,
      "fell": 2586,
      "repe": 2587,
      "track": 2588,
      "reak": 2589,
      "meetings": 2590,
      "treatment": 2591,
      "hotel": 2592,
      "necessary": 2593,
      "dle": 2594,
      "dark": 2595,
      "recover": 2596,
      "secur": 2597,
      "dire": 2598,
      "calling": 2599,
      "balance": 2600,
      "Getting": 2601,
      "barely": 2602,
      "produ": 2603,
      "despite": 2604,
      "human": 2605,
      "grades": 2606,
      "Make": 2607,
      "park": 2608,
      "google": 2609,
      "fl": 2610,
      "ya": 2611,
      "christmas": 2612,
      "ource": 2613,
      "gress": 2614,
      "difficul": 2615,
      "tests": 2616,
      "mmer": 2617,
      "Life": 2618,
      "Feeling": 2619,
      "HE": 2620,
      "ze": 2621,
      "throw": 2622,
      "erry": 2623,
      "ator": 2624,
      "lect": 2625,
      "trau": 2626,
      "ively": 2627,
      "descri": 2628,
      "assu": 2629,
      "quiet": 2630,
      "complicated": 2631,
      "cele": 2632,
      "eren": 2633,
      "envir": 2634,
      "depart": 2635,
      "useful": 2636,
      "possibly": 2637,
      "celebr": 2638,
      "environment": 2639,
      "cam": 2640,
      "dra": 2641,
      "tox": 2642,
      "dogs": 2643,
      "velop": 2644,
      "Really": 2645,
      "Friends": 2646,
      "government": 2647,
      "),": 2648,
      "Her": 2649,
      "Time": 2650,
      "oug": 2651,
      "alous": 2652,
      "sometime": 2653,
      "selfish": 2654,
      "jealous": 2655,
      "breaths": 2656,
      "feedback": 2657,
      "gies": 2658,
      "rand": 2659,
      "rac": 2660,
      "agno": 2661,
      "invite": 2662,
      "friendships": 2663,
      "purpo": 2664,
      "pleasure": 2665,
      "Child": 2666,
      "econo": 2667,
      "inst": 2668,
      "although": 2669,
      "starts": 2670,
      "bud": 2671,
      "focused": 2672,
      "uncertain": 2673,
      "ilities": 2674,
      "kinda": 2675,
      "neighbor": 2676,
      "Am": 2677,
      "Go": 2678,
      "Merry": 2679,
      "catch": 2680,
      "lines": 2681,
      "havent": 2682,
      "harm": 2683,
      "funny": 2684,
      "cats": 2685,
      "switch": 2686,
      "Iam": 2687,
      "cous": 2688,
      "somehow": 2689,
      "Think": 2690,
      "checked": 2691,
      "middle": 2692,
      "behavior": 2693,
      "weather": 2694,
      "opinion": 2695,
      "access": 2696,
      "herself": 2697,
      "ulti": 2698,
      "closer": 2699,
      "tube": 2700,
      "Everyone": 2701,
      "apartment": 2702,
      "Doug": 2703,
      "zon": 2704,
      "shared": 2705,
      "reasonable": 2706,
      "disgusted": 2707,
      "younger": 2708,
      "Everything": 2709,
      "employees": 2710,
      "whether": 2711,
      "00": 2712,
      "ined": 2713,
      "saving": 2714,
      "surely": 2715,
      "firm": 2716,
      "ches": 2717,
      "sympto": 2718,
      "dated": 2719,
      "mov": 2720,
      "shot": 2721,
      "distancing": 2722,
      "obvious": 2723,
      "Children": 2724,
      "uary": 2725,
      "diagno": 2726,
      "lets": 2727,
      "realized": 2728,
      "sitting": 2729,
      "shouldn": 2730,
      "seriously": 2731,
      "simple": 2732,
      "purpose": 2733,
      "movies": 2734,
      "IN": 2735,
      "lough": 2736,
      "arily": 2737,
      "aspect": 2738,
      "develop": 2739,
      "goodness": 2740,
      "fired": 2741,
      "black": 2742,
      "Only": 2743,
      "furlough": 2744,
      "hab": 2745,
      "irr": 2746,
      "opti": 2747,
      "applied": 2748,
      "facebook": 2749,
      "Tal": 2750,
      "erally": 2751,
      "vest": 2752,
      "limit": 2753,
      "indust": 2754,
      "conv": 2755,
      "profile": 2756,
      "prior": 2757,
      "stronger": 2758,
      "communicate": 2759,
      "pregnant": 2760,
      "recogn": 2761,
      "toxic": 2762,
      "sooo": 2763,
      "cap": 2764,
      "whenever": 2765,
      "2020": 2766,
      "achieve": 2767,
      "involve": 2768,
      "organization": 2769,
      "graduate": 2770,
      "block": 2771,
      "dinner": 2772,
      "fli": 2773,
      "none": 2774,
      "izing": 2775,
      "addition": 2776,
      "desk": 2777,
      "relaxing": 2778,
      "teaching": 2779,
      "circumstances": 2780,
      "card": 2781,
      "pets": 2782,
      "setting": 2783,
      "turning": 2784,
      "Anxi": 2785,
      "attend": 2786,
      "decisions": 2787,
      "training": 2788,
      "drugs": 2789,
      "pan": 2790,
      "twi": 2791,
      "role": 2792,
      "trig": 2793,
      "security": 2794,
      "ire": 2795,
      "kill": 2796,
      "remind": 2797,
      "consu": 2798,
      "ently": 2799,
      "writ": 2800,
      "tutor": 2801,
      "turns": 2802,
      "encouragement": 2803,
      "neighb": 2804,
      "apolog": 2805,
      "twice": 2806,
      "ali": 2807,
      "prefer": 2808,
      "literally": 2809,
      "raise": 2810,
      "attitude": 2811,
      "salary": 2812,
      "occup": 2813,
      "ible": 2814,
      "agencies": 2815,
      "cousin": 2816,
      ":-": 2817,
      "decent": 2818,
      "likes": 2819,
      "seemed": 2820,
      "schools": 2821,
      "usual": 2822,
      "following": 2823,
      "responsible": 2824,
      "Too": 2825,
      "hy": 2826,
      "uncomfortable": 2827,
      "enty": 2828,
      "disappoint": 2829,
      "dealt": 2830,
      "100": 2831,
      "expected": 2832,
      "isolating": 2833,
      "Definitely": 2834,
      "quarantine": 2835,
      "por": 2836,
      "pie": 2837,
      "alive": 2838,
      "heav": 2839,
      "lau": 2840,
      "brings": 2841,
      "aunt": 2842,
      "confused": 2843,
      "engine": 2844,
      "troubling": 2845,
      "separated": 2846,
      "ignore": 2847,
      "anguage": 2848,
      "agre": 2849,
      "besides": 2850,
      "talks": 2851,
      "ption": 2852,
      "engaged": 2853,
      "worthless": 2854,
      "expectations": 2855,
      "strategies": 2856,
      "reduce": 2857,
      "noticed": 2858,
      "emb": 2859,
      "hun": 2860,
      "song": 2861,
      "water": 2862,
      "thes": 2863,
      "ext": 2864,
      "LOL": 2865,
      "signing": 2866,
      "ia": 2867,
      "psy": 2868,
      "running": 2869,
      "Glad": 2870,
      "fu": 2871,
      "insight": 2872,
      "cons": 2873,
      "impact": 2874,
      "sooner": 2875,
      "born": 2876,
      "exhausted": 2877,
      "Face": 2878,
      "ball": 2879,
      "tv": 2880,
      "wind": 2881,
      "stup": 2882,
      "peace": 2883,
      "anytime": 2884,
      "blind": 2885,
      "condition": 2886,
      "benefits": 2887,
      "previously": 2888,
      "surprised": 2889,
      "club": 2890,
      "stupid": 2891,
      "Who": 2892,
      "anim": 2893,
      "soft": 2894,
      "advise": 2895,
      "mini": 2896,
      "focusing": 2897,
      "surve": 2898,
      "teachers": 2899,
      "isolation": 2900,
      "value": 2901,
      "beneficial": 2902,
      "liked": 2903,
      "regre": 2904,
      "ross": 2905,
      "termin": 2906,
      "unless": 2907,
      "immedi": 2908,
      "loyed": 2909,
      "deliver": 2910,
      "receive": 2911,
      "industry": 2912,
      "ship": 2913,
      "ane": 2914,
      "ord": 2915,
      "adjust": 2916,
      "cru": 2917,
      "relief": 2918,
      "hanging": 2919,
      "distracted": 2920,
      "Plus": 2921,
      "pursue": 2922,
      "PT": 2923,
      "SD": 2924,
      "soo": 2925,
      "sex": 2926,
      "acking": 2927,
      "mission": 2928,
      "kinds": 2929,
      "!!!": 2930,
      "based": 2931,
      "guilt": 2932,
      "increased": 2933,
      "medicine": 2934,
      "PTSD": 2935,
      "mut": 2936,
      "extens": 2937,
      "poli": 2938,
      "comple": 2939,
      "cheer": 2940,
      "surger": 2941,
      "challenges": 2942,
      "further": 2943,
      "beginning": 2944,
      "iversity": 2945,
      "voice": 2946,
      "betrayed": 2947,
      "picture": 2948,
      "pi": 2949,
      "ret": 2950,
      "youtube": 2951,
      "secure": 2952,
      "plenty": 2953,
      "growing": 2954,
      "Correct": 2955,
      "Ama": 2956,
      "ior": 2957,
      "wan": 2958,
      "zy": 2959,
      "ons": 2960,
      "ism": 2961,
      "understood": 2962,
      "affair": 2963,
      "progress": 2964,
      "cares": 2965,
      "enjoyed": 2966,
      "struggles": 2967,
      "credit": 2968,
      "aight": 2969,
      "dam": 2970,
      "yelling": 2971,
      "stren": 2972,
      "soci": 2973,
      "straight": 2974,
      "succeed": 2975,
      "properly": 2976,
      "Were": 2977,
      "dying": 2978,
      "habit": 2979,
      "rive": 2980,
      "ribut": 2981,
      ".....": 2982,
      "pays": 2983,
      "connection": 2984,
      "placed": 2985,
      "employer": 2986,
      "potential": 2987,
      "guidance": 2988,
      "11": 2989,
      "Fir": 2990,
      "HA": 2991,
      "anuary": 2992,
      "defin": 2993,
      "trapped": 2994,
      "unsure": 2995,
      "disrespect": 2996,
      "maintain": 2997,
      "unemployed": 2998,
      "effects": 2999,
      "Anxiety": 3000,
      "Amazon": 3001,
      "clar": 3002,
      "irus": 3003,
      "expensive": 3004,
      "protect": 3005,
      ":-)": 3006,
      "embar": 3007,
      "mutual": 3008,
      "12": 3009,
      "loose": 3010,
      "cast": 3011,
      "grew": 3012,
      "cheat": 3013,
      "engage": 3014,
      "pride": 3015,
      "exercises": 3016,
      "driving": 3017,
      "temporary": 3018,
      "AL": 3019,
      "oci": 3020,
      "sou": 3021,
      "sty": 3022,
      "atively": 3023,
      "tight": 3024,
      "Those": 3025,
      "lived": 3026,
      "expen": 3027,
      "restrict": 3028,
      "associ": 3029,
      "failure": 3030,
      "responsibility": 3031,
      "volunteer": 3032,
      "indeed": 3033,
      "hair": 3034,
      "doors": 3035,
      "failed": 3036,
      "Something": 3037,
      "caring": 3038,
      "smaller": 3039,
      "priv": 3040,
      "videos": 3041,
      "avoiding": 3042,
      "pleasant": 3043,
      "surgery": 3044,
      "24": 3045,
      "March": 3046,
      "vic": 3047,
      "drunk": 3048,
      "suggested": 3049,
      "skill": 3050,
      "masks": 3051,
      "qualify": 3052,
      "communicating": 3053,
      "21": 3054,
      "winter": 3055,
      "insur": 3056,
      "boat": 3057,
      "procrast": 3058,
      "awk": 3059,
      "bringing": 3060,
      "fortunate": 3061,
      "continu": 3062,
      "falling": 3063,
      ".\"": 3064,
      "Lo": 3065,
      "university": 3066,
      "undry": 3067,
      "laundry": 3068,
      "cip": 3069,
      "complain": 3070,
      "ign": 3071,
      "streng": 3072,
      "ES": 3073,
      "hh": 3074,
      "spl": 3075,
      "god": 3076,
      "prescri": 3077,
      "contract": 3078,
      "tells": 3079,
      "empty": 3080,
      "incredi": 3081,
      "dumped": 3082,
      "assignment": 3083,
      "applications": 3084,
      "Talking": 3085,
      "table": 3086,
      "weren": 3087,
      "dear": 3088,
      "trans": 3089,
      "icking": 3090,
      "worries": 3091,
      "ents": 3092,
      "miser": 3093,
      "counsellor": 3094,
      "mistic": 3095,
      "allowed": 3096,
      "concentrate": 3097,
      "families": 3098,
      "restrictions": 3099,
      "ler": 3100,
      "rad": 3101,
      "These": 3102,
      "weekend": 3103,
      "Probably": 3104,
      "coworker": 3105,
      "annoying": 3106,
      "style": 3107,
      "Yout": 3108,
      "ran": 3109,
      "rate": 3110,
      "round": 3111,
      "remot": 3112,
      "abor": 3113,
      "courage": 3114,
      "channel": 3115,
      "addiction": 3116,
      "supporter": 3117,
      "benefit": 3118,
      "professors": 3119,
      "neighbors": 3120,
      "Youtube": 3121,
      "bir": 3122,
      "pho": 3123,
      "celebrate": 3124,
      "optimistic": 3125,
      "insurance": 3126,
      "ban": 3127,
      "bunch": 3128,
      "gard": 3129,
      "doll": 3130,
      "suic": 3131,
      "usive": 3132,
      "addic": 3133,
      "educ": 3134,
      "Having": 3135,
      "silly": 3136,
      "laugh": 3137,
      "police": 3138,
      "embarra": 3139,
      "awkward": 3140,
      "Uber": 3141,
      "bar": 3142,
      "gas": 3143,
      "toll": 3144,
      "forth": 3145,
      "admit": 3146,
      "chose": 3147,
      "effe": 3148,
      "scen": 3149,
      "surv": 3150,
      "divorced": 3151,
      "directly": 3152,
      "judge": 3153,
      "hung": 3154,
      "split": 3155,
      "En": 3156,
      "January": 3157,
      "tun": 3158,
      "tually": 3159,
      "gest": 3160,
      "workout": 3161,
      "sport": 3162,
      "virtually": 3163,
      "deli": 3164,
      "projects": 3165,
      "School": 3166,
      "Tod": 3167,
      "Yep": 3168,
      "uch": 3169,
      "wave": 3170,
      "tran": 3171,
      "prepar": 3172,
      "helpless": 3173,
      "expo": 3174,
      "exist": 3175,
      "shift": 3176,
      "litary": 3177,
      "blings": 3178,
      "refer": 3179,
      "circle": 3180,
      "promise": 3181,
      "Today": 3182,
      "Break": 3183,
      "rele": 3184,
      "enter": 3185,
      "isations": 3186,
      "forgive": 3187,
      "forced": 3188,
      "vert": 3189,
      "mach": 3190,
      "crit": 3191,
      "Although": 3192,
      "clearly": 3193,
      "organisations": 3194,
      "strength": 3195,
      "Se": 3196,
      "gift": 3197,
      "pop": 3198,
      "return": 3199,
      "ening": 3200,
      "lem": 3201,
      "ots": 3202,
      "peer": 3203,
      "upcoming": 3204,
      "dilem": 3205,
      "mber": 3206,
      "website": 3207,
      "Due": 3208,
      "vely": 3209,
      "iti": 3210,
      "otherwise": 3211,
      "letter": 3212,
      "treated": 3213,
      "conversations": 3214,
      "results": 3215,
      "behaviour": 3216,
      "diagnosed": 3217,
      "Nice": 3218,
      "ged": 3219,
      "tw": 3220,
      "anti": 3221,
      "aling": 3222,
      "ays": 3223,
      "plus": 3224,
      "cked": 3225,
      "via": 3226,
      "distant": 3227,
      "reflect": 3228,
      "gather": 3229,
      "department": 3230,
      "Cali": 3231,
      "Give": 3232,
      "bothers": 3233,
      "gun": 3234,
      "language": 3235,
      "remain": 3236,
      "lement": 3237,
      "bey": 3238,
      "fornia": 3239,
      "breaks": 3240,
      "response": 3241,
      "carry": 3242,
      "2021": 3243,
      "symptoms": 3244,
      "California": 3245,
      "18": 3246,
      "Ap": 3247,
      "link": 3248,
      "non": 3249,
      "sat": 3250,
      "ats": 3251,
      "ences": 3252,
      "itive": 3253,
      "secre": 3254,
      "fulfill": 3255,
      "sibling": 3256,
      "mater": 3257,
      "ashing": 3258,
      "biggest": 3259,
      "Once": 3260,
      "bing": 3261,
      "ancy": 3262,
      "aly": 3263,
      "itable": 3264,
      "tim": 3265,
      "ica": 3266,
      "unhappy": 3267,
      "homework": 3268,
      "internet": 3269,
      "healing": 3270,
      "qualific": 3271,
      "difficulty": 3272,
      "heavy": 3273,
      "flu": 3274,
      "sli": 3275,
      "bored": 3276,
      "valu": 3277,
      "cases": 3278,
      "While": 3279,
      "regularly": 3280,
      "routine": 3281,
      "racing": 3282,
      "furloughed": 3283,
      "recognize": 3284,
      "effective": 3285,
      "dilemma": 3286,
      "ared": 3287,
      "force": 3288,
      "cooking": 3289,
      "unfair": 3290,
      "childhood": 3291,
      "parti": 3292,
      "mates": 3293,
      "bigger": 3294,
      "hurtful": 3295,
      "mixed": 3296,
      "appearance": 3297,
      "additional": 3298,
      "regret": 3299,
      "hug": 3300,
      "lunch": 3301,
      "liar": 3302,
      "adays": 3303,
      "belie": 3304,
      "realise": 3305,
      "Exerc": 3306,
      "Trying": 3307,
      "Friday": 3308,
      "suddenly": 3309,
      "blame": 3310,
      "productive": 3311,
      "banan": 3312,
      "bright": 3313,
      "rush": 3314,
      "vil": 3315,
      "release": 3316,
      "toward": 3317,
      "dee": 3318,
      "useless": 3319,
      "happier": 3320,
      "illed": 3321,
      "explo": 3322,
      "figured": 3323,
      "cycle": 3324,
      "techni": 3325,
      "Facebook": 3326,
      "cust": 3327,
      "stage": 3328,
      "meal": 3329,
      "ari": 3330,
      "chi": 3331,
      "ified": 3332,
      "hire": 3333,
      "siblings": 3334,
      "planned": 3335,
      "shower": 3336,
      "appreciated": 3337,
      "submit": 3338,
      "assume": 3339,
      "songs": 3340,
      "education": 3341,
      "By": 3342,
      "unex": 3343,
      "input": 3344,
      "reque": 3345,
      "onav": 3346,
      "altern": 3347,
      "def": 3348,
      "fied": 3349,
      "waste": 3350,
      "scre": 3351,
      "ificant": 3352,
      "pected": 3353,
      "events": 3354,
      "significant": 3355,
      "bike": 3356,
      "assignments": 3357,
      "devast": 3358,
      "Marie": 3359,
      "Exercise": 3360,
      "unexpected": 3361,
      "onavirus": 3362,
      "Tur": 3363,
      "source": 3364,
      "thetic": 3365,
      "nowhere": 3366,
      "pread": 3367,
      "history": 3368,
      "advis": 3369,
      "household": 3370,
      "showing": 3371,
      "selling": 3372,
      "safety": 3373,
      "experiences": 3374,
      "faithful": 3375,
      "direction": 3376,
      "birth": 3377,
      "bath": 3378,
      "demand": 3379,
      "pression": 3380,
      ":).": 3381,
      "opening": 3382,
      "astic": 3383,
      "mainly": 3384,
      "medications": 3385,
      "14": 3386,
      "Ad": 3387,
      "dates": 3388,
      "pm": 3389,
      "invest": 3390,
      "isnt": 3391,
      "plate": 3392,
      "incident": 3393,
      "apologize": 3394,
      "17": 3395,
      "py": 3396,
      "spread": 3397,
      "uct": 3398,
      "inated": 3399,
      "strive": 3400,
      "choices": 3401,
      "boys": 3402,
      "moments": 3403,
      "earn": 3404,
      "roommate": 3405,
      "building": 3406,
      "strategy": 3407,
      "incredibly": 3408,
      "beyond": 3409,
      "Will": 3410,
      "Year": 3411,
      "aid": 3412,
      "hates": 3413,
      "oun": 3414,
      "ational": 3415,
      "causes": 3416,
      "strain": 3417,
      "assure": 3418,
      "require": 3419,
      "annoy": 3420,
      "Ive": 3421,
      "ology": 3422,
      "retail": 3423,
      "summer": 3424,
      "weet": 3425,
      "diet": 3426,
      "contacting": 3427,
      "nights": 3428,
      "senior": 3429,
      "Alcohol": 3430,
      "draw": 3431,
      "piece": 3432,
      "First": 3433,
      "nut": 3434,
      "asleep": 3435,
      "ateful": 3436,
      "grateful": 3437,
      "cky": 3438,
      "imul": 3439,
      "sided": 3440,
      "occur": 3441,
      "answers": 3442,
      "joining": 3443,
      "legal": 3444,
      "25": 3445,
      "Aw": 3446,
      "Bye": 3447,
      "Kind": 3448,
      "OU": 3449,
      "ellent": 3450,
      "caut": 3451,
      "perform": 3452,
      "grap": 3453,
      "careful": 3454,
      "schooling": 3455,
      "boyfriends": 3456,
      "nervousness": 3457,
      "severe": 3458,
      "techn": 3459,
      "immediately": 3460,
      "Po": 3461,
      "Tru": 3462,
      "vac": 3463,
      "thr": 3464,
      "ining": 3465,
      "determin": 3466,
      "agues": 3467,
      "counter": 3468,
      "colleagues": 3469,
      "doctors": 3470,
      "reply": 3471,
      "interviews": 3472,
      "websites": 3473,
      ";)": 3474,
      "slight": 3475,
      "loan": 3476,
      "oldest": 3477,
      "matic": 3478,
      "entially": 3479,
      "failing": 3480,
      "youngest": 3481,
      "efforts": 3482,
      "pearance": 3483,
      "papers": 3484,
      "employee": 3485,
      "concentr": 3486,
      "grocery": 3487,
      "flash": 3488,
      "delivery": 3489,
      "Appearance": 3490,
      "DO": 3491,
      "Losing": 3492,
      "Our": 3493,
      "os": 3494,
      "onto": 3495,
      "nea": 3496,
      "craf": 3497,
      "spot": 3498,
      "highly": 3499,
      "matters": 3500,
      "Read": 3501,
      "Abuse": 3502,
      "tunnel": 3503,
      "LY": 3504,
      "bilities": 3505,
      "mort": 3506,
      "reject": 3507,
      "YouT": 3508,
      "hadn": 3509,
      "hands": 3510,
      "Often": 3511,
      "grandson": 3512,
      "sympa": 3513,
      "dropped": 3514,
      "cking": 3515,
      "cash": 3516,
      "mun": 3517,
      "wed": 3518,
      "veter": 3519,
      "lood": 3520,
      "identi": 3521,
      "math": 3522,
      "relatively": 3523,
      "Another": 3524,
      "invited": 3525,
      "groceries": 3526,
      "clarify": 3527,
      "procrastin": 3528,
      "Con": 3529,
      "Fam": 3530,
      "ape": 3531,
      "blow": 3532,
      "cé": 3533,
      "wis": 3534,
      "ancé": 3535,
      "mechan": 3536,
      "aside": 3537,
      "cep": 3538,
      "comb": 3539,
      "Procrast": 3540,
      "fiancé": 3541,
      "destro": 3542,
      "Haha": 3543,
      "application": 3544,
      "traumatic": 3545,
      "engineering": 3546,
      "cel": 3547,
      "fy": 3548,
      "infect": 3549,
      "sting": 3550,
      "uncle": 3551,
      "cture": 3552,
      "shes": 3553,
      "Whats": 3554,
      "overall": 3555,
      "strang": 3556,
      "closing": 3557,
      "gotta": 3558,
      "qualified": 3559,
      "excited": 3560,
      "sessions": 3561,
      "trigger": 3562,
      "animals": 3563,
      "advisor": 3564,
      "App": 3565,
      "Hop": 3566,
      "gri": 3567,
      "pack": 3568,
      "spo": 3569,
      "independ": 3570,
      "stability": 3571,
      "stimul": 3572,
      "antic": 3573,
      "lling": 3574,
      "dig": 3575,
      "girls": 3576,
      "freel": 3577,
      "vaccines": 3578,
      "oblig": 3579,
      "commitment": 3580,
      "neighborhood": 3581,
      "ax": 3582,
      "bon": 3583,
      "ience": 3584,
      "third": 3585,
      "outh": 3586,
      "rif": 3587,
      "uses": 3588,
      "missed": 3589,
      "shop": 3590,
      "fol": 3591,
      "actual": 3592,
      "passion": 3593,
      "intel": 3594,
      "created": 3595,
      "affects": 3596,
      "jump": 3597,
      "amazon": 3598,
      "misunderstanding": 3599,
      "restaurant": 3600,
      "economy": 3601,
      "habits": 3602,
      "occupied": 3603,
      "disappointed": 3604,
      "Amer": 3605,
      "kno": 3606,
      "land": 3607,
      "elder": 3608,
      "lidays": 3609,
      "verage": 3610,
      "ada": 3611,
      "tool": 3612,
      "mune": 3613,
      "everybody": 3614,
      "comments": 3615,
      "immune": 3616,
      "stays": 3617,
      "played": 3618,
      "passing": 3619,
      "contacted": 3620,
      "particularly": 3621,
      "memory": 3622,
      "familiar": 3623,
      "smoking": 3624,
      "secret": 3625,
      "bought": 3626,
      "review": 3627,
      "ams": 3628,
      "acy": 3629,
      "military": 3630,
      "backs": 3631,
      "fearful": 3632,
      "frequ": 3633,
      "excellent": 3634,
      "legally": 3635,
      "typically": 3636,
      "pregnancy": 3637,
      "restaurants": 3638,
      "budget": 3639,
      "obviously": 3640,
      "panic": 3641,
      "consul": 3642,
      "miserable": 3643,
      "Procrastination": 3644,
      "ER": 3645,
      "MY": 3646,
      "danger": 3647,
      "itor": 3648,
      "pu": 3649,
      "rup": 3650,
      "era": 3651,
      "reaction": 3652,
      "hesit": 3653,
      "deb": 3654,
      "nowadays": 3655,
      "terms": 3656,
      "depress": 3657,
      "impo": 3658,
      "closest": 3659,
      "solutions": 3660,
      "borrow": 3661,
      "More": 3662,
      "ligent": 3663,
      "uncertainty": 3664,
      "society": 3665,
      "associate": 3666,
      "photo": 3667,
      "Trump": 3668,
      "Night": 3669,
      "Ouch": 3670,
      "Parent": 3671,
      "rain": 3672,
      "info": 3673,
      "stable": 3674,
      "began": 3675,
      "amin": 3676,
      "fears": 3677,
      "differently": 3678,
      "ivity": 3679,
      "expressing": 3680,
      "required": 3681,
      "competitive": 3682,
      "embarrassed": 3683,
      "Turk": 3684,
      "gif": 3685,
      "kick": 3686,
      "meless": 3687,
      "sust": 3688,
      "analy": 3689,
      "roll": 3690,
      "utic": 3691,
      "aches": 3692,
      "coop": 3693,
      "homeless": 3694,
      "nology": 3695,
      "lazy": 3696,
      "clothes": 3697,
      "showed": 3698,
      "version": 3699,
      "attemp": 3700,
      "About": 3701,
      "numbers": 3702,
      "exhausting": 3703,
      "expenses": 3704,
      "slightly": 3705,
      "wedding": 3706,
      "Family": 3707,
      "sustain": 3708,
      "Bo": 3709,
      "five": 3710,
      "range": 3711,
      "confron": 3712,
      "comprom": 3713,
      "disagree": 3714,
      "apps": 3715,
      "appy": 3716,
      "rude": 3717,
      "distractions": 3718,
      "arently": 3719,
      "NOT": 3720,
      "Thinking": 3721,
      "soul": 3722,
      "preparing": 3723,
      "16": 3724,
      "Bas": 3725,
      "aster": 3726,
      "shel": 3727,
      "squ": 3728,
      "returned": 3729,
      "accur": 3730,
      "urally": 3731,
      "crow": 3732,
      "pastor": 3733,
      "wasted": 3734,
      "mature": 3735,
      "lady": 3736,
      "relieved": 3737,
      "wanna": 3738,
      "folks": 3739,
      "accurate": 3740,
      "Act": 3741,
      "UK": 3742,
      "bri": 3743,
      "dress": 3744,
      "glo": 3745,
      "pen": 3746,
      "loving": 3747,
      "across": 3748,
      "hired": 3749,
      "chances": 3750,
      "interests": 3751,
      "confide": 3752,
      "handling": 3753,
      "attack": 3754,
      "moms": 3755,
      "treats": 3756,
      "delay": 3757,
      "delet": 3758,
      "offered": 3759,
      "committed": 3760,
      "relieve": 3761,
      "hotels": 3762,
      "describe": 3763,
      "capable": 3764,
      "killing": 3765,
      "remote": 3766,
      "Breakups": 3767,
      "cepting": 3768,
      "Actually": 3769,
      "bread": 3770,
      "blood": 3771,
      "feet": 3772,
      "notice": 3773,
      "perate": 3774,
      "fru": 3775,
      "intro": 3776,
      "Whenever": 3777,
      "Stay": 3778,
      "private": 3779,
      "satis": 3780,
      "explore": 3781,
      "**": 3782,
      "AA": 3783,
      "Lu": 3784,
      "Pret": 3785,
      "ges": 3786,
      "zz": 3787,
      "ley": 3788,
      "therape": 3789,
      "providing": 3790,
      "gious": 3791,
      "rules": 3792,
      "Remember": 3793,
      "appointment": 3794,
      "pushing": 3795,
      "flix": 3796,
      "extensions": 3797,
      "Pretty": 3798,
      "therapeutic": 3799,
      "Med": 3800,
      "awake": 3801,
      "gage": 3802,
      "urs": 3803,
      "hook": 3804,
      "stresses": 3805,
      "partners": 3806,
      "typing": 3807,
      "contribut": 3808,
      "puts": 3809,
      "shake": 3810,
      "trusted": 3811,
      "points": 3812,
      "possibility": 3813,
      "bothered": 3814,
      "exercising": 3815,
      "savings": 3816,
      "continuing": 3817,
      "machine": 3818,
      "qualifications": 3819,
      "mortgage": 3820,
      "bby": 3821,
      "wall": 3822,
      "itions": 3823,
      "heck": 3824,
      "explan": 3825,
      "poin": 3826,
      "ignor": 3827,
      "redund": 3828,
      "corner": 3829,
      "enjoying": 3830,
      "shown": 3831,
      "encouraging": 3832,
      "basic": 3833,
      "charities": 3834,
      "cleaning": 3835,
      "deadlines": 3836,
      "survey": 3837,
      "HAT": 3838,
      "Parents": 3839,
      "bot": 3840,
      "inj": 3841,
      "beach": 3842,
      "white": 3843,
      "blessing": 3844,
      "ctions": 3845,
      "standard": 3846,
      "illness": 3847,
      "offering": 3848,
      "court": 3849,
      "actively": 3850,
      "supporting": 3851,
      "calming": 3852,
      "factor": 3853,
      "requires": 3854,
      "agreed": 3855,
      "exposure": 3856,
      "belief": 3857,
      "vacation": 3858,
      "Add": 3859,
      "Sp": 3860,
      "loud": 3861,
      "inso": 3862,
      "initi": 3863,
      "total": 3864,
      "ened": 3865,
      "trad": 3866,
      "ury": 3867,
      "exact": 3868,
      "foot": 3869,
      "parks": 3870,
      "vaccinated": 3871,
      "types": 3872,
      "including": 3873,
      "grie": 3874,
      "Nash": 3875,
      "YOU": 3876,
      "bill": 3877,
      "fant": 3878,
      "fif": 3879,
      "sten": 3880,
      "messed": 3881,
      "argue": 3882,
      "lover": 3883,
      "ache": 3884,
      "reass": 3885,
      "mics": 3886,
      "downs": 3887,
      "waking": 3888,
      "meditating": 3889,
      "instance": 3890,
      "limited": 3891,
      "pissed": 3892,
      "dollars": 3893,
      "ville": 3894,
      "Nashville": 3895,
      "Brad": 3896,
      "ME": 3897,
      "ites": 3898,
      "unfortunate": 3899,
      "corpor": 3900,
      "scaring": 3901,
      "earning": 3902,
      "topic": 3903,
      "distraction": 3904,
      "numer": 3905,
      "genu": 3906,
      "convin": 3907,
      "convince": 3908,
      "alternative": 3909,
      "birthday": 3910,
      "numerous": 3911,
      "!\"": 3912,
      "icul": 3913,
      "crashing": 3914,
      "contemp": 3915,
      "desire": 3916,
      "resent": 3917,
      "texts": 3918,
      "increa": 3919,
      "threat": 3920,
      "technology": 3921,
      "Start": 3922,
      "include": 3923,
      "random": 3924,
      "software": 3925,
      "delivered": 3926,
      "Ve": 3927,
      "san": 3928,
      "recor": 3929,
      "lim": 3930,
      "libr": 3931,
      "ney": 3932,
      "suspect": 3933,
      "reaking": 3934,
      "page": 3935,
      "Comp": 3936,
      "explained": 3937,
      "religious": 3938,
      "followed": 3939,
      "businesses": 3940,
      "depends": 3941,
      "joined": 3942,
      "shoes": 3943,
      "arguing": 3944,
      "leads": 3945,
      "temporarily": 3946,
      "methods": 3947,
      "trauma": 3948,
      "psycho": 3949,
      "YouTube": 3950,
      "sympathetic": 3951,
      "destroy": 3952,
      "gifts": 3953,
      "explanation": 3954,
      "library": 3955,
      "AD": 3956,
      "Bob": 3957,
      "Gar": 3958,
      "Mus": 3959,
      "Other": 3960,
      "Wor": 3961,
      "cti": 3962,
      "tea": 3963,
      "reti": 3964,
      "resol": 3965,
      "itation": 3966,
      "whil": 3967,
      "abusive": 3968,
      "weigh": 3969,
      "mill": 3970,
      "mum": 3971,
      "background": 3972,
      "pressures": 3973,
      "controlling": 3974,
      "lights": 3975,
      "routines": 3976,
      "cookies": 3977,
      "smoke": 3978,
      "layoffs": 3979,
      "survive": 3980,
      "particip": 3981,
      "Garbo": 3982,
      "whilst": 3983,
      "Ly": 3984,
      "OH": 3985,
      "vit": 3986,
      "cancel": 3987,
      "grees": 3988,
      "cently": 3989,
      "engaging": 3990,
      "Recently": 3991,
      "fairly": 3992,
      "shopping": 3993,
      "employers": 3994,
      "mandator": 3995,
      "provider": 3996,
      "politics": 3997,
      "Lyft": 3998,
      "mandatory": 3999,
      "%.": 4000,
      "Here": 4001,
      "win": 4002,
      "tho": 4003,
      "inti": 4004,
      "star": 4005,
      "react": 4006,
      "arrange": 4007,
      "rome": 4008,
      "forgot": 4009,
      "degrees": 4010,
      "anybody": 4011,
      "ulation": 4012,
      "proof": 4013,
      "positions": 4014,
      "worthy": 4015,
      "daughters": 4016,
      "cutting": 4017,
      "naturally": 4018,
      "structive": 4019,
      "stopping": 4020,
      "repeat": 4021,
      "flashbacks": 4022,
      "freelance": 4023,
      "Basically": 4024,
      "Over": 4025,
      "dy": 4026,
      "fat": 4027,
      "oin": 4028,
      "race": 4029,
      "rural": 4030,
      "sweet": 4031,
      "states": 4032,
      "refresh": 4033,
      "atic": 4034,
      "ssible": 4035,
      "unfaithful": 4036,
      "romantic": 4037,
      "migr": 4038,
      "funk": 4039,
      "finances": 4040,
      "churches": 4041,
      "connecting": 4042,
      "dumb": 4043,
      "picked": 4044,
      "praying": 4045,
      "tension": 4046,
      "warm": 4047,
      "scenari": 4048,
      "veteran": 4049,
      "impossible": 4050,
      "confronted": 4051,
      "13": 4052,
      "TV": 4053,
      "stre": 4054,
      "elabor": 4055,
      "rier": 4056,
      "somebody": 4057,
      "upon": 4058,
      "parts": 4059,
      "minds": 4060,
      "settle": 4061,
      "interaction": 4062,
      "rooms": 4063,
      "becomes": 4064,
      "explaining": 4065,
      "appropri": 4066,
      "meditate": 4067,
      "stores": 4068,
      "appears": 4069,
      "meaningful": 4070,
      "orders": 4071,
      "squir": 4072,
      "redundant": 4073,
      "fantastic": 4074,
      "40": 4075,
      "Job": 4076,
      "eties": 4077,
      "fla": 4078,
      "sive": 4079,
      "ums": 4080,
      "resolve": 4081,
      "mes": 4082,
      "artic": 4083,
      "esca": 4084,
      "miles": 4085,
      "fulness": 4086,
      "cience": 4087,
      "ners": 4088,
      "wrote": 4089,
      "pressured": 4090,
      "levels": 4091,
      "necessarily": 4092,
      "base": 4093,
      "aspects": 4094,
      "increase": 4095,
      "participate": 4096,
      "Cur": 4097,
      "PA": 4098,
      "Ten": 4099,
      "Yo": 4100,
      "aking": 4101,
      "cand": 4102,
      "een": 4103,
      "rap": 4104,
      "sl": 4105,
      "sac": 4106,
      "sters": 4107,
      "ably": 4108,
      "accepting": 4109,
      "coast": 4110,
      "needing": 4111,
      "stranger": 4112,
      "mindset": 4113,
      "marry": 4114,
      "lower": 4115,
      "managing": 4116,
      "improving": 4117,
      "stories": 4118,
      "allows": 4119,
      "nearby": 4120,
      "banks": 4121,
      "separate": 4122,
      "journaling": 4123,
      "repeated": 4124,
      "request": 4125,
      "identify": 4126,
      "sacrif": 4127,
      "multi": 4128,
      "ograp": 4129,
      "pod": 4130,
      "resid": 4131,
      "ison": 4132,
      "sees": 4133,
      "rious": 4134,
      "iling": 4135,
      "cared": 4136,
      "studied": 4137,
      "minded": 4138,
      "males": 4139,
      "lessons": 4140,
      "stepped": 4141,
      "essential": 4142,
      "Christ": 4143,
      "boards": 4144,
      "ignored": 4145,
      "occas": 4146,
      "intelligent": 4147,
      "frequently": 4148,
      "Luck": 4149,
      "fifteen": 4150,
      "\".": 4151,
      "Find": 4152,
      "Ph": 4153,
      "eight": 4154,
      "mous": 4155,
      "pup": 4156,
      "lean": 4157,
      "aband": 4158,
      "sible": 4159,
      "estee": 4160,
      "archite": 4161,
      "sensible": 4162,
      "relaxed": 4163,
      "texting": 4164,
      "grandmother": 4165,
      "presents": 4166,
      "volunteering": 4167,
      "provided": 4168,
      "Going": 4169,
      "developed": 4170,
      "critical": 4171,
      "ignoring": 4172,
      "esteem": 4173,
      "?\"": 4174,
      "BE": 4175,
      "HO": 4176,
      "Stu": 4177,
      "hated": 4178,
      "shi": 4179,
      "itiz": 4180,
      "pressed": 4181,
      "thise": 4182,
      "hide": 4183,
      "extend": 4184,
      "hasnt": 4185,
      "lap": 4186,
      "throughout": 4187,
      "ques": 4188,
      "izations": 4189,
      "listened": 4190,
      "desperate": 4191,
      "approved": 4192,
      "burn": 4193,
      "staffs": 4194,
      "cards": 4195,
      "fulfilling": 4196,
      "techniques": 4197,
      "custom": 4198,
      "Aww": 4199,
      "CAN": 4200,
      "Sal": 4201,
      "TO": 4202,
      "dut": 4203,
      "fely": 4204,
      "mirr": 4205,
      "var": 4206,
      "thus": 4207,
      "inspir": 4208,
      "soli": 4209,
      "ric": 4210,
      "escal": 4211,
      "neither": 4212,
      "nder": 4213,
      "prevent": 4214,
      "conven": 4215,
      "confront": 4216,
      "unusual": 4217,
      "understands": 4218,
      "safely": 4219,
      "sons": 4220,
      "monitor": 4221,
      "cheap": 4222,
      "shape": 4223,
      "raised": 4224,
      "Someone": 4225,
      "paycheck": 4226,
      "loyal": 4227,
      "creating": 4228,
      "passes": 4229,
      "reflection": 4230,
      "Dealing": 4231,
      "increasing": 4232,
      "ridicul": 4233,
      "complex": 4234,
      "damage": 4235,
      "garden": 4236,
      "infected": 4237,
      "injury": 4238,
      "mirror": 4239,
      "various": 4240,
      "GO": 4241,
      "Never": 4242,
      "average": 4243,
      "etry": 4244,
      "fle": 4245,
      "lk": 4246,
      "mnia": 4247,
      "thru": 4248,
      "strict": 4249,
      "rewards": 4250,
      "attr": 4251,
      "lovely": 4252,
      "hike": 4253,
      "Him": 4254,
      "prove": 4255,
      "nessee": 4256,
      "Anyway": 4257,
      "hangout": 4258,
      "boring": 4259,
      "covered": 4260,
      "election": 4261,
      "Seems": 4262,
      "buddies": 4263,
      "prescription": 4264,
      "entertain": 4265,
      "screen": 4266,
      "insomnia": 4267,
      "squirrel": 4268,
      "Current": 4269,
      "Tennessee": 4270,
      "Luckily": 4271,
      "80": 4272,
      "Bet": 4273,
      "LE": 4274,
      "Pr": 4275,
      "Sign": 4276,
      "South": 4277,
      "bre": 4278,
      "bere": 4279,
      "gers": 4280,
      "hits": 4281,
      "lend": 4282,
      "phob": 4283,
      "tin": 4284,
      "ann": 4285,
      "insecure": 4286,
      "atter": 4287,
      "youre": 4288,
      "anted": 4289,
      "riding": 4290,
      "ablish": 4291,
      "loosing": 4292,
      "suck": 4293,
      "Though": 4294,
      "harsh": 4295,
      "tak": 4296,
      "plat": 4297,
      "sleepy": 4298,
      "drain": 4299,
      "motivate": 4300,
      "Before": 4301,
      "allowing": 4302,
      "charge": 4303,
      "potentially": 4304,
      "weak": 4305,
      "iano": 4306,
      "teenag": 4307,
      "lifted": 4308,
      "fellow": 4309,
      "attacked": 4310,
      "Best": 4311,
      "mart": 4312,
      "ptive": 4313,
      "tion": 4314,
      "yell": 4315,
      "ony": 4316,
      "meas": 4317,
      "owe": 4318,
      "trail": 4319,
      "note": 4320,
      "idk": 4321,
      "friendly": 4322,
      "host": 4323,
      "wouldnt": 4324,
      "hardly": 4325,
      "shy": 4326,
      "crap": 4327,
      "interact": 4328,
      "lump": 4329,
      "ears": 4330,
      "Person": 4331,
      "refused": 4332,
      "quality": 4333,
      "depending": 4334,
      "temper": 4335,
      "logical": 4336,
      "spirit": 4337,
      "subjects": 4338,
      "warehouse": 4339,
      "camera": 4340,
      "suicid": 4341,
      "triggered": 4342,
      "reassure": 4343,
      "escape": 4344,
      ":/": 4345,
      "AM": 4346,
      "NY": 4347,
      "Usu": 4348,
      "fund": 4349,
      "gs": 4350,
      "mary": 4351,
      "nic": 4352,
      "punch": 4353,
      "rut": 4354,
      "beer": 4355,
      "bear": 4356,
      "root": 4357,
      "aming": 4358,
      "pred": 4359,
      "upper": 4360,
      "greg": 4361,
      "greatly": 4362,
      "careers": 4363,
      "brave": 4364,
      "empath": 4365,
      "parties": 4366,
      "surround": 4367,
      "Holidays": 4368,
      "driver": 4369,
      "Mostly": 4370,
      "drop": 4371,
      "transfer": 4372,
      "bananas": 4373,
      "thrown": 4374,
      "puppy": 4375,
      "Usually": 4376,
      "Happy": 4377,
      "Link": 4378,
      "eye": 4379,
      "tit": 4380,
      "uly": 4381,
      "anni": 4382,
      "recon": 4383,
      "recall": 4384,
      "ority": 4385,
      "ense": 4386,
      "ows": 4387,
      "unpleasant": 4388,
      "ilt": 4389,
      "compare": 4390,
      "thankfully": 4391,
      "tless": 4392,
      "ravel": 4393,
      "Instead": 4394,
      "openings": 4395,
      "versary": 4396,
      "signs": 4397,
      "moods": 4398,
      "Depression": 4399,
      "finishing": 4400,
      "nearly": 4401,
      "arguments": 4402,
      "agency": 4403,
      "meantime": 4404,
      "political": 4405,
      "poorly": 4406,
      "written": 4407,
      "insights": 4408,
      "ministr": 4409,
      "rejected": 4410,
      "shelter": 4411,
      "pointless": 4412,
      "beliefs": 4413,
      "attractive": 4414,
      "Linked": 4415,
      "anniversary": 4416,
      "Ya": 4417,
      "ccer": 4418,
      "slump": 4419,
      "wit": 4420,
      "series": 4421,
      "loans": 4422,
      "REAL": 4423,
      "congreg": 4424,
      "sheet": 4425,
      "grown": 4426,
      "faster": 4427,
      "hopeful": 4428,
      "supported": 4429,
      "interactions": 4430,
      "stayed": 4431,
      "classi": 4432,
      "bummer": 4433,
      "Anyone": 4434,
      "resource": 4435,
      "rule": 4436,
      "discussion": 4437,
      "definet": 4438,
      "deeper": 4439,
      "appropriate": 4440,
      "Currently": 4441,
      "congregation": 4442,
      "?)": 4443,
      "Hu": 4444,
      "fly": 4445,
      "nie": 4446,
      "elines": 4447,
      "vested": 4448,
      "ride": 4449,
      "unmotivated": 4450,
      "mild": 4451,
      "Door": 4452,
      "relative": 4453,
      "adequ": 4454,
      "organized": 4455,
      "holding": 4456,
      "graduated": 4457,
      "spirits": 4458,
      "recovery": 4459,
      "chair": 4460,
      "competent": 4461,
      "blamed": 4462,
      "ING": 4463,
      "victi": 4464,
      "independent": 4465,
      "ursday": 4466,
      "elaborate": 4467,
      "Sup": 4468,
      "four": 4469,
      "iam": 4470,
      "nail": 4471,
      "pill": 4472,
      "atus": 4473,
      "todd": 4474,
      "kets": 4475,
      "outcome": 4476,
      "ician": 4477,
      "boo": 4478,
      "pros": 4479,
      "discovered": 4480,
      "Canada": 4481,
      "ruined": 4482,
      "acceptable": 4483,
      "shoot": 4484,
      "perfectly": 4485,
      "receptive": 4486,
      "difficulties": 4487,
      "wishes": 4488,
      "Hoping": 4489,
      "stimulus": 4490,
      "America": 4491,
      "hooked": 4492,
      "street": 4493,
      "Lis": 4494,
      "Same": 4495,
      "bag": 4496,
      "fal": 4497,
      "killed": 4498,
      "lab": 4499,
      "pun": 4500,
      "forms": 4501,
      "forums": 4502,
      "dom": 4503,
      "terri": 4504,
      "wash": 4505,
      "posted": 4506,
      "box": 4507,
      "olars": 4508,
      "supplement": 4509,
      "fake": 4510,
      "sets": 4511,
      "positivity": 4512,
      "below": 4513,
      "empa": 4514,
      "houses": 4515,
      "openly": 4516,
      "Almost": 4517,
      "worthwhile": 4518,
      "drinks": 4519,
      "encouraged": 4520,
      "hubby": 4521,
      "scholars": 4522,
      "organizations": 4523,
      "laying": 4524,
      "deadline": 4525,
      "opinions": 4526,
      "grounded": 4527,
      "signed": 4528,
      "triggers": 4529,
      "suicide": 4530,
      "Engl": 4531,
      "sports": 4532,
      "bonus": 4533,
      "Both": 4534,
      "corporate": 4535,
      "onymous": 4536,
      "Lisa": 4537,
      "false": 4538,
      "scholarship": 4539,
      "Mturk": 4540,
      "fish": 4541,
      "freak": 4542,
      "gut": 4543,
      "lli": 4544,
      "sources": 4545,
      "ensure": 4546,
      "ency": 4547,
      "isms": 4548,
      "fees": 4549,
      "fever": 4550,
      "fection": 4551,
      "abuse": 4552,
      "model": 4553,
      "cts": 4554,
      "pair": 4555,
      "homes": 4556,
      "afterwards": 4557,
      "breakups": 4558,
      "advance": 4559,
      "belong": 4560,
      "Indeed": 4561,
      "responsive": 4562,
      "creates": 4563,
      "painting": 4564,
      "Doesn": 4565,
      "rub": 4566,
      "discussed": 4567,
      "personality": 4568,
      "mentor": 4569,
      "Dont": 4570,
      "snowing": 4571,
      "annoyed": 4572,
      "nuts": 4573,
      "determined": 4574,
      "mechanisms": 4575,
      "combination": 4576,
      "compromise": 4577,
      "brilli": 4578,
      "solid": 4579,
      "LinkedIn": 4580,
      "brilliant": 4581,
      "Check": 4582,
      "List": 4583,
      "Rel": 4584,
      "ak": 4585,
      "aper": 4586,
      "bborn": 4587,
      "flow": 4588,
      "gar": 4589,
      "nar": 4590,
      "sle": 4591,
      "formed": 4592,
      "utations": 4593,
      "among": 4594,
      "notes": 4595,
      "joke": 4596,
      "uni": 4597,
      "permission": 4598,
      "milk": 4599,
      "lifestyle": 4600,
      "shoulder": 4601,
      "dishes": 4602,
      "appe": 4603,
      "aines": 4604,
      "thankyou": 4605,
      "stubborn": 4606,
      "pretend": 4607,
      "freed": 4608,
      "deciding": 4609,
      "shutdown": 4610,
      "hotline": 4611,
      "trained": 4612,
      "presentation": 4613,
      "dedic": 4614,
      "thesis": 4615,
      "cruel": 4616,
      "elderly": 4617,
      "sustainable": 4618,
      "migraines": 4619,
      "Salutations": 4620,
      "suicidal": 4621,
      "Had": 4622,
      "Net": 4623,
      "TH": 4624,
      "Two": 4625,
      "batt": 4626,
      "fing": 4627,
      "pul": 4628,
      "sco": 4629,
      "vice": 4630,
      "inten": 4631,
      "rehab": 4632,
      "attract": 4633,
      "hew": 4634,
      "rock": 4635,
      "rophob": 4636,
      "ustrophob": 4637,
      "upbeat": 4638,
      "updated": 4639,
      "urse": 4640,
      "cted": 4641,
      "sorts": 4642,
      "disease": 4643,
      "disconnected": 4644,
      "reluct": 4645,
      "content": 4646,
      "brush": 4647,
      "claustrophob": 4648,
      "healthcare": 4649,
      "dram": 4650,
      "received": 4651,
      "completing": 4652,
      "devastating": 4653,
      "hesitant": 4654,
      "deleted": 4655,
      "grieving": 4656,
      "podcast": 4657,
      "abandon": 4658,
      "inspiration": 4659,
      "freedom": 4660,
      "battling": 4661,
      "claustrophobic": 4662,
      "3r": 4663,
      "Event": 4664,
      "dwell": 4665,
      "inu": 4666,
      "repet": 4667,
      "ona": 4668,
      "soccer": 4669,
      "accor": 4670,
      "acknowledge": 4671,
      "posed": 4672,
      "proposed": 4673,
      "choosing": 4674,
      "prison": 4675,
      "trusting": 4676,
      "create": 4677,
      "heartbroken": 4678,
      "connections": 4679,
      "tries": 4680,
      "distracts": 4681,
      "quarantined": 4682,
      "departments": 4683,
      "surveys": 4684,
      "addicted": 4685,
      "satisfied": 4686,
      "Better": 4687,
      "Netflix": 4688,
      "3rd": 4689,
      "according": 4690,
      "AY": 4691,
      "Lord": 4692,
      "Qu": 4693,
      "aven": 4694,
      "dit": 4695,
      "gging": 4696,
      "mare": 4697,
      "sis": 4698,
      "sending": 4699,
      "sane": 4700,
      "zed": 4701,
      "stated": 4702,
      "arest": 4703,
      "areas": 4704,
      "nearest": 4705,
      "shit": 4706,
      "breathe": 4707,
      "march": 4708,
      "coronavirus": 4709,
      "realist": 4710,
      "drag": 4711,
      "nightmare": 4712,
      "blish": 4713,
      "addict": 4714,
      "10x": 4715,
      "improved": 4716,
      "deeply": 4717,
      "States": 4718,
      "emails": 4719,
      "reports": 4720,
      "Coronavirus": 4721,
      "reduced": 4722,
      "catching": 4723,
      "material": 4724,
      "requirements": 4725,
      "publish": 4726,
      "resolved": 4727,
      "intimid": 4728,
      "title": 4729,
      "definetely": 4730,
      "punish": 4731,
      "CD": 4732,
      "Jo": 4733,
      "July": 4734,
      "brid": 4735,
      "cate": 4736,
      "evid": 4737,
      "emer": 4738,
      "hon": 4739,
      "nit": 4740,
      "ome": 4741,
      "osite": 4742,
      "retired": 4743,
      "soever": 4744,
      "abilities": 4745,
      "tical": 4746,
      "inking": 4747,
      "whatsoever": 4748,
      "reassurance": 4749,
      "owned": 4750,
      "official": 4751,
      "establish": 4752,
      "immun": 4753,
      "Inter": 4754,
      "viol": 4755,
      "opposite": 4756,
      "troubled": 4757,
      "expectation": 4758,
      "tends": 4759,
      "driven": 4760,
      "patience": 4761,
      "writer": 4762,
      "releasing": 4763,
      "Meditation": 4764,
      "reconci": 4765,
      "Human": 4766,
      "toddler": 4767,
      "!)": 4768,
      "EL": 4769,
      "Mon": 4770,
      "YES": 4771,
      "yard": 4772,
      "served": 4773,
      "destructive": 4774,
      "nees": 4775,
      "bless": 4776,
      "ender": 4777,
      "worn": 4778,
      "irresponsible": 4779,
      "hole": 4780,
      "tax": 4781,
      "izz": 4782,
      "tree": 4783,
      "decl": 4784,
      "built": 4785,
      "attribut": 4786,
      "scares": 4787,
      "locked": 4788,
      "ski": 4789,
      "faced": 4790,
      "lockdowns": 4791,
      "appointments": 4792,
      "aunts": 4793,
      "extension": 4794,
      "devastated": 4795,
      "Working": 4796,
      "multiple": 4797,
      "shiba": 4798,
      "duty": 4799,
      "flexi": 4800,
      "dedicated": 4801,
      ".?": 4802,
      "45": 4803,
      "cups": 4804,
      "fic": 4805,
      "mately": 4806,
      "void": 4807,
      "inf": 4808,
      "intr": 4809,
      "aton": 4810,
      "elaton": 4811,
      "debt": 4812,
      "logi": 4813,
      "tip": 4814,
      "suitable": 4815,
      "exchanged": 4816,
      "sorority": 4817,
      "anxieties": 4818,
      "dislike": 4819,
      "chemic": 4820,
      "positives": 4821,
      "steal": 4822,
      "distur": 4823,
      "watched": 4824,
      "basis": 4825,
      "subscri": 4826,
      "improvement": 4827,
      "traveling": 4828,
      "dreams": 4829,
      "included": 4830,
      "pictures": 4831,
      "sticks": 4832,
      "priorit": 4833,
      "blocked": 4834,
      "Look": 4835,
      "valuable": 4836,
      "technically": 4837,
      "logist": 4838,
      "95": 4839,
      "Grief": 4840,
      "ae": 4841,
      "ired": 4842,
      "piano": 4843,
      "rt": 4844,
      "stic": 4845,
      "retake": 4846,
      "seas": 4847,
      "demen": 4848,
      "ambul": 4849,
      "chrome": 4850,
      "tia": 4851,
      "update": 4852,
      "west": 4853,
      "indi": 4854,
      "workplace": 4855,
      "abled": 4856,
      "gressive": 4857,
      "overseas": 4858,
      "comment": 4859,
      "chocol": 4860,
      "items": 4861,
      "sleeps": 4862,
      "calend": 4863,
      "believed": 4864,
      "rented": 4865,
      "reasoning": 4866,
      "added": 4867,
      "leaves": 4868,
      "relig": 4869,
      "finished": 4870,
      "companion": 4871,
      "responsibilities": 4872,
      "patterns": 4873,
      "bullied": 4874,
      "skillset": 4875,
      "slip": 4876,
      "procrastinating": 4877,
      "tools": 4878,
      "Personally": 4879,
      "dementia": 4880,
      "ambulance": 4881,
      "chocolate": 4882,
      "Know": 4883,
      "Mom": 4884,
      "Nor": 4885,
      "brief": 4886,
      "cas": 4887,
      "hint": 4888,
      "nurse": 4889,
      "pus": 4890,
      "indoors": 4891,
      "invested": 4892,
      "behave": 4893,
      "roof": 4894,
      "acknowled": 4895,
      "Thursday": 4896,
      "upside": 4897,
      "fries": 4898,
      "sele": 4899,
      "stressor": 4900,
      "compared": 4901,
      "schoolwork": 4902,
      "chest": 4903,
      "ssuring": 4904,
      "paste": 4905,
      "file": 4906,
      "scar": 4907,
      "walked": 4908,
      "buying": 4909,
      "player": 4910,
      "bosses": 4911,
      "conditions": 4912,
      "ruin": 4913,
      "expecting": 4914,
      "continues": 4915,
      "uber": 4916,
      "willingness": 4917,
      "grandparents": 4918,
      "promising": 4919,
      "noticing": 4920,
      "sexual": 4921,
      "prescribed": 4922,
      "crafts": 4923,
      "HD": 4924,
      "cup": 4925,
      "ican": 4926,
      "nes": 4927,
      "port": 4928,
      "snea": 4929,
      "err": 4930,
      "ina": 4931,
      "resort": 4932,
      "onic": 4933,
      "ional": 4934,
      "geology": 4935,
      "peers": 4936,
      "motor": 4937,
      "workforce": 4938,
      "tality": 4939,
      "tach": 4940,
      "poetry": 4941,
      "comparing": 4942,
      "mindfulness": 4943,
      "lists": 4944,
      "fruster": 4945,
      "auto": 4946,
      "mortality": 4947,
      "colors": 4948,
      "budd": 4949,
      "Been": 4950,
      "conduct": 4951,
      "distracting": 4952,
      "clin": 4953,
      "surprise": 4954,
      "located": 4955,
      "guidelines": 4956,
      "ultimately": 4957,
      "soooo": 4958,
      "spoke": 4959,
      "attempt": 4960,
      "global": 4961,
      "ADHD": 4962,
      "REALLY": 4963,
      "Monday": 4964,
      "buddy": 4965,
      "\",": 4966,
      "Ac": 4967,
      "Bel": 4968,
      "FH": 4969,
      "FO": 4970,
      "LLO": 4971,
      "Lots": 4972,
      "Ugh": 4973,
      "border": 4974,
      "hall": 4975,
      "oled": 4976,
      "ped": 4977,
      "packing": 4978,
      "tel": 4979,
      "xmas": 4980,
      "thier": 4981,
      "recru": 4982,
      "enthus": 4983,
      "rides": 4984,
      "negle": 4985,
      "anyways": 4986,
      "noise": 4987,
      "shine": 4988,
      "ously": 4989,
      "shoulders": 4990,
      "discour": 4991,
      "raising": 4992,
      "responses": 4993,
      "veling": 4994,
      "quitting": 4995,
      "steady": 4996,
      "falls": 4997,
      "answering": 4998,
      "shoveling": 4999,
      "paths": 5000,
      "Trust": 5001,
      "approaching": 5002,
      "journey": 5003,
      "HER": 5004,
      "tutoring": 5005,
      "agrees": 5006,
      "animal": 5007,
      "laughing": 5008,
      "gatherings": 5009,
      "banana": 5010,
      "consult": 5011,
      "fruits": 5012,
      "retire": 5013,
      "repeatedly": 5014,
      "Eventually": 5015,
      "Believe": 5016,
      "enthusi": 5017,
      "Wo": 5018,
      "ase": 5019,
      "aim": 5020,
      "cul": 5021,
      "equ": 5022,
      "estrang": 5023,
      "fro": 5024,
      "picking": 5025,
      "ral": 5026,
      "tone": 5027,
      "umb": 5028,
      "stret": 5029,
      "orable": 5030,
      "itar": 5031,
      "ida": 5032,
      "iden": 5033,
      "mobi": 5034,
      "masters": 5035,
      "heroin": 5036,
      "uninterested": 5037,
      "cting": 5038,
      "underlying": 5039,
      "Youre": 5040,
      "nerve": 5041,
      "crunch": 5042,
      "effic": 5043,
      "claim": 5044,
      "guard": 5045,
      "giver": 5046,
      "possibilities": 5047,
      "Alright": 5048,
      "views": 5049,
      "county": 5050,
      "exciting": 5051,
      "shock": 5052,
      "logically": 5053,
      "network": 5054,
      "employed": 5055,
      "gaining": 5056,
      "recei": 5057,
      "dumping": 5058,
      "rewarding": 5059,
      "instrument": 5060,
      "symptom": 5061,
      "irrit": 5062,
      "transit": 5063,
      "population": 5064,
      "ridiculous": 5065,
      "estranged": 5066,
      "stretch": 5067,
      "mobile": 5068,
      ".)": 5069,
      "60": 5070,
      "CA": 5071,
      "Dep": 5072,
      "ED": 5073,
      "Las": 5074,
      "THAT": 5075,
      "Wa": 5076,
      "cab": 5077,
      "ored": 5078,
      "rot": 5079,
      "sought": 5080,
      "status": 5081,
      "replace": 5082,
      "outlet": 5083,
      "trade": 5084,
      "overlooked": 5085,
      "stressors": 5086,
      "whom": 5087,
      "disrup": 5088,
      "relation": 5089,
      "manners": 5090,
      "curve": 5091,
      "tougher": 5092,
      "creat": 5093,
      "runs": 5094,
      "suffers": 5095,
      "recommendation": 5096,
      "counselors": 5097,
      "accepted": 5098,
      "accomplishing": 5099,
      "typed": 5100,
      "location": 5101,
      "entirely": 5102,
      "ANd": 5103,
      "firend": 5104,
      "description": 5105,
      "psychi": 5106,
      "peaceful": 5107,
      "surviv": 5108,
      "twins": 5109,
      "ounce": 5110,
      "Ready": 5111,
      "procrastinate": 5112,
      "contributing": 5113,
      "Vegas": 5114,
      "fatig": 5115,
      "classic": 5116,
      "CDC": 5117,
      "cabin": 5118,
      "psychiat": 5119,
      "Agre": 5120,
      "Dea": 5121,
      "Dream": 5122,
      "Got": 5123,
      "Hell": 5124,
      "IS": 5125,
      "Under": 5126,
      "eve": 5127,
      "flo": 5128,
      "iles": 5129,
      "oil": 5130,
      "pac": 5131,
      "vant": 5132,
      "vul": 5133,
      "theless": 5134,
      "informed": 5135,
      "stance": 5136,
      "elig": 5137,
      "elity": 5138,
      "orph": 5139,
      "iding": 5140,
      "idelity": 5141,
      "wasnt": 5142,
      "depressive": 5143,
      "unhealthy": 5144,
      "unavoid": 5145,
      "reassuring": 5146,
      "rights": 5147,
      "bomb": 5148,
      "aggressive": 5149,
      "disclose": 5150,
      "wood": 5151,
      "differences": 5152,
      "profiles": 5153,
      "function": 5154,
      "obje": 5155,
      "physician": 5156,
      "refuse": 5157,
      "fields": 5158,
      "snacks": 5159,
      "economics": 5160,
      "nonetheless": 5161,
      "relevant": 5162,
      "guns": 5163,
      "rushed": 5164,
      "cautious": 5165,
      "performance": 5166,
      "vitamin": 5167,
      "architecture": 5168,
      "hostile": 5169,
      "relatives": 5170,
      "unique": 5171,
      "reluctant": 5172,
      "evidence": 5173,
      "Agreed": 5174,
      "vulner": 5175,
      "eligible": 5176,
      "Epi": 5177,
      "Still": 5178,
      "VER": 5179,
      "aversion": 5180,
      "bs": 5181,
      "fan": 5182,
      "lly": 5183,
      "scal": 5184,
      "voc": 5185,
      "wand": 5186,
      "remarried": 5187,
      "serve": 5188,
      "ene": 5189,
      "wide": 5190,
      "trash": 5191,
      "timer": 5192,
      "precaut": 5193,
      "confir": 5194,
      "tage": 5195,
      "affirmation": 5196,
      "everywhere": 5197,
      "promotion": 5198,
      "proven": 5199,
      "dismiss": 5200,
      "apparently": 5201,
      "moves": 5202,
      "scream": 5203,
      "ength": 5204,
      "attacks": 5205,
      "phany": 5206,
      "phra": 5207,
      "denies": 5208,
      "managers": 5209,
      "texted": 5210,
      "biology": 5211,
      "gross": 5212,
      "conflicts": 5213,
      "???": 5214,
      "centers": 5215,
      "silence": 5216,
      "snap": 5217,
      "fuck": 5218,
      "addictive": 5219,
      "genuin": 5220,
      "cancelled": 5221,
      "English": 5222,
      "Epiphany": 5223,
      "Dash": 5224,
      "Pen": 5225,
      "freaking": 5226,
      "ns": 5227,
      "phew": 5228,
      "wound": 5229,
      "zone": 5230,
      "ero": 5231,
      "arm": 5232,
      "sold": 5233,
      "nephew": 5234,
      "ico": 5235,
      "worship": 5236,
      "mothers": 5237,
      "updating": 5238,
      "unacceptable": 5239,
      "ephone": 5240,
      "saved": 5241,
      "pra": 5242,
      "interacting": 5243,
      "guide": 5244,
      "realization": 5245,
      "covid19": 5246,
      "opens": 5247,
      "facetime": 5248,
      "tricky": 5249,
      "structure": 5250,
      "locally": 5251,
      "pulling": 5252,
      "circumstance": 5253,
      "adults": 5254,
      "Marine": 5255,
      "campus": 5256,
      "blindsided": 5257,
      "disrespected": 5258,
      "Looking": 5259,
      "assured": 5260,
      "Apparently": 5261,
      "debts": 5262,
      "convinced": 5263,
      "NYC": 5264,
      "Relax": 5265,
      "briefly": 5266,
      "telephone": 5267,
      "receiving": 5268,
      "transition": 5269,
      "paced": 5270,
      "Each": 5271,
      "Fre": 5272,
      "IF": 5273,
      "QV": 5274,
      "chas": 5275,
      "dun": 5276,
      "gno": 5277,
      "nast": 5278,
      "wine": 5279,
      "insu": 5280,
      "reje": 5281,
      "alle": 5282,
      "gov": 5283,
      "hiking": 5284,
      "sitive": 5285,
      "shif": 5286,
      "finds": 5287,
      "disorder": 5288,
      "kindness": 5289,
      "ugly": 5290,
      "frame": 5291,
      "frustrations": 5292,
      "minating": 5293,
      "rench": 5294,
      "tons": 5295,
      "visits": 5296,
      "denom": 5297,
      "figuring": 5298,
      "burger": 5299,
      "legit": 5300,
      "route": 5301,
      "reported": 5302,
      "costs": 5303,
      "gency": 5304,
      "accountable": 5305,
      "reminded": 5306,
      "11pm": 5307,
      "disrespectful": 5308,
      "twin": 5309,
      "technique": 5310,
      "determination": 5311,
      "package": 5312,
      "photos": 5313,
      "introvert": 5314,
      "convenient": 5315,
      "emergency": 5316,
      "attributes": 5317,
      "intrusive": 5318,
      "individ": 5319,
      "QVC": 5320,
      "nasty": 5321,
      "rejection": 5322,
      "allevi": 5323,
      "AID": 5324,
      "CP": 5325,
      "Eve": 5326,
      "Man": 5327,
      "Part": 5328,
      "Tot": 5329,
      "VE": 5330,
      "lled": 5331,
      "mir": 5332,
      "rise": 5333,
      "xx": 5334,
      "ype": 5335,
      "anonymous": 5336,
      "vember": 5337,
      "loop": 5338,
      "copy": 5339,
      "moder": 5340,
      "gyms": 5341,
      "arts": 5342,
      "acted": 5343,
      "overly": 5344,
      "comic": 5345,
      "prin": 5346,
      "trend": 5347,
      "match": 5348,
      "completed": 5349,
      "tears": 5350,
      "wished": 5351,
      "inviting": 5352,
      "bedtime": 5353,
      "Ahh": 5354,
      "Ahhh": 5355,
      "excuse": 5356,
      "clue": 5357,
      "wheel": 5358,
      "instruments": 5359,
      "competition": 5360,
      "complaining": 5361,
      "admitted": 5362,
      "reference": 5363,
      "letters": 5364,
      "crowds": 5365,
      "bereave": 5366,
      "teenagers": 5367,
      "pulled": 5368,
      "genuinely": 5369,
      "AIDS": 5370,
      "Totally": 5371,
      "1st": 5372,
      "Eats": 5373,
      "Ge": 5374,
      "Joh": 5375,
      "Presid": 5376,
      "Sue": 5377,
      "Wal": 5378,
      "assion": 5379,
      "bay": 5380,
      "bond": 5381,
      "kitch": 5382,
      "mur": 5383,
      "wre": 5384,
      "wounds": 5385,
      "ata": 5386,
      "atleast": 5387,
      "utral": 5388,
      "neutral": 5389,
      "coll": 5390,
      "allas": 5391,
      "irty": 5392,
      "ONE": 5393,
      "confirm": 5394,
      "lass": 5395,
      "poss": 5396,
      "ilit": 5397,
      "compassion": 5398,
      "disability": 5399,
      "...)": 5400,
      "woes": 5401,
      "thanksgiving": 5402,
      "viving": 5403,
      "adds": 5404,
      "surviving": 5405,
      "carrier": 5406,
      "painfully": 5407,
      "Exams": 5408,
      "discussing": 5409,
      "therapists": 5410,
      "ternal": 5411,
      "HIN": 5412,
      "mistakes": 5413,
      "cloud": 5414,
      "locking": 5415,
      "betrayal": 5416,
      "climb": 5417,
      "postings": 5418,
      "hmmm": 5419,
      "demanding": 5420,
      "Reading": 5421,
      "dangerous": 5422,
      "bottle": 5423,
      "empathise": 5424,
      "izza": 5425,
      "screams": 5426,
      "kitchen": 5427,
      "murder": 5428,
      "5ravel": 5429,
      "90": 5430,
      "Fr": 5431,
      "Fin": 5432,
      "Five": 5433,
      "Fair": 5434,
      "Gr": 5435,
      "Pu": 5436,
      "Phi": 5437,
      "Si": 5438,
      "WO": 5439,
      "ado": 5440,
      "cried": 5441,
      "fond": 5442,
      "gur": 5443,
      "ials": 5444,
      "ihood": 5445,
      "lv": 5446,
      "lonline": 5447,
      "melaton": 5448,
      "nsy": 5449,
      "pone": 5450,
      "t5ravel": 5451,
      "anced": 5452,
      "ania": 5453,
      "ert": 5454,
      "inary": 5455,
      "inadequ": 5456,
      "atible": 5457,
      "iter": 5458,
      "lip": 5459,
      "liking": 5460,
      "livel": 5461,
      "docu": 5462,
      "ters": 5463,
      "max": 5464,
      "percent": 5465,
      "mized": 5466,
      "ideal": 5467,
      "needy": 5468,
      "afk": 5469,
      "micro": 5470,
      "grat": 5471,
      "grab": 5472,
      "compatible": 5473,
      "disci": 5474,
      "disabled": 5475,
      "speed": 5476,
      "fav": 5477,
      "bitch": 5478,
      "advoc": 5479,
      "listens": 5480,
      "tremend": 5481,
      "opened": 5482,
      "commer": 5483,
      "curious": 5484,
      "funer": 5485,
      "sensitive": 5486,
      "socialize": 5487,
      "roommates": 5488,
      "skin": 5489,
      "forwarding": 5490,
      "recommendations": 5491,
      "mediate": 5492,
      "approve": 5493,
      "extreme": 5494,
      "clients": 5495,
      "USA": 5496,
      "immediate": 5497,
      "judgement": 5498,
      "materials": 5499,
      "concentrating": 5500,
      "cooped": 5501,
      "Comparing": 5502,
      "intense": 5503,
      "attracted": 5504,
      "immunity": 5505,
      "Pennsy": 5506,
      "lvania": 5507,
      "lonliness": 5508,
      "livelihood": 5509,
      "advocate": 5510,
      "Pennsylvania": 5511,
      "Com": 5512,
      "Ser": 5513,
      "Ty": 5514,
      "THE": 5515,
      "bble": 5516,
      "cult": 5517,
      "eth": 5518,
      "iate": 5519,
      "sinking": 5520,
      "woud": 5521,
      "anch": 5522,
      "inally": 5523,
      "rec": 5524,
      "attach": 5525,
      "socially": 5526,
      "coholi": 5527,
      "joking": 5528,
      "conse": 5529,
      "entit": 5530,
      "mistr": 5531,
      "couldnt": 5532,
      "polar": 5533,
      "sadden": 5534,
      "everytime": 5535,
      "dio": 5536,
      "distressed": 5537,
      "spice": 5538,
      "apnea": 5539,
      "Ohh": 5540,
      "payments": 5541,
      "guessing": 5542,
      "believes": 5543,
      "academics": 5544,
      "vibe": 5545,
      "bubble": 5546,
      "Always": 5547,
      "responding": 5548,
      "cuts": 5549,
      "magic": 5550,
      "Research": 5551,
      "resumes": 5552,
      "bipolar": 5553,
      "excuses": 5554,
      "risky": 5555,
      "charges": 5556,
      "majors": 5557,
      "pieces": 5558,
      "windy": 5559,
      "remotely": 5560,
      "exposed": 5561,
      "Second": 5562,
      "antidepress": 5563,
      "record": 5564,
      "Music": 5565,
      "raped": 5566,
      "laptop": 5567,
      "tiny": 5568,
      "religion": 5569,
      "error": 5570,
      "confirmed": 5571,
      "coholic": 5572,
      "mistrust": 5573,
      "Bl": 5574,
      "During": 5575,
      "GP": 5576,
      "Isol": 5577,
      "KY": 5578,
      "equal": 5579,
      "hat": 5580,
      "labor": 5581,
      "length": 5582,
      "mour": 5583,
      "ram": 5584,
      "sence": 5585,
      "stream": 5586,
      "atm": 5587,
      "orida": 5588,
      "alo": 5589,
      "rich": 5590,
      "defe": 5591,
      "loser": 5592,
      "administr": 5593,
      "workload": 5594,
      "concept": 5595,
      "cade": 5596,
      "unreasonable": 5597,
      "yep": 5598,
      "ideally": 5599,
      "sadly": 5600,
      "fold": 5601,
      "proceed": 5602,
      "cents": 5603,
      "auth": 5604,
      "minim": 5605,
      "petty": 5606,
      "luckily": 5607,
      "merry": 5608,
      "elect": 5609,
      "companions": 5610,
      "hitting": 5611,
      "ountain": 5612,
      "hahaha": 5613,
      "accomplished": 5614,
      "fixed": 5615,
      "protein": 5616,
      "powerful": 5617,
      "snack": 5618,
      "attendant": 5619,
      "scenario": 5620,
      "Yoga": 5621,
      "extended": 5622,
      "breed": 5623,
      "platform": 5624,
      "draining": 5625,
      "slept": 5626,
      "phrase": 5627,
      "John": 5628,
      "Blue": 5629,
      "Air": 5630,
      "Awesome": 5631,
      "Bu": 5632,
      "Biden": 5633,
      "Grand": 5634,
      "Hm": 5635,
      "Out": 5636,
      "Pick": 5637,
      "Ul": 5638,
      "Wed": 5639,
      "WFH": 5640,
      "cell": 5641,
      "ev": 5642,
      "fed": 5643,
      "ficial": 5644,
      "ghe": 5645,
      "hund": 5646,
      "hous": 5647,
      "hiding": 5648,
      "knees": 5649,
      "lacking": 5650,
      "scan": 5651,
      "tat": 5652,
      "reci": 5653,
      "retraining": 5654,
      "orgi": 5655,
      "rope": 5656,
      "definit": 5657,
      "abit": 5658,
      "bled": 5659,
      "endorph": 5660,
      "cember": 5661,
      "herbal": 5662,
      "perman": 5663,
      "laint": 5664,
      "offended": 5665,
      "chore": 5666,
      "complaint": 5667,
      "Thankfully": 5668,
      "caregiver": 5669,
      "igned": 5670,
      "advising": 5671,
      "Initi": 5672,
      "angered": 5673,
      "rumor": 5674,
      "mediation": 5675,
      "covering": 5676,
      "hale": 5677,
      "countries": 5678,
      "December": 5679,
      "affordable": 5680,
      "typical": 5681,
      "300": 5682,
      "judging": 5683,
      "dedication": 5684,
      "director": 5685,
      "reminding": 5686,
      "extent": 5687,
      "sliding": 5688,
      "analytical": 5689,
      "cooper": 5690,
      "fruit": 5691,
      "articles": 5692,
      "escalate": 5693,
      "appeals": 5694,
      "umba": 5695,
      "fatigue": 5696,
      "unavoidable": 5697,
      "dunno": 5698,
      "bereavement": 5699,
      "Wednes": 5700,
      "housing": 5701,
      "orgia": 5702,
      "Initially": 5703,
      "AT": 5704,
      "Dis": 5705,
      "Foc": 5706,
      "Lack": 5707,
      "Mex": 5708,
      "bind": 5709,
      "cough": 5710,
      "iest": 5711,
      "pink": 5712,
      "pharm": 5713,
      "vag": 5714,
      "wat": 5715,
      "indoor": 5716,
      "ree": 5717,
      "serving": 5718,
      "ionally": 5719,
      "domin": 5720,
      "outdoor": 5721,
      "idi": 5722,
      "blessed": 5723,
      "sue": 5724,
      "held": 5725,
      "daytime": 5726,
      "goodbye": 5727,
      "usion": 5728,
      "wouldve": 5729,
      "Hii": 5730,
      "promot": 5731,
      "paran": 5732,
      "wasting": 5733,
      "......": 5734,
      "blaming": 5735,
      "bedroom": 5736,
      "visual": 5737,
      "Unless": 5738,
      "United": 5739,
      "picks": 5740,
      "stomach": 5741,
      "loads": 5742,
      "clou": 5743,
      "dropping": 5744,
      "click": 5745,
      "sunshine": 5746,
      "baking": 5747,
      "000": 5748,
      "engagement": 5749,
      "haircut": 5750,
      "custody": 5751,
      "investig": 5752,
      "knocked": 5753,
      "borrowed": 5754,
      "kicked": 5755,
      "factors": 5756,
      "limiting": 5757,
      "trails": 5758,
      "empathy": 5759,
      "Quite": 5760,
      "efficient": 5761,
      "psychiatrist": 5762,
      "praise": 5763,
      "Mexico": 5764,
      "Easter": 5765,
      "FIN": 5766,
      "Long": 5767,
      "Lol": 5768,
      "bounce": 5769,
      "ctic": 5770,
      "dry": 5771,
      "gic": 5772,
      "pile": 5773,
      "ture": 5774,
      "tack": 5775,
      "vable": 5776,
      "statement": 5777,
      "edge": 5778,
      "sober": 5779,
      "rob": 5780,
      "lovable": 5781,
      "aces": 5782,
      "hell": 5783,
      "mass": 5784,
      "Help": 5785,
      "Dogs": 5786,
      "grounds": 5787,
      "greater": 5788,
      "spare": 5789,
      "quences": 5790,
      "implement": 5791,
      "socializing": 5792,
      "relaxation": 5793,
      "dads": 5794,
      "negatively": 5795,
      "Yourself": 5796,
      "organize": 5797,
      "legacy": 5798,
      "regards": 5799,
      "instructions": 5800,
      "cookie": 5801,
      "provides": 5802,
      "devices": 5803,
      "HELLO": 5804,
      "adjusting": 5805,
      "damaging": 5806,
      "continued": 5807,
      "gardening": 5808,
      "transport": 5809,
      "concentration": 5810,
      "stenograp": 5811,
      "convincing": 5812,
      "contempl": 5813,
      "contemplate": 5814,
      "Otherwise": 5815,
      "scenarios": 5816,
      "pillow": 5817,
      "infidelity": 5818,
      "aimless": 5819,
      "scale": 5820,
      "alleviate": 5821,
      "document": 5822,
      "consequences": 5823,
      "Ble": 5824,
      "Cry": 5825,
      "Id": 5826,
      "Ind": 5827,
      "Mi": 5828,
      "Mine": 5829,
      "Te": 5830,
      "Wr": 5831,
      "bout": 5832,
      "celess": 5833,
      "nap": 5834,
      "rarely": 5835,
      "uable": 5836,
      "urope": 5837,
      "rely": 5838,
      "renew": 5839,
      "remove": 5840,
      "tocol": 5841,
      "antid": 5842,
      "ssibly": 5843,
      "elled": 5844,
      "aluable": 5845,
      "fest": 5846,
      "lif": 5847,
      "lize": 5848,
      "amp": 5849,
      "gossi": 5850,
      "accom": 5851,
      "cock": 5852,
      "preh": 5853,
      "depresed": 5854,
      "external": 5855,
      "cafe": 5856,
      "harass": 5857,
      "unnecessary": 5858,
      "pert": 5859,
      "entions": 5860,
      "Doctor": 5861,
      "east": 5862,
      "shall": 5863,
      "Social": 5864,
      "protocol": 5865,
      "startup": 5866,
      "chosen": 5867,
      "compound": 5868,
      "pressants": 5869,
      "wrap": 5870,
      "intentions": 5871,
      "parrot": 5872,
      "scener": 5873,
      "buried": 5874,
      "ification": 5875,
      "handled": 5876,
      "invaluable": 5877,
      "priceless": 5878,
      "obtain": 5879,
      "names": 5880,
      "reliever": 5881,
      "qualities": 5882,
      "schedules": 5883,
      "threw": 5884,
      "bio": 5885,
      "rising": 5886,
      "burned": 5887,
      "effected": 5888,
      "leader": 5889,
      "script": 5890,
      "bullies": 5891,
      "lawy": 5892,
      "recovering": 5893,
      "diagnosis": 5894,
      "workouts": 5895,
      "existing": 5896,
      "links": 5897,
      "valued": 5898,
      "obligated": 5899,
      "hesitate": 5900,
      "introdu": 5901,
      "initiative": 5902,
      "genuine": 5903,
      "million": 5904,
      "customers": 5905,
      "victimized": 5906,
      "frusterating": 5907,
      "Fresh": 5908,
      "denomination": 5909,
      "Isolation": 5910,
      "permanent": 5911,
      "accommo": 5912,
      "cocktail": 5913,
      "scenery": 5914,
      "22": 5915,
      "99": 5916,
      "DE": 5917,
      "Ebay": 5918,
      "Grub": 5919,
      "Hub": 5920,
      "Pandemic": 5921,
      "RY": 5922,
      "Sort": 5923,
      "UN": 5924,
      "blocking": 5925,
      "cross": 5926,
      "filled": 5927,
      "osity": 5928,
      "anto": 5929,
      "intake": 5930,
      "insecurity": 5931,
      "stone": 5932,
      "stir": 5933,
      "retreat": 5934,
      "ature": 5935,
      "attle": 5936,
      "meals": 5937,
      "aby": 5938,
      "admi": 5939,
      "acqui": 5940,
      "somedays": 5941,
      "premi": 5942,
      "Three": 5943,
      "expressed": 5944,
      "plants": 5945,
      "whose": 5946,
      "angel": 5947,
      "spr": 5948,
      "span": 5949,
      "checking": 5950,
      "monthly": 5951,
      "payment": 5952,
      "frustrates": 5953,
      "confer": 5954,
      "normalcy": 5955,
      "husbands": 5956,
      "tubing": 5957,
      "denied": 5958,
      "ruining": 5959,
      "calmly": 5960,
      "shutting": 5961,
      "prayer": 5962,
      "travelling": 5963,
      "accomplishment": 5964,
      "pushed": 5965,
      "hospitalized": 5966,
      "cleaned": 5967,
      "governing": 5968,
      "misunderstood": 5969,
      "centered": 5970,
      "protection": 5971,
      "pursuing": 5972,
      "vestry": 5973,
      "Enjoy": 5974,
      "bathroom": 5975,
      "craft": 5976,
      "strangers": 5977,
      "secretly": 5978,
      "customer": 5979,
      "score": 5980,
      "Knowing": 5981,
      "discouraged": 5982,
      "chased": 5983,
      "insul": 5984,
      "individual": 5985,
      "rumors": 5986,
      "admire": 5987,
      "23": 5988,
      "Cer": 5989,
      "Goo": 5990,
      "Language": 5991,
      "RR": 5992,
      "Vir": 5993,
      "lun": 5994,
      "science": 5995,
      "vows": 5996,
      "thin": 5997,
      "errand": 5998,
      "stal": 5999,
      "resolution": 6000,
      "returns": 6001,
      "edul": 6002,
      "semary": 6003,
      "females": 6004,
      "rolled": 6005,
      "rosemary": 6006,
      "asp": 6007,
      "fork": 6008,
      "forting": 6009,
      "former": 6010,
      "liber": 6011,
      "riminating": 6012,
      "maxi": 6013,
      "ops": 6014,
      "expert": 6015,
      "unknown": 6016,
      "comforting": 6017,
      "nerves": 6018,
      "offers": 6019,
      "choir": 6020,
      "igate": 6021,
      "ishing": 6022,
      "kidding": 6023,
      "parenting": 6024,
      "guitar": 6025,
      "classroom": 6026,
      "upsets": 6027,
      "stems": 6028,
      "tickets": 6029,
      "cute": 6030,
      "obse": 6031,
      "hopes": 6032,
      "drift": 6033,
      "storm": 6034,
      "incriminating": 6035,
      "Tracks": 6036,
      "legs": 6037,
      "property": 6038,
      "favorites": 6039,
      "btw": 6040,
      "keywords": 6041,
      "crimin": 6042,
      "Mean": 6043,
      "surprising": 6044,
      "disappointment": 6045,
      "engineers": 6046,
      "sexually": 6047,
      "preparation": 6048,
      "linked": 6049,
      "occurring": 6050,
      "American": 6051,
      "consulted": 6052,
      "standards": 6053,
      "Finding": 6054,
      "realistic": 6055,
      "intimidating": 6056,
      "reconcile": 6057,
      "flexible": 6058,
      "enemy": 6059,
      "princip": 6060,
      "discipl": 6061,
      "administrative": 6062,
      "Certain": 6063,
      "Google": 6064,
      "errands": 6065,
      "Res": 6066,
      "Str": 6067,
      "Shar": 6068,
      "eval": 6069,
      "ffe": 6070,
      "gment": 6071,
      "lous": 6072,
      "pit": 6073,
      "phi": 6074,
      "swi": 6075,
      "tx": 6076,
      "atable": 6077,
      "toys": 6078,
      "encounter": 6079,
      "alarm": 6080,
      "owed": 6081,
      "otic": 6082,
      "aswell": 6083,
      "liqu": 6084,
      "goin": 6085,
      "tist": 6086,
      "icious": 6087,
      "idations": 6088,
      "sucked": 6089,
      "cos": 6090,
      "updates": 6091,
      "weed": 6092,
      "oper": 6093,
      "cake": 6094,
      "percen": 6095,
      "nope": 6096,
      "november": 6097,
      "dim": 6098,
      "overthinking": 6099,
      "proactive": 6100,
      "grind": 6101,
      "chores": 6102,
      "certi": 6103,
      "immen": 6104,
      "woke": 6105,
      "firstly": 6106,
      "larger": 6107,
      "scams": 6108,
      "mins": 6109,
      "honesty": 6110,
      "enjoyable": 6111,
      "concerning": 6112,
      "Except": 6113,
      "scheduled": 6114,
      "element": 6115,
      "answered": 6116,
      "cler": 6117,
      "Corona": 6118,
      "miscar": 6119,
      "Works": 6120,
      "throwing": 6121,
      "assuming": 6122,
      "priority": 6123,
      "tutors": 6124,
      "cheerful": 6125,
      "expense": 6126,
      "circles": 6127,
      "chip": 6128,
      "munication": 6129,
      "abandoned": 6130,
      "clinical": 6131,
      "Communication": 6132,
      "woudl": 6133,
      "anchor": 6134,
      "minimal": 6135,
      "Wednesday": 6136,
      "Sharon": 6137,
      "evaluation": 6138,
      "lousy": 6139,
      "txt": 6140,
      "liquidations": 6141,
      "percentage": 6142,
      "ARE": 6143,
      "Hang": 6144,
      "Imp": 6145,
      "Much": 6146,
      "OM": 6147,
      "Phone": 6148,
      "Rick": 6149,
      "Set": 6150,
      "hic": 6151,
      "kicking": 6152,
      "lamp": 6153,
      "nam": 6154,
      "obe": 6155,
      "pin": 6156,
      "pon": 6157,
      "scr": 6158,
      "user": 6159,
      "vary": 6160,
      "oul": 6161,
      "stating": 6162,
      "sticking": 6163,
      "antee": 6164,
      "org": 6165,
      "alcoholic": 6166,
      "isk": 6167,
      "arantee": 6168,
      "outlook": 6169,
      "outdoors": 6170,
      "adap": 6171,
      "button": 6172,
      "cop": 6173,
      "mopped": 6174,
      "dong": 6175,
      "union": 6176,
      "perfection": 6177,
      "compens": 6178,
      "mani": 6179,
      "context": 6180,
      "imals": 6181,
      "brisk": 6182,
      "guarantee": 6183,
      "ctioned": 6184,
      "freely": 6185,
      "chanical": 6186,
      "auctioned": 6187,
      "Animals": 6188,
      "viable": 6189,
      "handsome": 6190,
      "appreciates": 6191,
      "hrs": 6192,
      "Home": 6193,
      "mornings": 6194,
      "menop": 6195,
      "tempted": 6196,
      "nearing": 6197,
      "gained": 6198,
      "Mechanical": 6199,
      "insane": 6200,
      "sunlight": 6201,
      "deaths": 6202,
      "described": 6203,
      "Gosh": 6204,
      "writers": 6205,
      "impacted": 6206,
      "terminated": 6207,
      "volunteered": 6208,
      "victim": 6209,
      "exists": 6210,
      "reflecting": 6211,
      "qualification": 6212,
      "blowing": 6213,
      "crowd": 6214,
      "Veter": 6215,
      "occasions": 6216,
      "booze": 6217,
      "North": 6218,
      "acknowledging": 6219,
      "Women": 6220,
      "woods": 6221,
      "Georgia": 6222,
      "President": 6223,
      "recipro": 6224,
      "investigation": 6225,
      "robbed": 6226,
      "CE": 6227,
      "Day": 6228,
      "Dallas": 6229,
      "EX": 6230,
      "IL": 6231,
      "June": 6232,
      "Mountain": 6233,
      "Ob": 6234,
      "Tex": 6235,
      "Taking": 6236,
      "fow": 6237,
      "pha": 6238,
      "pounds": 6239,
      "slo": 6240,
      "ume": 6241,
      "remission": 6242,
      "onder": 6243,
      "meh": 6244,
      "orig": 6245,
      "arbit": 6246,
      "rovert": 6247,
      "outsider": 6248,
      "withdra": 6249,
      "somethings": 6250,
      "master": 6251,
      "hill": 6252,
      "ula": 6253,
      "units": 6254,
      "unaware": 6255,
      "unbear": 6256,
      "safer": 6257,
      "sounding": 6258,
      "grace": 6259,
      "dismissed": 6260,
      "frank": 6261,
      "girlfriends": 6262,
      "babies": 6263,
      "realizing": 6264,
      "audio": 6265,
      "confusing": 6266,
      "creative": 6267,
      "designed": 6268,
      "akes": 6269,
      "achel": 6270,
      "isolate": 6271,
      "superficial": 6272,
      "itional": 6273,
      "deserted": 6274,
      "turkish": 6275,
      "formula": 6276,
      "paperwork": 6277,
      "salt": 6278,
      "sales": 6279,
      "responded": 6280,
      "chaos": 6281,
      "Makes": 6282,
      "economic": 6283,
      "Talk": 6284,
      "capital": 6285,
      "consume": 6286,
      "furious": 6287,
      "regrets": 6288,
      "translate": 6289,
      "timately": 6290,
      "believing": 6291,
      "alternate": 6292,
      "drawing": 6293,
      "occurren": 6294,
      "spoiled": 6295,
      "knock": 6296,
      "compromised": 6297,
      "alternatives": 6298,
      "randomly": 6299,
      "ctively": 6300,
      "HOW": 6301,
      "motorcycle": 6302,
      "objective": 6303,
      "vulnerable": 6304,
      "VERY": 6305,
      "precautions": 6306,
      "HING": 6307,
      "gratitude": 6308,
      "Ultimately": 6309,
      "lawyer": 6310,
      "Texas": 6311,
      "foward": 6312,
      "originally": 6313,
      "withdrawal": 6314,
      "unbearable": 6315,
      "BT": 6316,
      "Econo": 6317,
      "Fl": 6318,
      "GPA": 6319,
      "Ill": 6320,
      "Next": 6321,
      "Red": 6322,
      "Slow": 6323,
      "bid": 6324,
      "fought": 6325,
      "pound": 6326,
      "plain": 6327,
      "erb": 6328,
      "erty": 6329,
      "stol": 6330,
      "resc": 6331,
      "alert": 6332,
      "sopho": 6333,
      "solitary": 6334,
      "rossed": 6335,
      "asy": 6336,
      "notices": 6337,
      "acco": 6338,
      "acerb": 6339,
      "endless": 6340,
      "presid": 6341,
      "odd": 6342,
      "herbs": 6343,
      "ented": 6344,
      "ctu": 6345,
      "nose": 6346,
      "foster": 6347,
      "provoc": 6348,
      "download": 6349,
      "sist": 6350,
      "mighty": 6351,
      "imate": 6352,
      "imper": 6353,
      ":))": 6354,
      "suggesting": 6355,
      "plays": 6356,
      "strongly": 6357,
      "couples": 6358,
      "observed": 6359,
      "regain": 6360,
      "deserves": 6361,
      "termine": 6362,
      "puberty": 6363,
      "hollidays": 6364,
      "netflix": 6365,
      "salad": 6366,
      "Megan": 6367,
      "polite": 6368,
      "flat": 6369,
      "drastic": 6370,
      "jealousy": 6371,
      "racial": 6372,
      "instin": 6373,
      "irritable": 6374,
      "fucking": 6375,
      "window": 6376,
      "EST": 6377,
      "limits": 6378,
      "weighing": 6379,
      "itizen": 6380,
      "boost": 6381,
      "washing": 6382,
      "punished": 6383,
      "calendar": 6384,
      "retirement": 6385,
      "vibes": 6386,
      "electric": 6387,
      "ghest": 6388,
      "Focusing": 6389,
      "idiot": 6390,
      "Reddit": 6391,
      "stolen": 6392,
      "sophomore": 6393,
      "French": 6394,
      "Lately": 6395,
      "Making": 6396,
      "Oof": 6397,
      "Pan": 6398,
      "ST": 6399,
      "Wonder": 6400,
      "cd": 6401,
      "din": 6402,
      "das": 6403,
      "dirty": 6404,
      "ese": 6405,
      "knit": 6406,
      "mouth": 6407,
      "native": 6408,
      "pills": 6409,
      "pizza": 6410,
      "thow": 6411,
      "init": 6412,
      "incen": 6413,
      "instant": 6414,
      "stare": 6415,
      "remin": 6416,
      "beating": 6417,
      "arn": 6418,
      "ambit": 6419,
      "neve": 6420,
      "coach": 6421,
      "preced": 6422,
      "moil": 6423,
      "hers": 6424,
      "constrain": 6425,
      "novel": 6426,
      "ours": 6427,
      "happend": 6428,
      "affir": 6429,
      "bog": 6430,
      "diss": 6431,
      "distress": 6432,
      "proced": 6433,
      "spaces": 6434,
      "chooled": 6435,
      "hips": 6436,
      "coup": 6437,
      "pressing": 6438,
      "pressuring": 6439,
      "Shes": 6440,
      "brow": 6441,
      "shaking": 6442,
      "turmoil": 6443,
      "healthier": 6444,
      "easing": 6445,
      "north": 6446,
      "scatter": 6447,
      "vior": 6448,
      "stealing": 6449,
      "cuz": 6450,
      "testing": 6451,
      "sponsor": 6452,
      "phones": 6453,
      "tuition": 6454,
      "Cool": 6455,
      "restless": 6456,
      "mming": 6457,
      "distanced": 6458,
      "assess": 6459,
      "trips": 6460,
      "truck": 6461,
      "involving": 6462,
      "facility": 6463,
      "Everybody": 6464,
      "Online": 6465,
      "granddaughter": 6466,
      "divorces": 6467,
      "struction": 6468,
      "mingle": 6469,
      "shortly": 6470,
      "dumps": 6471,
      "judged": 6472,
      "guided": 6473,
      "pursued": 6474,
      "bully": 6475,
      "lifts": 6476,
      "consci": 6477,
      "soothing": 6478,
      "dollar": 6479,
      "requested": 6480,
      "wisdom": 6481,
      "budgeting": 6482,
      "attempting": 6483,
      "Staying": 6484,
      "YOUR": 6485,
      "earnings": 6486,
      "psychology": 6487,
      "sacrifices": 6488,
      "taker": 6489,
      "dramatic": 6490,
      "freedoms": 6491,
      "bridge": 6492,
      "Depending": 6493,
      "wreck": 6494,
      "tremendous": 6495,
      "companionship": 6496,
      "introduced": 6497,
      "Virtual": 6498,
      "forklift": 6499,
      "principal": 6500,
      "Florida": 6501,
      "Wonderful": 6502,
      "initial": 6503,
      "reminis": 6504,
      "constraints": 6505,
      "37": 6506,
      "Again": 6507,
      "CAn": 6508,
      "Fine": 6509,
      "Hold": 6510,
      "Jes": 6511,
      "MTurk": 6512,
      "Neither": 6513,
      "PP": 6514,
      "SO": 6515,
      "Sad": 6516,
      "Twit": 6517,
      "York": 6518,
      "bow": 6519,
      "bake": 6520,
      "dor": 6521,
      "dur": 6522,
      "dive": 6523,
      "ditch": 6524,
      "eh": 6525,
      "ip": 6526,
      "omy": 6527,
      "rr": 6528,
      "reloc": 6529,
      "returning": 6530,
      "alth": 6531,
      "leag": 6532,
      "kee": 6533,
      "theres": 6534,
      "abusing": 6535,
      "abnormal": 6536,
      "abroad": 6537,
      "chig": 6538,
      "loom": 6539,
      "geared": 6540,
      "vermon": 6541,
      "suade": 6542,
      "worris": 6543,
      "moody": 6544,
      "persuade": 6545,
      "hardship": 6546,
      "grass": 6547,
      "shouldnt": 6548,
      "Heart": 6549,
      "bites": 6550,
      "belt": 6551,
      "raw": 6552,
      "Sometime": 6553,
      "mark": 6554,
      "moral": 6555,
      "colleges": 6556,
      "surface": 6557,
      "aughter": 6558,
      "deny": 6559,
      "Real": 6560,
      "values": 6561,
      "mediator": 6562,
      "drives": 6563,
      "locality": 6564,
      "severance": 6565,
      "examples": 6566,
      "awareness": 6567,
      "circ": 6568,
      "growth": 6569,
      "Stress": 6570,
      "---": 6571,
      "Feels": 6572,
      "mism": 6573,
      "promised": 6574,
      "throws": 6575,
      "optimism": 6576,
      "definately": 6577,
      "strengths": 6578,
      "Possibly": 6579,
      "Cont": 6580,
      "***": 6581,
      "traditions": 6582,
      "threatened": 6583,
      "dynam": 6584,
      "sacrifice": 6585,
      "prevents": 6586,
      "surrounding": 6587,
      "terribly": 6588,
      "enthusiastic": 6589,
      "disrupted": 6590,
      "wander": 6591,
      "melatonin": 6592,
      "antidepressants": 6593,
      "streaming": 6594,
      "Johnnie": 6595,
      "endorphins": 6596,
      "transportation": 6597,
      "Crying": 6598,
      "Michig": 6599,
      "achelors": 6600,
      "Jesus": 6601,
      "Twitter": 6602,
      "duration": 6603,
      "vermont": 6604,
      "worrisome": 6605,
      "Michigan": 6606,
      ")?": 6607,
      "35": 6608,
      "Coun": 6609,
      "Europe": 6610,
      "Hal": 6611,
      "Habit": 6612,
      "Paper": 6613,
      "Yet": 6614,
      "award": 6615,
      "df": 6616,
      "filing": 6617,
      "omb": 6618,
      "pace": 6619,
      "pses": 6620,
      "tween": 6621,
      "tele": 6622,
      "vity": 6623,
      "zomb": 6624,
      "respective": 6625,
      "atly": 6626,
      "elim": 6627,
      "orting": 6628,
      "eness": 6629,
      "alter": 6630,
      "itut": 6631,
      "vehic": 6632,
      "army": 6633,
      "lyric": 6634,
      "uti": 6635,
      "yourselves": 6636,
      "tier": 6637,
      "adorable": 6638,
      "sugar": 6639,
      "wee": 6640,
      "ulate": 6641,
      "ctuary": 6642,
      "greet": 6643,
      "plant": 6644,
      "overeating": 6645,
      "comedy": 6646,
      "disaster": 6647,
      "igs": 6648,
      "Ohhh": 6649,
      "positively": 6650,
      "interf": 6651,
      "listed": 6652,
      "wrapped": 6653,
      "siders": 6654,
      "fren": 6655,
      "solving": 6656,
      "color": 6657,
      "drank": 6658,
      "headaches": 6659,
      "relapses": 6660,
      "200": 6661,
      "locks": 6662,
      "generate": 6663,
      "oooo": 6664,
      "topics": 6665,
      "burning": 6666,
      "behaviors": 6667,
      "sympath": 6668,
      "seekers": 6669,
      "properties": 6670,
      "LOT": 6671,
      "ignores": 6672,
      "boundries": 6673,
      "AND": 6674,
      "credits": 6675,
      "flirt": 6676,
      "consumed": 6677,
      "porn": 6678,
      "sociable": 6679,
      "transp": 6680,
      "fulfillment": 6681,
      "demands": 6682,
      "spreading": 6683,
      "spreadsheet": 6684,
      "analyze": 6685,
      "sanctuary": 6686,
      "HOw": 6687,
      "hikes": 6688,
      "announ": 6689,
      "empathize": 6690,
      "niece": 6691,
      "victims": 6692,
      "Humanity": 6693,
      "chemicals": 6694,
      "sneaking": 6695,
      "survival": 6696,
      "Deaf": 6697,
      "gnomes": 6698,
      "climbing": 6699,
      "mistrustful": 6700,
      "hundred": 6701,
      "tattoo": 6702,
      "renewed": 6703,
      "Panic": 6704,
      "cdc": 6705,
      "Half": 6706,
      "Habitat": 6707,
      "dfay": 6708,
      "zombie": 6709,
      "vehicle": 6710,
      "lyrics": 6711,
      "\"?": 6712,
      "29": 6713,
      "Baby": 6714,
      "Call": 6715,
      "EA": 6716,
      "Press": 6717,
      "THING": 6718,
      "Virus": 6719,
      "eer": 6720,
      "ggle": 6721,
      "gently": 6722,
      "lac": 6723,
      "mmed": 6724,
      "nine": 6725,
      "ox": 6726,
      "pam": 6727,
      "pic": 6728,
      "shad": 6729,
      "tes": 6730,
      "tab": 6731,
      "tress": 6732,
      "tues": 6733,
      "ygen": 6734,
      "rein": 6735,
      "reset": 6736,
      "elphi": 6737,
      "enable": 6738,
      "itals": 6739,
      "arches": 6740,
      "searches": 6741,
      "hehe": 6742,
      "roo": 6743,
      "asure": 6744,
      "forgotten": 6745,
      "liz": 6746,
      "doses": 6747,
      "outcomes": 6748,
      "destress": 6749,
      "loat": 6750,
      "tie": 6751,
      "sum": 6752,
      "cops": 6753,
      "cozy": 6754,
      "Than": 6755,
      "workshop": 6756,
      "contr": 6757,
      "concre": 6758,
      "ushes": 6759,
      "sely": 6760,
      "unappreciated": 6761,
      "rightfully": 6762,
      "easter": 6763,
      "partum": 6764,
      "afloat": 6765,
      "overweight": 6766,
      "downer": 6767,
      "complac": 6768,
      "leted": 6769,
      "mony": 6770,
      "applau": 6771,
      "impression": 6772,
      "reddit": 6773,
      "walmart": 6774,
      "filed": 6775,
      "marks": 6776,
      "mattress": 6777,
      "showering": 6778,
      "adding": 6779,
      "venting": 6780,
      "invis": 6781,
      "despair": 6782,
      "heartbreak": 6783,
      "denial": 6784,
      "musical": 6785,
      "basket": 6786,
      "seriousness": 6787,
      "involves": 6788,
      "depleted": 6789,
      "halt": 6790,
      "exclu": 6791,
      "snowed": 6792,
      "interviewing": 6793,
      "chart": 6794,
      "hospitals": 6795,
      "researching": 6796,
      "ladelphi": 6797,
      "practices": 6798,
      "driveway": 6799,
      "cliche": 6800,
      "erences": 6801,
      "alien": 6802,
      "affairs": 6803,
      "damper": 6804,
      "procrastination": 6805,
      "Adult": 6806,
      "straining": 6807,
      "blows": 6808,
      "digital": 6809,
      "obliged": 6810,
      "obligations": 6811,
      "analyst": 6812,
      "Spouse": 6813,
      "Jobs": 6814,
      "candy": 6815,
      "confrontational": 6816,
      "repetitive": 6817,
      "chemical": 6818,
      "conducting": 6819,
      "Waiting": 6820,
      "Philadelphi": 6821,
      "WOR": 6822,
      "inadequate": 6823,
      "entitled": 6824,
      "folding": 6825,
      "watches": 6826,
      "Writing": 6827,
      "antidpressants": 6828,
      "festive": 6829,
      "premium": 6830,
      "eduling": 6831,
      "Pressure": 6832,
      "oxygen": 6833,
      "tuesday": 6834,
      "workshops": 6835,
      "concrete": 6836,
      "complacent": 6837,
      "applaud": 6838,
      "Philadelphia": 6839,
      "BAY": 6840,
      "CS": 6841,
      "EBAY": 6842,
      "FB": 6843,
      "LD": 6844,
      "MO": 6845,
      "Mor": 6846,
      "Mart": 6847,
      "Mist": 6848,
      "Pat": 6849,
      "WE": 6850,
      "Whe": 6851,
      "WIL": 6852,
      "XD": 6853,
      "ather": 6854,
      "bh": 6855,
      "dge": 6856,
      "dance": 6857,
      "gap": 6858,
      "iven": 6859,
      "smar": 6860,
      "tbh": 6861,
      "wing": 6862,
      "winner": 6863,
      "yi": 6864,
      "york": 6865,
      "stag": 6866,
      "oring": 6867,
      "enh": 6868,
      "riosity": 6869,
      "utter": 6870,
      "goof": 6871,
      "verty": 6872,
      "feelin": 6873,
      "admir": 6874,
      "acter": 6875,
      "butt": 6876,
      "fridge": 6877,
      "exboyfriend": 6878,
      "caps": 6879,
      "mption": 6880,
      "poverty": 6881,
      "dia": 6882,
      "evenings": 6883,
      "granted": 6884,
      "grasp": 6885,
      "crash": 6886,
      "quits": 6887,
      "couch": 6888,
      "cheese": 6889,
      "listic": 6890,
      "lasting": 6891,
      "treasure": 6892,
      "childish": 6893,
      "renting": 6894,
      "curiosity": 6895,
      "attending": 6896,
      "headache": 6897,
      "earned": 6898,
      "searched": 6899,
      "lication": 6900,
      "pains": 6901,
      "freeing": 6902,
      "stops": 6903,
      "manageable": 6904,
      "fights": 6905,
      "trick": 6906,
      "expects": 6907,
      "ordered": 6908,
      "refuses": 6909,
      "elessness": 6910,
      "Until": 6911,
      "slower": 6912,
      "purchased": 6913,
      "shocked": 6914,
      "pleased": 6915,
      "amazed": 6916,
      "character": 6917,
      "leaders": 6918,
      "pushups": 6919,
      "regardless": 6920,
      "50s": 6921,
      "posting": 6922,
      "celebrating": 6923,
      "Times": 6924,
      "firmations": 6925,
      "Facetime": 6926,
      "minimum": 6927,
      "privately": 6928,
      "deem": 6929,
      "ariety": 6930,
      "defend": 6931,
      "Administr": 6932,
      "Advice": 6933,
      "Poor": 6934,
      "concentrated": 6935,
      "shell": 6936,
      "breadwinner": 6937,
      "Addiction": 6938,
      "Spending": 6939,
      "acheive": 6940,
      "resentful": 6941,
      "measure": 6942,
      "funds": 6943,
      "rubbing": 6944,
      "jokes": 6945,
      "repetition": 6946,
      "addictions": 6947,
      "prioritize": 6948,
      "firends": 6949,
      "Understood": 6950,
      "Grou": 6951,
      "microbiology": 6952,
      "reciprocate": 6953,
      "incense": 6954,
      "novels": 6955,
      "scattered": 6956,
      "CSR": 6957,
      "Mistakes": 6958,
      "Patience": 6959,
      "Whether": 6960,
      "WILL": 6961,
      "smarter": 6962,
      "Administration": 6963,
      "32": 6964,
      "Ant": 6965,
      "Bul": 6966,
      "CN": 6967,
      "Hit": 6968,
      "Happ": 6969,
      "House": 6970,
      "Jason": 6971,
      "Pot": 6972,
      "Sep": 6973,
      "WHAT": 6974,
      "apoint": 6975,
      "crossed": 6976,
      "data": 6977,
      "fate": 6978,
      "glass": 6979,
      "nth": 6980,
      "nship": 6981,
      "tread": 6982,
      "ud": 6983,
      "zero": 6984,
      "ths": 6985,
      "eria": 6986,
      "inch": 6987,
      "inappropriate": 6988,
      "incompetent": 6989,
      "stro": 6990,
      "resign": 6991,
      "relying": 6992,
      "edly": 6993,
      "arcti": 6994,
      "sore": 6995,
      "solo": 6996,
      "soak": 6997,
      "femin": 6998,
      "forbid": 6999,
      "riages": 7000,
      "esp": 7001,
      "goood": 7002,
      "chr": 7003,
      "trap": 7004,
      "tied": 7005,
      "acu": 7006,
      "acles": 7007,
      "sup": 7008,
      "peak": 7009,
      "preach": 7010,
      "helper": 7011,
      "mode": 7012,
      "hero": 7013,
      "concl": 7014,
      "caffe": 7015,
      "tasting": 7016,
      "standing": 7017,
      "peoples": 7018,
      "lav": 7019,
      "sake": 7020,
      "owners": 7021,
      "overcoming": 7022,
      "crack": 7023,
      "discre": 7024,
      "afterward": 7025,
      "reads": 7026,
      "difficut": 7027,
      "cheaper": 7028,
      "apping": 7029,
      "impending": 7030,
      "internship": 7031,
      "elsewhere": 7032,
      "braid": 7033,
      "honey": 7034,
      "heals": 7035,
      "meets": 7036,
      "corona": 7037,
      "torn": 7038,
      "tains": 7039,
      "matum": 7040,
      "mash": 7041,
      "tember": 7042,
      "cudd": 7043,
      "motivates": 7044,
      "Chrome": 7045,
      "Anybody": 7046,
      "heartedly": 7047,
      "restored": 7048,
      "visitor": 7049,
      "primary": 7050,
      "questioning": 7051,
      "Yours": 7052,
      "severity": 7053,
      "pickup": 7054,
      "apartments": 7055,
      "layer": 7056,
      "touchy": 7057,
      "HIT": 7058,
      "State": 7059,
      "separation": 7060,
      "chase": 7061,
      "blah": 7062,
      "climate": 7063,
      "celebration": 7064,
      "switching": 7065,
      "ultimatum": 7066,
      "Firstly": 7067,
      "contracted": 7068,
      "addicts": 7069,
      "criteria": 7070,
      "Kinda": 7071,
      "technical": 7072,
      "Consider": 7073,
      "Hopelessness": 7074,
      "raining": 7075,
      "settled": 7076,
      "architects": 7077,
      "BEING": 7078,
      "Practi": 7079,
      "bereft": 7080,
      "platforms": 7081,
      "teenager": 7082,
      "Listening": 7083,
      "narci": 7084,
      "scarce": 7085,
      "equally": 7086,
      "favour": 7087,
      "definitly": 7088,
      "clouding": 7089,
      "prehensive": 7090,
      "compounded": 7091,
      "biological": 7092,
      "swimming": 7093,
      "adapt": 7094,
      "Economics": 7095,
      "pounding": 7096,
      "instincts": 7097,
      "assessment": 7098,
      "admirable": 7099,
      "Antarcti": 7100,
      "Bullying": 7101,
      "CNN": 7102,
      "September": 7103,
      "treadmill": 7104,
      "stroke": 7105,
      "feminism": 7106,
      "caffeine": 7107,
      "braider": 7108,
      "Antarctica": 7109,
      ",\"": 7110,
      "Cross": 7111,
      "Either": 7112,
      "EEL": 7113,
      "Full": 7114,
      "FEEL": 7115,
      "GH": 7116,
      "Gu": 7117,
      "Kid": 7118,
      "PM": 7119,
      "RI": 7120,
      "Sit": 7121,
      "Spe": 7122,
      "SCA": 7123,
      "Ur": 7124,
      "Ye": 7125,
      "bage": 7126,
      "bachelors": 7127,
      "cket": 7128,
      "dough": 7129,
      "fans": 7130,
      "ht": 7131,
      "ium": 7132,
      "pter": 7133,
      "xer": 7134,
      "thi": 7135,
      "ouch": 7136,
      "insecur": 7137,
      "reson": 7138,
      "antiv": 7139,
      "hah": 7140,
      "vement": 7141,
      "behaving": 7142,
      "owa": 7143,
      "wives": 7144,
      "rovement": 7145,
      "demon": 7146,
      "cher": 7147,
      "tracking": 7148,
      "tiring": 7149,
      "subox": 7150,
      "enda": 7151,
      "core": 7152,
      "cocky": 7153,
      "someday": 7154,
      "pegging": 7155,
      "talent": 7156,
      "unit": 7157,
      "unge": 7158,
      "unpreced": 7159,
      "okie": 7160,
      "pocket": 7161,
      "plunge": 7162,
      "paint": 7163,
      "overnight": 7164,
      "agenda": 7165,
      "spite": 7166,
      "sim": 7167,
      "backyard": 7168,
      "Health": 7169,
      "Progress": 7170,
      "meanwhile": 7171,
      "childcare": 7172,
      "rental": 7173,
      "IDE": 7174,
      "chats": 7175,
      "ptions": 7176,
      "stepping": 7177,
      "enger": 7178,
      "heads": 7179,
      "rested": 7180,
      "ohh": 7181,
      "ohhh": 7182,
      "!!!!!": 7183,
      "checks": 7184,
      "district": 7185,
      "mentality": 7186,
      "overwhelm": 7187,
      "clearing": 7188,
      "refusing": 7189,
      "craziness": 7190,
      "signals": 7191,
      "excel": 7192,
      "respectful": 7193,
      "processing": 7194,
      "visited": 7195,
      "weights": 7196,
      "pushiness": 7197,
      "Feelings": 7198,
      "complications": 7199,
      "chapter": 7200,
      "anguish": 7201,
      "development": 7202,
      "protected": 7203,
      "incredible": 7204,
      "carrying": 7205,
      "throught": 7206,
      "axxer": 7207,
      "passionate": 7208,
      "delete": 7209,
      "Christian": 7210,
      "occasionally": 7211,
      "terrified": 7212,
      "Listen": 7213,
      "garbage": 7214,
      "fingers": 7215,
      "dragging": 7216,
      "subscription": 7217,
      "Looks": 7218,
      "sneak": 7219,
      "recruiter": 7220,
      "neglect": 7221,
      "consultant": 7222,
      "culinary": 7223,
      "irritating": 7224,
      "floor": 7225,
      "legitimate": 7226,
      "Walmart": 7227,
      "France": 7228,
      "commerce": 7229,
      "attached": 7230,
      "Improvement": 7231,
      "pinpoint": 7232,
      "compensate": 7233,
      "occurrence": 7234,
      "president": 7235,
      "browser": 7236,
      "interfering": 7237,
      "lizard": 7238,
      "Crossfit": 7239,
      "Situation": 7240,
      "insecurities": 7241,
      "resonate": 7242,
      "antivaxxer": 7243,
      "suboxone": 7244,
      "unprecedented": 7245,
      "66": 7246,
      "Afri": 7247,
      "Based": 7248,
      "Breaking": 7249,
      "Care": 7250,
      "Citizen": 7251,
      "DID": 7252,
      "Felt": 7253,
      "Gone": 7254,
      "Har": 7255,
      "Last": 7256,
      "OD": 7257,
      "Rob": 7258,
      "SU": 7259,
      "Sha": 7260,
      "Sur": 7261,
      "Sund": 7262,
      "TA": 7263,
      "Tough": 7264,
      "VR": 7265,
      "Vit": 7266,
      "Zumba": 7267,
      "ause": 7268,
      "bund": 7269,
      "hbu": 7270,
      "iency": 7271,
      "jam": 7272,
      "mely": 7273,
      "nk": 7274,
      "pens": 7275,
      "scor": 7276,
      "uous": 7277,
      "vlog": 7278,
      "wage": 7279,
      "yl": 7280,
      "thrive": 7281,
      "redi": 7282,
      "recal": 7283,
      "atre": 7284,
      "ssss": 7285,
      "toler": 7286,
      "memo": 7287,
      "alon": 7288,
      "isy": 7289,
      "itine": 7290,
      "vet": 7291,
      "becu": 7292,
      "arri": 7293,
      "wil": 7294,
      "seper": 7295,
      "section": 7296,
      "heater": 7297,
      "rocky": 7298,
      "outgoing": 7299,
      "outta": 7300,
      "utting": 7301,
      "gold": 7302,
      "chills": 7303,
      "loo": 7304,
      "tire": 7305,
      "icago": 7306,
      "constructive": 7307,
      "exhale": 7308,
      "noisy": 7309,
      "makeup": 7310,
      "muck": 7311,
      "betes": 7312,
      "overthink": 7313,
      "compe": 7314,
      "breaker": 7315,
      "newer": 7316,
      "angle": 7317,
      "illy": 7318,
      "discount": 7319,
      "chef": 7320,
      "chemo": 7321,
      "intersted": 7322,
      "uggling": 7323,
      "Pros": 7324,
      "tremely": 7325,
      "lesser": 7326,
      "solved": 7327,
      "considerate": 7328,
      "bump": 7329,
      "tearing": 7330,
      "handy": 7331,
      "phanto": 7332,
      "licen": 7333,
      "visa": 7334,
      "sky": 7335,
      "privi": 7336,
      "hunt": 7337,
      "Recovering": 7338,
      "truely": 7339,
      "Explain": 7340,
      "Extremely": 7341,
      "benefited": 7342,
      "depth": 7343,
      "risks": 7344,
      "Hai": 7345,
      "Hahaha": 7346,
      "seeks": 7347,
      "buyer": 7348,
      "mturks": 7349,
      "quaritine": 7350,
      "judgment": 7351,
      "majority": 7352,
      "gigs": 7353,
      "instruction": 7354,
      "ictionary": 7355,
      "exceptional": 7356,
      "sunny": 7357,
      "meaningless": 7358,
      "patients": 7359,
      "tracked": 7360,
      "humans": 7361,
      "settings": 7362,
      "neighbours": 7363,
      "apologies": 7364,
      "hybrid": 7365,
      "heavily": 7366,
      "conscience": 7367,
      "radi": 7368,
      "scene": 7369,
      "Started": 7370,
      "retires": 7371,
      "resolving": 7372,
      "residents": 7373,
      "chairs": 7374,
      "finger": 7375,
      "podcasts": 7376,
      "realistically": 7377,
      "declining": 7378,
      "disturb": 7379,
      "calendars": 7380,
      "portion": 7381,
      "oils": 7382,
      "shifted": 7383,
      "Six": 7384,
      "guru": 7385,
      "lengthy": 7386,
      "tackle": 7387,
      "conference": 7388,
      "drifted": 7389,
      "discipline": 7390,
      "evaluations": 7391,
      "varying": 7392,
      "phase": 7393,
      "rescue": 7394,
      "bogged": 7395,
      "dissapoint": 7396,
      "Heartbreak": 7397,
      "hundreds": 7398,
      "invisible": 7399,
      "diabetes": 7400,
      "Africa": 7401,
      "Harry": 7402,
      "Sunday": 7403,
      "Vitamin": 7404,
      "scoring": 7405,
      "tolerate": 7406,
      "arrived": 7407,
      "phantom": 7408,
      "05": 7409,
      "53": 7410,
      "5th": 7411,
      "?!": 7412,
      "BA": 7413,
      "BS": 7414,
      "Bad": 7415,
      "Cow": 7416,
      "LES": 7417,
      "MR": 7418,
      "Mas": 7419,
      "Milit": 7420,
      "OF": 7421,
      "OS": 7422,
      "RP": 7423,
      "Sk": 7424,
      "Washing": 7425,
      "assistant": 7426,
      "aul": 7427,
      "aith": 7428,
      "bars": 7429,
      "cities": 7430,
      "ders": 7431,
      "fash": 7432,
      "iI": 7433,
      "ked": 7434,
      "nav": 7435,
      "oops": 7436,
      "piling": 7437,
      "rhy": 7438,
      "ranted": 7439,
      "smash": 7440,
      "tweet": 7441,
      "vital": 7442,
      "thm": 7443,
      "inating": 7444,
      "incer": 7445,
      "incapable": 7446,
      "sti": 7447,
      "rephrase": 7448,
      "ingly": 7449,
      "antain": 7450,
      "server": 7451,
      "serves": 7452,
      "ssistic": 7453,
      "entr": 7454,
      "ishes": 7455,
      "itally": 7456,
      "bee": 7457,
      "oty": 7458,
      "gho": 7459,
      "default": 7460,
      "thern": 7461,
      "ama": 7462,
      "abort": 7463,
      "loking": 7464,
      "geon": 7465,
      "acing": 7466,
      "acist": 7467,
      "acular": 7468,
      "bleed": 7469,
      "daycare": 7470,
      "fright": 7471,
      "mage": 7472,
      "jolly": 7473,
      "hires": 7474,
      "whatnot": 7475,
      "goods": 7476,
      "exes": 7477,
      "unble": 7478,
      "unlikely": 7479,
      "greay": 7480,
      "sav": 7481,
      "fulfilled": 7482,
      "civil": 7483,
      "Their": 7484,
      "crappy": 7485,
      "finishes": 7486,
      "homeschool": 7487,
      "fade": 7488,
      "crises": 7489,
      "issing": 7490,
      "immoral": 7491,
      "wonders": 7492,
      "listings": 7493,
      "planners": 7494,
      "trees": 7495,
      "pretending": 7496,
      "reality": 7497,
      "morator": 7498,
      "bummed": 7499,
      "rists": 7500,
      "blacks": 7501,
      "jeop": 7502,
      "Chicago": 7503,
      "functions": 7504,
      "surgeon": 7505,
      "earth": 7506,
      "communiate": 7507,
      "Hob": 7508,
      "tricks": 7509,
      "Nowadays": 7510,
      "treatments": 7511,
      "spectacular": 7512,
      "subtle": 7513,
      "touched": 7514,
      "spiral": 7515,
      "Need": 7516,
      "NOW": 7517,
      "Keeping": 7518,
      "Plantain": 7519,
      "Seeing": 7520,
      "warranted": 7521,
      "UST": 7522,
      "assumed": 7523,
      "GoPu": 7524,
      "occupy": 7525,
      "extrovert": 7526,
      "southern": 7527,
      "icament": 7528,
      "partially": 7529,
      "rushing": 7530,
      "birthdays": 7531,
      "incidents": 7532,
      "retailers": 7533,
      "sympathise": 7534,
      "Appen": 7535,
      "digitally": 7536,
      "refreshed": 7537,
      "annual": 7538,
      "nicely": 7539,
      "predicament": 7540,
      "Support": 7541,
      "Joe": 7542,
      "honorable": 7543,
      "casual": 7544,
      "behaved": 7545,
      "Wait": 7546,
      "transitioning": 7547,
      "CPS": 7548,
      "xxx": 7549,
      "scanning": 7550,
      "pharmacist": 7551,
      "stenographer": 7552,
      "lifting": 7553,
      "harassing": 7554,
      "linkedin": 7555,
      "immensely": 7556,
      "motorcycles": 7557,
      "affirming": 7558,
      "procedures": 7559,
      "announced": 7560,
      "lavender": 7561,
      "Maslow": 7562,
      "Military": 7563,
      "Washington": 7564,
      "fashion": 7565,
      "navigate": 7566,
      "rhythm": 7567,
      "incerely": 7568,
      "moratorium": 7569,
      "GoPuff": 7570,
      "))": 7571,
      ".,": 7572,
      "55": 7573,
      "600": 7574,
      "Apart": 7575,
      "Alot": 7576,
      "Acade": 7577,
      "Bi": 7578,
      "Di": 7579,
      "EVERY": 7580,
      "Fail": 7581,
      "HY": 7582,
      "JUST": 7583,
      "Live": 7584,
      "PD": 7585,
      "Sigh": 7586,
      "TR": 7587,
      "Um": 7588,
      "Use": 7589,
      "WHY": 7590,
      "aug": 7591,
      "blog": 7592,
      "cling": 7593,
      "evalu": 7594,
      "gish": 7595,
      "gender": 7596,
      "lma": 7597,
      "mall": 7598,
      "ng": 7599,
      "nan": 7600,
      "sion": 7601,
      "spa": 7602,
      "tacks": 7603,
      "ugh": 7604,
      "ertive": 7605,
      "reated": 7606,
      "redom": 7607,
      "redeem": 7608,
      "tori": 7609,
      "elly": 7610,
      "enced": 7611,
      "lemon": 7612,
      "ofcourse": 7613,
      "formal": 7614,
      "ripped": 7615,
      "absolut": 7616,
      "absence": 7617,
      "chism": 7618,
      "wort": 7619,
      "joh": 7620,
      "exacerb": 7621,
      "mpted": 7622,
      "mize": 7623,
      "boredom": 7624,
      "plandemic": 7625,
      "divert": 7626,
      "prompted": 7627,
      "crative": 7628,
      "appet": 7629,
      "sisters": 7630,
      "aint": 7631,
      "esting": 7632,
      "readings": 7633,
      "thoughtful": 7634,
      "bitter": 7635,
      "item": 7636,
      "advised": 7637,
      "uggish": 7638,
      "classmates": 7639,
      "sidewalks": 7640,
      "Somehow": 7641,
      "Infinitely": 7642,
      "consideration": 7643,
      "mines": 7644,
      "minist": 7645,
      "lucrative": 7646,
      "blues": 7647,
      "suring": 7648,
      "relaxes": 7649,
      "messenger": 7650,
      "!!!!": 7651,
      "entials": 7652,
      "assertive": 7653,
      "professionals": 7654,
      "humor": 7655,
      "Excel": 7656,
      "sickness": 7657,
      "Attacks": 7658,
      "Uni": 7659,
      "slowdown": 7660,
      "servations": 7661,
      "toughest": 7662,
      "Dec": 7663,
      "supposedly": 7664,
      "balancing": 7665,
      "medicines": 7666,
      "imes": 7667,
      "teenage": 7668,
      "instructor": 7669,
      "relieving": 7670,
      "smoo": 7671,
      "credentials": 7672,
      "accounts": 7673,
      "repeating": 7674,
      "racist": 7675,
      "involvement": 7676,
      "flipped": 7677,
      "Anxious": 7678,
      "societies": 7679,
      "HAve": 7680,
      "maintains": 7681,
      "south": 7682,
      "supporters": 7683,
      "Breakup": 7684,
      "timers": 7685,
      "explored": 7686,
      "investment": 7687,
      "combat": 7688,
      "freelancing": 7689,
      "debilit": 7690,
      "pointing": 7691,
      "Musical": 7692,
      "intimate": 7693,
      "slacking": 7694,
      "sluggish": 7695,
      "PhD": 7696,
      "ridiculing": 7697,
      "measures": 7698,
      "amongst": 7699,
      "appeal": 7700,
      "dwelling": 7701,
      "punishment": 7702,
      "catechism": 7703,
      "Interesting": 7704,
      "violent": 7705,
      "flexibility": 7706,
      "disturbing": 7707,
      "FORE": 7708,
      "funeral": 7709,
      "funerals": 7710,
      "efficiently": 7711,
      "eastcoast": 7712,
      "liberating": 7713,
      "Meanwhile": 7714,
      "arbiter": 7715,
      "ambitious": 7716,
      "eliminated": 7717,
      "treadmills": 7718,
      "Failure": 7719,
      "evaluate": 7720,
      "lmao": 7721,
      "nanny": 7722,
      "appetite": 7723,
      "ministry": 7724,
      "debilitating": 7725,
      "4th": 7726,
      "Amen": 7727,
      "BI": 7728,
      "GF": 7729,
      "Hence": 7730,
      "IM": 7731,
      "Ou": 7732,
      "PC": 7733,
      "Up": 7734,
      "VA": 7735,
      "West": 7736,
      "YOu": 7737,
      "bell": 7738,
      "bits": 7739,
      "bts": 7740,
      "bird": 7741,
      "dach": 7742,
      "ego": 7743,
      "flaw": 7744,
      "gare": 7745,
      "giv": 7746,
      "oia": 7747,
      "phar": 7748,
      "rally": 7749,
      "rational": 7750,
      "scold": 7751,
      "sincerely": 7752,
      "tease": 7753,
      "ttes": 7754,
      "ued": 7755,
      "uely": 7756,
      "vot": 7757,
      "wits": 7758,
      "wnat": 7759,
      "erday": 7760,
      "erian": 7761,
      "ergic": 7762,
      "station": 7763,
      "rede": 7764,
      "reven": 7765,
      "reactions": 7766,
      "eline": 7767,
      "encies": 7768,
      "enrolled": 7769,
      "itis": 7770,
      "beside": 7771,
      "bevi": 7772,
      "artist": 7773,
      "wild": 7774,
      "forcing": 7775,
      "mysle": 7776,
      "outsiders": 7777,
      "utal": 7778,
      "gear": 7779,
      "trag": 7780,
      "icism": 7781,
      "adn": 7782,
      "actor": 7783,
      "suit": 7784,
      "suits": 7785,
      "someting": 7786,
      "abouts": 7787,
      "allergic": 7788,
      "indu": 7789,
      "confin": 7790,
      "conform": 7791,
      "unscheduled": 7792,
      "perts": 7793,
      "missive": 7794,
      "inese": 7795,
      "ineas": 7796,
      "pool": 7797,
      "popped": 7798,
      "shor": 7799,
      "shund": 7800,
      "owner": 7801,
      "cigare": 7802,
      "bold": 7803,
      "prospect": 7804,
      "whoever": 7805,
      "grant": 7806,
      "grunt": 7807,
      "tellers": 7808,
      "spots": 7809,
      "compelled": 7810,
      "discomfort": 7811,
      "disorganization": 7812,
      "dismissive": 7813,
      "apprehensive": 7814,
      "backed": 7815,
      "esterday": 7816,
      "mindful": 7817,
      "beforehand": 7818,
      "pract": 7819,
      "weekends": 7820,
      "Nope": 7821,
      "interpret": 7822,
      "brutal": 7823,
      "differnt": 7824,
      "healthiest": 7825,
      "lesson": 7826,
      "counci": 7827,
      "bush": 7828,
      "bull": 7829,
      "longest": 7830,
      "socialized": 7831,
      "socialised": 7832,
      "loses": 7833,
      "restate": 7834,
      "remembering": 7835,
      "systems": 7836,
      "contacts": 7837,
      "assures": 7838,
      "wholeheartedly": 7839,
      "Regard": 7840,
      "valerian": 7841,
      "lighting": 7842,
      "speaks": 7843,
      "Experts": 7844,
      "tendencies": 7845,
      "cyle": 7846,
      "horia": 7847,
      "extremally": 7848,
      "reporting": 7849,
      "coward": 7850,
      "grandpa": 7851,
      "grandfather": 7852,
      "teams": 7853,
      "leged": 7854,
      "crime": 7855,
      "LOVE": 7856,
      "graduating": 7857,
      "doubts": 7858,
      "Whereabouts": 7859,
      "Lets": 7860,
      "addressed": 7861,
      "Plan": 7862,
      "devot": 7863,
      "institut": 7864,
      "Goals": 7865,
      "developing": 7866,
      "recognized": 7867,
      "psych": 7868,
      "windows": 7869,
      "miniature": 7870,
      "clarification": 7871,
      "hungry": 7872,
      "referring": 7873,
      "entered": 7874,
      "criticism": 7875,
      "popular": 7876,
      "linkdin": 7877,
      "secrets": 7878,
      "170": 7879,
      "maths": 7880,
      "destroying": 7881,
      "photoshoot": 7882,
      "brick": 7883,
      "contribute": 7884,
      "traditional": 7885,
      "steno": 7886,
      "threatening": 7887,
      "starve": 7888,
      "candid": 7889,
      "Phineas": 7890,
      "entertainment": 7891,
      "LET": 7892,
      "advancement": 7893,
      "THat": 7894,
      "acknowledged": 7895,
      "motorcyle": 7896,
      "Death": 7897,
      "evict": 7898,
      "vaguely": 7899,
      "paranoia": 7900,
      "contemplated": 7901,
      "Blessed": 7902,
      "gossip": 7903,
      "accommodating": 7904,
      "acquire": 7905,
      "Certainly": 7906,
      "organs": 7907,
      "perfectionist": 7908,
      "keeper": 7909,
      "french": 7910,
      "Martins": 7911,
      "chronic": 7912,
      "privileged": 7913,
      "dachshund": 7914,
      "pharma": 7915,
      "beviors": 7916,
      "myslef": 7917,
      "tragic": 7918,
      "confined": 7919,
      "cigarettes": 7920,
      "Regarding": 7921,
      "institution": 7922,
      "2nd": 7923,
      "Bes": 7924,
      "Bur": 7925,
      "Cra": 7926,
      "DA": 7927,
      "Den": 7928,
      "Des": 7929,
      "Ear": 7930,
      "Hard": 7931,
      "Oc": 7932,
      "Oreg": 7933,
      "Paul": 7934,
      "Temp": 7935,
      "TER": 7936,
      "Travel": 7937,
      "Tired": 7938,
      "ault": 7939,
      "aks": 7940,
      "battle": 7941,
      "bacco": 7942,
      "dots": 7943,
      "gf": 7944,
      "gative": 7945,
      "hs": 7946,
      "imb": 7947,
      "jail": 7948,
      "junk": 7949,
      "kli": 7950,
      "rant": 7951,
      "rare": 7952,
      "rab": 7953,
      "sour": 7954,
      "tour": 7955,
      "tbi": 7956,
      "uv": 7957,
      "thir": 7958,
      "thused": 7959,
      "thign": 7960,
      "erica": 7961,
      "inno": 7962,
      "influ": 7963,
      "reput": 7964,
      "recolle": 7965,
      "restraining": 7966,
      "atist": 7967,
      "tobacco": 7968,
      "eldest": 7969,
      "enthused": 7970,
      "theatre": 7971,
      "leap": 7972,
      "veg": 7973,
      "veget": 7974,
      "behalf": 7975,
      "sec": 7976,
      "seed": 7977,
      "heat": 7978,
      "format": 7979,
      "rig": 7980,
      "rice": 7981,
      "decade": 7982,
      "amond": 7983,
      "america": 7984,
      "canI": 7985,
      "nest": 7986,
      "ides": 7987,
      "acid": 7988,
      "acup": 7989,
      "presence": 7990,
      "anyhow": 7991,
      "friday": 7992,
      "ppl": 7993,
      "massive": 7994,
      "condo": 7995,
      "exten": 7996,
      "holistic": 7997,
      "unctu": 7998,
      "oker": 7999
    },
    "merges": [
      [
        "t",
        "h"
      ],
      [
        "a",
        "n"
      ],
      [
        "e",
        "r"
      ],
      [
        "o",
        "u"
      ],
      [
        "i",
        "n"
      ],
      [
        "s",
        "t"
      ],
      [
        "r",
        "e"
      ],
      [
        "a",
        "t"
      ],
      [
        "o",
        "n"
      ],
      [
        "s",
        "s"
      ],
      [
        "in",
        "g"
      ],
      [
        "y",
        "ou"
      ],
      [
        "t",
        "o"
      ],
      [
        "an",
        "t"
      ],
      [
        "ss",
        "i"
      ],
      [
        "s",
        "er"
      ],
      [
        "e",
        "l"
      ],
      [
        "U",
        "ser"
      ],
      [
        "m",
        "e"
      ],
      [
        "ssi",
        "st"
      ],
      [
        "ssist",
        "ant"
      ],
      [
        "A",
        "ssistant"
      ],
      [
        "o",
        "r"
      ],
      [
        "e",
        "n"
      ],
      [
        "a",
        "l"
      ],
      [
        "i",
        "s"
      ],
      [
        "th",
        "e"
      ],
      [
        "i",
        "t"
      ],
      [
        "an",
        "d"
      ],
      [
        "h",
        "a"
      ],
      [
        "l",
        "e"
      ],
      [
        "v",
        "e"
      ],
      [
        "b",
        "e"
      ],
      [
        "o",
        "w"
      ],
      [
        "th",
        "at"
      ],
      [
        "e",
        "d"
      ],
      [
        "a",
        "r"
      ],
      [
        "o",
        "t"
      ],
      [
        "a",
        "y"
      ],
      [
        "s",
        "o"
      ],
      [
        "w",
        "i"
      ],
      [
        "s",
        "e"
      ],
      [
        "i",
        "on"
      ],
      [
        "a",
        "re"
      ],
      [
        "l",
        "y"
      ],
      [
        "o",
        "f"
      ],
      [
        "f",
        "e"
      ],
      [
        "h",
        "e"
      ],
      [
        "r",
        "o"
      ],
      [
        "k",
        "e"
      ],
      [
        "a",
        "s"
      ],
      [
        "f",
        "or"
      ],
      [
        "l",
        "i"
      ],
      [
        "m",
        "y"
      ],
      [
        "r",
        "i"
      ],
      [
        "ha",
        "ve"
      ],
      [
        "d",
        "o"
      ],
      [
        "e",
        "s"
      ],
      [
        "w",
        "h"
      ],
      [
        "ou",
        "t"
      ],
      [
        "g",
        "h"
      ],
      [
        "d",
        "e"
      ],
      [
        "u",
        "t"
      ],
      [
        "th",
        "er"
      ],
      [
        "wi",
        "th"
      ],
      [
        "a",
        "m"
      ],
      [
        "g",
        "o"
      ],
      [
        "a",
        "b"
      ],
      [
        "c",
        "h"
      ],
      [
        "l",
        "o"
      ],
      [
        "g",
        "e"
      ],
      [
        "v",
        "er"
      ],
      [
        "l",
        "d"
      ],
      [
        "fe",
        "el"
      ],
      [
        "c",
        "an"
      ],
      [
        "t",
        "r"
      ],
      [
        "you",
        "r"
      ],
      [
        "t",
        "i"
      ],
      [
        "n",
        "e"
      ],
      [
        "i",
        "c"
      ],
      [
        "n",
        "ot"
      ],
      [
        "th",
        "ing"
      ],
      [
        "a",
        "d"
      ],
      [
        "ou",
        "ld"
      ],
      [
        "l",
        "l"
      ],
      [
        "i",
        "d"
      ],
      [
        "n",
        "d"
      ],
      [
        "on",
        "e"
      ],
      [
        "u",
        "st"
      ],
      [
        "n",
        "ow"
      ],
      [
        "a",
        "c"
      ],
      [
        "b",
        "ut"
      ],
      [
        "al",
        "ly"
      ],
      [
        "b",
        "le"
      ],
      [
        "s",
        "u"
      ],
      [
        "en",
        "d"
      ],
      [
        "w",
        "or"
      ],
      [
        "gh",
        "t"
      ],
      [
        "h",
        "el"
      ],
      [
        "c",
        "o"
      ],
      [
        "at",
        "e"
      ],
      [
        "so",
        "me"
      ],
      [
        "p",
        "e"
      ],
      [
        "ab",
        "out"
      ],
      [
        "li",
        "ke"
      ],
      [
        "ti",
        "me"
      ],
      [
        "p",
        "re"
      ],
      [
        "hel",
        "p"
      ],
      [
        "m",
        "o"
      ],
      [
        "T",
        "h"
      ],
      [
        "ble",
        "m"
      ],
      [
        "ro",
        "blem"
      ],
      [
        "an",
        "y"
      ],
      [
        "th",
        "is"
      ],
      [
        "at",
        "ion"
      ],
      [
        "h",
        "ow"
      ],
      [
        "i",
        "f"
      ],
      [
        "o",
        "d"
      ],
      [
        "ge",
        "t"
      ],
      [
        "in",
        "k"
      ],
      [
        "d",
        "ay"
      ],
      [
        "u",
        "p"
      ],
      [
        "f",
        "ri"
      ],
      [
        "ver",
        "y"
      ],
      [
        "fri",
        "end"
      ],
      [
        "j",
        "ust"
      ],
      [
        "el",
        "l"
      ],
      [
        "t",
        "er"
      ],
      [
        "p",
        "p"
      ],
      [
        "m",
        "ot"
      ],
      [
        "I",
        "t"
      ],
      [
        "th",
        "ink"
      ],
      [
        "c",
        "e"
      ],
      [
        "m",
        "a"
      ],
      [
        "al",
        "l"
      ],
      [
        "j",
        "o"
      ],
      [
        "n",
        "t"
      ],
      [
        "w",
        "as"
      ],
      [
        ".",
        "."
      ],
      [
        "ther",
        "e"
      ],
      [
        "h",
        "i"
      ],
      [
        "w",
        "e"
      ],
      [
        "k",
        "ing"
      ],
      [
        "k",
        "now"
      ],
      [
        "h",
        "er"
      ],
      [
        "mot",
        "ion"
      ],
      [
        "wi",
        "ll"
      ],
      [
        "i",
        "r"
      ],
      [
        "g",
        "y"
      ],
      [
        "be",
        "en"
      ],
      [
        "wh",
        "at"
      ],
      [
        "in",
        "d"
      ],
      [
        "P",
        "roblem"
      ],
      [
        "o",
        "p"
      ],
      [
        "R",
        "E"
      ],
      [
        "tr",
        "ate"
      ],
      [
        "ou",
        "gh"
      ],
      [
        "O",
        "N"
      ],
      [
        "u",
        "l"
      ],
      [
        "jo",
        "b"
      ],
      [
        "S",
        "E"
      ],
      [
        "ar",
        "t"
      ],
      [
        "S",
        "P"
      ],
      [
        "S",
        "trate"
      ],
      [
        "E",
        "motion"
      ],
      [
        "RE",
        "SP"
      ],
      [
        "ON",
        "SE"
      ],
      [
        "Strate",
        "gy"
      ],
      [
        "RESP",
        "ONSE"
      ],
      [
        "w",
        "ay"
      ],
      [
        "u",
        "r"
      ],
      [
        "d",
        "on"
      ],
      [
        "re",
        "ally"
      ],
      [
        "wor",
        "k"
      ],
      [
        "de",
        "pre"
      ],
      [
        "c",
        "on"
      ],
      [
        "go",
        "od"
      ],
      [
        "u",
        "s"
      ],
      [
        "feel",
        "ing"
      ],
      [
        "e",
        "x"
      ],
      [
        "u",
        "e"
      ],
      [
        "se",
        "e"
      ],
      [
        "go",
        "ing"
      ],
      [
        "r",
        "y"
      ],
      [
        "c",
        "a"
      ],
      [
        "h",
        "o"
      ],
      [
        "the",
        "y"
      ],
      [
        "e",
        "t"
      ],
      [
        "w",
        "ould"
      ],
      [
        "m",
        "p"
      ],
      [
        "ou",
        "nd"
      ],
      [
        "t",
        "al"
      ],
      [
        "ssi",
        "on"
      ],
      [
        "s",
        "el"
      ],
      [
        "u",
        "se"
      ],
      [
        "o",
        "ther"
      ],
      [
        "W",
        "h"
      ],
      [
        "ha",
        "r"
      ],
      [
        "Th",
        "at"
      ],
      [
        "u",
        "n"
      ],
      [
        "t",
        "a"
      ],
      [
        "tr",
        "y"
      ],
      [
        "p",
        "er"
      ],
      [
        "en",
        "t"
      ],
      [
        "c",
        "t"
      ],
      [
        "o",
        "k"
      ],
      [
        "s",
        "it"
      ],
      [
        "y",
        "e"
      ],
      [
        "w",
        "ant"
      ],
      [
        "ro",
        "m"
      ],
      [
        "u",
        "nd"
      ],
      [
        "sel",
        "f"
      ],
      [
        "H",
        "ow"
      ],
      [
        "depre",
        "ssion"
      ],
      [
        "friend",
        "s"
      ],
      [
        "s",
        "he"
      ],
      [
        "er",
        "e"
      ],
      [
        "n",
        "o"
      ],
      [
        "und",
        "er"
      ],
      [
        "ha",
        "s"
      ],
      [
        "har",
        "d"
      ],
      [
        "mo",
        "re"
      ],
      [
        "e",
        "p"
      ],
      [
        "st",
        "and"
      ],
      [
        "f",
        "rom"
      ],
      [
        "ou",
        "r"
      ],
      [
        "do",
        "ing"
      ],
      [
        "an",
        "k"
      ],
      [
        "m",
        "i"
      ],
      [
        "re",
        "a"
      ],
      [
        "me",
        "nt"
      ],
      [
        "to",
        "day"
      ],
      [
        "ca",
        "use"
      ],
      [
        "el",
        "y"
      ],
      [
        "tal",
        "k"
      ],
      [
        "under",
        "stand"
      ],
      [
        "op",
        "le"
      ],
      [
        "ri",
        "ght"
      ],
      [
        "H",
        "el"
      ],
      [
        "ma",
        "ke"
      ],
      [
        "Hel",
        "lo"
      ],
      [
        "the",
        "m"
      ],
      [
        "ab",
        "le"
      ],
      [
        "v",
        "en"
      ],
      [
        "wh",
        "en"
      ],
      [
        "pe",
        "ople"
      ],
      [
        "v",
        "ing"
      ],
      [
        "in",
        "e"
      ],
      [
        "Wh",
        "at"
      ],
      [
        "x",
        "i"
      ],
      [
        "Y",
        "es"
      ],
      [
        "Y",
        "ou"
      ],
      [
        "to",
        "o"
      ],
      [
        "t",
        "ing"
      ],
      [
        "s",
        "or"
      ],
      [
        "l",
        "a"
      ],
      [
        "thing",
        "s"
      ],
      [
        "an",
        "xi"
      ],
      [
        "i",
        "de"
      ],
      [
        "he",
        "ar"
      ],
      [
        "ne",
        "ed"
      ],
      [
        "D",
        "o"
      ],
      [
        "be",
        "cause"
      ],
      [
        "g",
        "re"
      ],
      [
        "e",
        "a"
      ],
      [
        "ha",
        "d"
      ],
      [
        "c",
        "ould"
      ],
      [
        "i",
        "ve"
      ],
      [
        "d",
        "id"
      ],
      [
        "s",
        "a"
      ],
      [
        "hi",
        "m"
      ],
      [
        "p",
        "o"
      ],
      [
        "w",
        "ell"
      ],
      [
        "s",
        "h"
      ],
      [
        "f",
        "ul"
      ],
      [
        "su",
        "re"
      ],
      [
        "on",
        "g"
      ],
      [
        "ye",
        "ar"
      ],
      [
        "s",
        "ad"
      ],
      [
        "ow",
        "n"
      ],
      [
        "f",
        "o"
      ],
      [
        "p",
        "art"
      ],
      [
        "ha",
        "pp"
      ],
      [
        "st",
        "ion"
      ],
      [
        "a",
        "ve"
      ],
      [
        "m",
        "u"
      ],
      [
        "l",
        "ot"
      ],
      [
        "ac",
        "t"
      ],
      [
        "S",
        "o"
      ],
      [
        "a",
        "f"
      ],
      [
        "sor",
        "ry"
      ],
      [
        "H",
        "i"
      ],
      [
        "c",
        "i"
      ],
      [
        "be",
        "t"
      ],
      [
        "or",
        "t"
      ],
      [
        "b",
        "o"
      ],
      [
        "mu",
        "ch"
      ],
      [
        "u",
        "re"
      ],
      [
        "b",
        "rea"
      ],
      [
        "f",
        "ind"
      ],
      [
        "m",
        "ay"
      ],
      [
        "p",
        "roblem"
      ],
      [
        "et",
        "y"
      ],
      [
        "i",
        "ly"
      ],
      [
        "i",
        "ll"
      ],
      [
        "ri",
        "ed"
      ],
      [
        "re",
        "ss"
      ],
      [
        "p",
        "l"
      ],
      [
        "anxi",
        "ety"
      ],
      [
        "e",
        "very"
      ],
      [
        "s",
        "ound"
      ],
      [
        "time",
        "s"
      ],
      [
        "u",
        "ation"
      ],
      [
        "r",
        "ough"
      ],
      [
        "p",
        "a"
      ],
      [
        "T",
        "he"
      ],
      [
        "ta",
        "ke"
      ],
      [
        "d",
        "i"
      ],
      [
        "bet",
        "ter"
      ],
      [
        "sit",
        "uation"
      ],
      [
        "ac",
        "k"
      ],
      [
        "o",
        "l"
      ],
      [
        "o",
        "ver"
      ],
      [
        "e",
        "ven"
      ],
      [
        "st",
        "ress"
      ],
      [
        "co",
        "m"
      ],
      [
        "m",
        "ic"
      ],
      [
        "brea",
        "k"
      ],
      [
        "n",
        "er"
      ],
      [
        "p",
        "ro"
      ],
      [
        "a",
        "g"
      ],
      [
        "s",
        "on"
      ],
      [
        "al",
        "so"
      ],
      [
        "ou",
        "s"
      ],
      [
        "li",
        "fe"
      ],
      [
        "d",
        "if"
      ],
      [
        "dif",
        "f"
      ],
      [
        "some",
        "thing"
      ],
      [
        "wh",
        "o"
      ],
      [
        "f",
        "am"
      ],
      [
        "g",
        "r"
      ],
      [
        "do",
        "es"
      ],
      [
        "an",
        "ce"
      ],
      [
        "co",
        "me"
      ],
      [
        "su",
        "pp"
      ],
      [
        "st",
        "r"
      ],
      [
        "sh",
        "ould"
      ],
      [
        "gre",
        "at"
      ],
      [
        "ic",
        "e"
      ],
      [
        "c",
        "r"
      ],
      [
        "H",
        "ave"
      ],
      [
        "fam",
        "ily"
      ],
      [
        "st",
        "art"
      ],
      [
        "y",
        "es"
      ],
      [
        "ne",
        "w"
      ],
      [
        "th",
        "rough"
      ],
      [
        "I",
        "s"
      ],
      [
        "f",
        "ir"
      ],
      [
        "an",
        "g"
      ],
      [
        "v",
        "id"
      ],
      [
        "d",
        "own"
      ],
      [
        "any",
        "thing"
      ],
      [
        "ne",
        "ss"
      ],
      [
        "t",
        "ell"
      ],
      [
        "sound",
        "s"
      ],
      [
        "f",
        "in"
      ],
      [
        "s",
        "p"
      ],
      [
        "i",
        "l"
      ],
      [
        "ha",
        "ving"
      ],
      [
        "g",
        "ge"
      ],
      [
        "of",
        "f"
      ],
      [
        "ch",
        "o"
      ],
      [
        "l",
        "ong"
      ],
      [
        "co",
        "mp"
      ],
      [
        "d",
        "is"
      ],
      [
        "be",
        "ing"
      ],
      [
        "wh",
        "i"
      ],
      [
        "Th",
        "ank"
      ],
      [
        "M",
        "y"
      ],
      [
        "a",
        "p"
      ],
      [
        "c",
        "are"
      ],
      [
        "per",
        "son"
      ],
      [
        "s",
        "i"
      ],
      [
        "q",
        "u"
      ],
      [
        "c",
        "k"
      ],
      [
        "b",
        "ack"
      ],
      [
        "way",
        "s"
      ],
      [
        "at",
        "ed"
      ],
      [
        "le",
        "t"
      ],
      [
        "..",
        "."
      ],
      [
        "some",
        "one"
      ],
      [
        "s",
        "ay"
      ],
      [
        "b",
        "y"
      ],
      [
        "B",
        "ut"
      ],
      [
        "mi",
        "ght"
      ],
      [
        "my",
        "self"
      ],
      [
        "see",
        "m"
      ],
      [
        "a",
        "in"
      ],
      [
        "it",
        "s"
      ],
      [
        "ation",
        "s"
      ],
      [
        "part",
        "ner"
      ],
      [
        "c",
        "lo"
      ],
      [
        "i",
        "ght"
      ],
      [
        "t",
        "y"
      ],
      [
        "happ",
        "en"
      ],
      [
        "th",
        "ank"
      ],
      [
        "get",
        "ting"
      ],
      [
        "a",
        "ge"
      ],
      [
        "re",
        "l"
      ],
      [
        "e",
        "st"
      ],
      [
        "i",
        "es"
      ],
      [
        "be",
        "st"
      ],
      [
        "st",
        "ill"
      ],
      [
        "s",
        "pe"
      ],
      [
        "on",
        "going"
      ],
      [
        "ke",
        "ep"
      ],
      [
        "st",
        "u"
      ],
      [
        "i",
        "e"
      ],
      [
        "at",
        "ing"
      ],
      [
        "fo",
        "re"
      ],
      [
        "w",
        "ere"
      ],
      [
        "sad",
        "ness"
      ],
      [
        "ou",
        "ght"
      ],
      [
        "ho",
        "me"
      ],
      [
        "H",
        "e"
      ],
      [
        "b",
        "ad"
      ],
      [
        "th",
        "en"
      ],
      [
        "af",
        "ter"
      ],
      [
        "year",
        "s"
      ],
      [
        "th",
        "ough"
      ],
      [
        "ul",
        "t"
      ],
      [
        "le",
        "a"
      ],
      [
        "hi",
        "p"
      ],
      [
        "ss",
        "ed"
      ],
      [
        "f",
        "a"
      ],
      [
        "m",
        "ind"
      ],
      [
        "m",
        "ation"
      ],
      [
        "ue",
        "stion"
      ],
      [
        "break",
        "up"
      ],
      [
        "g",
        "ot"
      ],
      [
        "l",
        "it"
      ],
      [
        "sa",
        "me"
      ],
      [
        "your",
        "self"
      ],
      [
        "and",
        "e"
      ],
      [
        "ande",
        "mic"
      ],
      [
        "t",
        "ried"
      ],
      [
        "feeling",
        "s"
      ],
      [
        "p",
        "andemic"
      ],
      [
        "lo",
        "ve"
      ],
      [
        "be",
        "fore"
      ],
      [
        "try",
        "ing"
      ],
      [
        "al",
        "ways"
      ],
      [
        "cho",
        "ol"
      ],
      [
        "on",
        "ly"
      ],
      [
        "her",
        "e"
      ],
      [
        "A",
        "nd"
      ],
      [
        "re",
        "ad"
      ],
      [
        "p",
        "r"
      ],
      [
        "ac",
        "e"
      ],
      [
        "ho",
        "pe"
      ],
      [
        "gge",
        "stion"
      ],
      [
        "supp",
        "ort"
      ],
      [
        "o",
        "se"
      ],
      [
        "ar",
        "d"
      ],
      [
        "wh",
        "ere"
      ],
      [
        "me",
        "d"
      ],
      [
        "diff",
        "ic"
      ],
      [
        "i",
        "g"
      ],
      [
        "th",
        "ought"
      ],
      [
        "s",
        "chool"
      ],
      [
        "m",
        "on"
      ],
      [
        "t",
        "le"
      ],
      [
        "e",
        "f"
      ],
      [
        "as",
        "k"
      ],
      [
        "M",
        "ay"
      ],
      [
        "g",
        "ive"
      ],
      [
        "c",
        "er"
      ],
      [
        "cr",
        "is"
      ],
      [
        "er",
        "s"
      ],
      [
        "h",
        "is"
      ],
      [
        "cris",
        "is"
      ],
      [
        "mo",
        "st"
      ],
      [
        "problem",
        "s"
      ],
      [
        "it",
        "y"
      ],
      [
        "ne",
        "ver"
      ],
      [
        "i",
        "ss"
      ],
      [
        "le",
        "ep"
      ],
      [
        "ide",
        "a"
      ],
      [
        "c",
        "ou"
      ],
      [
        "may",
        "be"
      ],
      [
        "diffic",
        "ult"
      ],
      [
        "in",
        "to"
      ],
      [
        "se",
        "t"
      ],
      [
        "e",
        "k"
      ],
      [
        "l",
        "ine"
      ],
      [
        "th",
        "an"
      ],
      [
        "p",
        "are"
      ],
      [
        "c",
        "he"
      ],
      [
        "m",
        "an"
      ],
      [
        "we",
        "ek"
      ],
      [
        "wh",
        "y"
      ],
      [
        "pre",
        "ss"
      ],
      [
        "e",
        "ver"
      ],
      [
        "ggestion",
        "s"
      ],
      [
        "m",
        "b"
      ],
      [
        "N",
        "o"
      ],
      [
        "u",
        "ally"
      ],
      [
        "O",
        "h"
      ],
      [
        "m",
        "any"
      ],
      [
        "lit",
        "tle"
      ],
      [
        "lo",
        "ok"
      ],
      [
        "li",
        "ve"
      ],
      [
        "S",
        "he"
      ],
      [
        "Q",
        "uestion"
      ],
      [
        "W",
        "ell"
      ],
      [
        "is",
        "h"
      ],
      [
        "b",
        "it"
      ],
      [
        "g",
        "l"
      ],
      [
        "A",
        "re"
      ],
      [
        "the",
        "ir"
      ],
      [
        "W",
        "e"
      ],
      [
        "p",
        "s"
      ],
      [
        "it",
        "e"
      ],
      [
        "a",
        "pp"
      ],
      [
        "con",
        "t"
      ],
      [
        "po",
        "sit"
      ],
      [
        "May",
        "be"
      ],
      [
        "i",
        "m"
      ],
      [
        "I",
        "f"
      ],
      [
        "i",
        "mp"
      ],
      [
        "in",
        "ter"
      ],
      [
        "in",
        "ce"
      ],
      [
        "w",
        "on"
      ],
      [
        "Y",
        "ea"
      ],
      [
        "el",
        "se"
      ],
      [
        "n",
        "ing"
      ],
      [
        "k",
        "ind"
      ],
      [
        "rel",
        "ations"
      ],
      [
        "re",
        "d"
      ],
      [
        "ther",
        "s"
      ],
      [
        "relations",
        "hip"
      ],
      [
        "s",
        "leep"
      ],
      [
        "c",
        "our"
      ],
      [
        "ad",
        "v"
      ],
      [
        "st",
        "ay"
      ],
      [
        "li",
        "st"
      ],
      [
        "O",
        "thers"
      ],
      [
        "happ",
        "y"
      ],
      [
        "u",
        "g"
      ],
      [
        "make",
        "s"
      ],
      [
        "day",
        "s"
      ],
      [
        "to",
        "ge"
      ],
      [
        "toge",
        "ther"
      ],
      [
        "mon",
        "th"
      ],
      [
        "depre",
        "ssed"
      ],
      [
        "wor",
        "king"
      ],
      [
        "en",
        "ce"
      ],
      [
        "f",
        "r"
      ],
      [
        "ag",
        "ain"
      ],
      [
        "ok",
        "ay"
      ],
      [
        "k",
        "id"
      ],
      [
        "P",
        "ro"
      ],
      [
        "w",
        "o"
      ],
      [
        "b",
        "r"
      ],
      [
        "p",
        "ut"
      ],
      [
        "h",
        "one"
      ],
      [
        "le",
        "ar"
      ],
      [
        "us",
        "ed"
      ],
      [
        "o",
        "king"
      ],
      [
        "The",
        "y"
      ],
      [
        "fir",
        "st"
      ],
      [
        "A",
        "f"
      ],
      [
        "tal",
        "king"
      ],
      [
        "for",
        "t"
      ],
      [
        "on",
        "line"
      ],
      [
        "Yea",
        "h"
      ],
      [
        "seem",
        "s"
      ],
      [
        "fin",
        "it"
      ],
      [
        "per",
        "i"
      ],
      [
        "some",
        "times"
      ],
      [
        "c",
        "la"
      ],
      [
        "mo",
        "ve"
      ],
      [
        "w",
        "r"
      ],
      [
        "whi",
        "le"
      ],
      [
        "pare",
        "nt"
      ],
      [
        "ma",
        "king"
      ],
      [
        "i",
        "ld"
      ],
      [
        "finit",
        "ely"
      ],
      [
        "t",
        "en"
      ],
      [
        "ar",
        "ound"
      ],
      [
        "press",
        "ure"
      ],
      [
        "he",
        "al"
      ],
      [
        "s",
        "ince"
      ],
      [
        "c",
        "al"
      ],
      [
        "fe",
        "ar"
      ],
      [
        "de",
        "al"
      ],
      [
        "ion",
        "s"
      ],
      [
        "every",
        "thing"
      ],
      [
        "ci",
        "al"
      ],
      [
        "s",
        "ha"
      ],
      [
        "g",
        "u"
      ],
      [
        "a",
        "de"
      ],
      [
        "ss",
        "ur"
      ],
      [
        "as",
        "on"
      ],
      [
        "vid",
        "ing"
      ],
      [
        "u",
        "es"
      ],
      [
        "lo",
        "oking"
      ],
      [
        "b",
        "el"
      ],
      [
        "ea",
        "ch"
      ],
      [
        "in",
        "t"
      ],
      [
        "a",
        "way"
      ],
      [
        "ssur",
        "ance"
      ],
      [
        "s",
        "id"
      ],
      [
        "r",
        "a"
      ],
      [
        "fir",
        "mation"
      ],
      [
        "la",
        "st"
      ],
      [
        "c",
        "all"
      ],
      [
        "me",
        "an"
      ],
      [
        "any",
        "one"
      ],
      [
        "S",
        "u"
      ],
      [
        "kid",
        "s"
      ],
      [
        "whi",
        "ch"
      ],
      [
        "ma",
[...]
