{
  "version": "1.0",
  "truncation": null,
  "padding": null,
  "added_tokens": [
    {
      "id": 0,
      "content": "[PAD]",
      "single_word": false,
      "lstrip": false,
      "rstrip": false,
      "normalized": false,
      "special": true
    },
    {
      "id": 1,
      "content": "[UNK]",
      "single_word": false,
      "lstrip": false,
      "rstrip": false,
      "normalized": false,
      "special": true
    },
    {
      "id": 2,
      "content": "[BOS]",
      "single_word": false,
      "lstrip": false,
      "rstrip": false,
      "normalized": false,
      "special": true
    },
    {
      "id": 3,
      "content": "[EOS]",
      "single_word": false,
      "lstrip": false,
      "rstrip": false,
      "normalized": false,
      "special": true
    },
    {
      "id": 4,
      "content": "<RESPONSE>",
      "single_word": false,
      "lstrip": false,
      "rstrip": false,
      "normalized": false,
      "special": true
    },
    {
      "id": 5,
      "content": "User:",
      "single_word": false,
      "lstrip": false,
      "rstrip": false,
      "normalized": false,
      "special": true
    },
    {
      "id": 6,
      "content": "Assistant:",
      "single_word": false,
      "lstrip": false,
      "rstrip": false,
      "normalized": false,
      "special": true
    },
    {
      "id": 7,
      "content": "Emotion:",
      "single_word": false,
      "lstrip": false,
      "rstrip": false,
      "normalized": false,
      "special": true
    },
    {
      "id": 8,
      "content": "Problem:",
      "single_word": false,
      "lstrip": false,
      "rstrip": false,
      "normalized": false,
      "special": true
    },
    {
      "id": 9,
      "content": "Strategy:",
      "single_word": false,
      "lstrip": false,
      "rstrip": false,
      "normalized": false,
      "special": true
    }
  ],
  "normalizer": {
    "type": "Sequence",
    "normalizers": [
      {
        "type": "NFD"
      },
      {
        "type": "StripAccents"
      }
    ]
  },
  "pre_tokenizer": {
    "type": "Sequence",
    "pretokenizers": [
      {
        "type": "Whitespace"
      },
      {
        "type": "Punctuation",
        "behavior": "Isolated"
      }
    ]
  },
  "post_processor": null,
  "decoder": null,
  "model": {
    "type": "BPE",
    "dropout": null,
    "unk_token": "[UNK]",
    "continuing_subword_prefix": null,
    "end_of_word_suffix": null,
    "fuse_unk": false,
    "byte_fallback": false,
    "ignore_merges": false,
    "vocab": {
      "[PAD]": 0,
      "[UNK]": 1,
      "[BOS]": 2,
      "[EOS]": 3,
      "<RESPONSE>": 4,
      "User:": 5,
      "Assistant:": 6,
      "Emotion:": 7,
      "Problem:": 8,
      "Strategy:": 9,
      "!": 10,
      "\"": 11,
      "#": 12,
      "$": 13,
      "%": 14,
      "&": 15,
      "'": 16,
      "(": 17,
      ")": 18,
      "*": 19,
      "+": 20,
      ",": 21,
      "-": 22,
      ".": 23,
      "/": 24,
      "0": 25,
      "1": 26,
      "2": 27,
      "3": 28,
      "4": 29,
      "5": 30,
      "6": 31,
      "7": 32,
      "8": 33,
      "9": 34,
      ":": 35,
      ";": 36,
      "<": 37,
      "=": 38,
      ">": 39,
      "?": 40,
      "@": 41,
      "A": 42,
      "B": 43,
      "C": 44,
      "D": 45,
      "E": 46,
      "F": 47,
      "G": 48,
      "H": 49,
      "I": 50,
      "J": 51,
      "K": 52,
      "L": 53,
      "M": 54,
      "N": 55,
      "O": 56,
      "P": 57,
      "Q": 58,
      "R": 59,
      "S": 60,
      "T": 61,
      "U": 62,
      "V": 63,
      "W": 64,
      "X": 65,
      "Y": 66,
      "Z": 67,
      "[": 68,
      "\\": 69,
      "]": 70,
      "^": 71,
      "_": 72,
      "`": 73,
      "a": 74,
      "b": 75,
      "c": 76,
      "d": 77,
      "e": 78,
      "f": 79,
      "g": 80,
      "h": 81,
      "i": 82,
      "j": 83,
      "k": 84,
      "l": 85,
      "m": 86,
      "n": 87,
      "o": 88,
      "p": 89,
      "q": 90,
      "r": 91,
      "s": 92,
      "t": 93,
      "u": 94,
      "v": 95,
      "w": 96,
      "x": 97,
      "y": 98,
      "z": 99,
      "{": 100,
      "|": 101,
      "}": 102,
      "~": 103,
      "¡": 104,
      "£": 105,
      "·": 106,
      "¿": 107,
      "​": 108,
      "–": 109,
      "—": 110,
      "‘": 111,
      "’": 112,
      "“": 113,
      "”": 114,
      "…": 115,
      "™": 116,
      "▶": 117,
      "⛓": 118,
      "✨": 119,
      "明": 120,
      "朝": 121,
      "Ｍ": 122,
      "Ｓ": 123,
      "🍆": 124,
      "🍔": 125,
      "🍗": 126,
      "🍟": 127,
      "🍩": 128,
      "🍰": 129,
      "🍸": 130,
      "🍻": 131,
      "🏽": 132,
      "👌": 133,
      "👏": 134,
      "💊": 135,
      "💕": 136,
      "📚": 137,
      "📺": 138,
      "🔗": 139,
      "🕊": 140,
      "😃": 141,
      "😊": 142,
      "😒": 143,
      "😢": 144,
      "🙀": 145,
      "🙌": 146,
      "🙏": 147,
      "🚬": 148,
      "🛏": 149,
      "🤗": 150,
      "🤪": 151,
      "🦅": 152,
      "th": 153,
      "an": 154,
      "er": 155,
      "in": 156,
      "ou": 157,
      "st": 158,
      "at": 159,
      "on": 160,
      "re": 161,
      "ing": 162,
      "to": 163,
      "ss": 164,
      "you": 165,
      "en": 166,
      "or": 167,
      "ant": 168,
      "ssi": 169,
      "me": 170,
      "ser": 171,
      "the": 172,
      "le": 173,
      "User": 174,
      "stant": 175,
      "ssistant": 176,
      "Assistant": 177,
      "al": 178,
      "el": 179,
      "it": 180,
      "is": 181,
      "and": 182,
      "ha": 183,
      "ed": 184,
      "ot": 185,
      "ve": 186,
      "be": 187,
      "ro": 188,
      "ar": 189,
      "ion": 190,
      "as": 191,
      "ow": 192,
      "ay": 193,
      "that": 194,
      "so": 195,
      "tr": 196,
      "my": 197,
      "co": 198,
      "ly": 199,
      "he": 200,
      "of": 201,
      "wi": 202,
      "se": 203,
      "ble": 204,
      "ma": 205,
      "for": 206,
      "are": 207,
      "ate": 208,
      "wh": 209,
      "fe": 210,
      "id": 211,
      "ke": 212,
      "gh": 213,
      "li": 214,
      "out": 215,
      "ri": 216,
      "do": 217,
      "ch": 218,
      "com": 219,
      "have": 220,
      "go": 221,
      "roble": 222,
      "roblem": 223,
      "ther": 224,
      "em": 225,
      "es": 226,
      "ver": 227,
      "am": 228,
      "ld": 229,
      "ut": 230,
      "ge": 231,
      "otion": 232,
      "with": 233,
      "was": 234,
      "gy": 235,
      "motion": 236,
      "ti": 237,
      "Problem": 238,
      "RE": 239,
      "trate": 240,
      "ON": 241,
      "SE": 242,
      "SP": 243,
      "Emotion": 244,
      "Strate": 245,
      "Strategy": 246,
      "RESP": 247,
      "ONSE": 248,
      "RESPONSE": 249,
      "lo": 250,
      "pa": 251,
      "ne": 252,
      "ad": 253,
      "ic": 254,
      "your": 255,
      "can": 256,
      "one": 257,
      "su": 258,
      "comma": 259,
      "ac": 260,
      "feel": 261,
      "ent": 262,
      "end": 263,
      "ust": 264,
      "ll": 265,
      "pe": 266,
      "ab": 267,
      "ght": 268,
      "ally": 269,
      "de": 270,
      "ould": 271,
      "some": 272,
      "pp": 273,
      "thing": 274,
      "thy": 275,
      "not": 276,
      "wor": 277,
      "now": 278,
      "nd": 279,
      "empa": 280,
      "Th": 281,
      "empathy": 282,
      "mo": 283,
      "but": 284,
      "time": 285,
      "we": 286,
      "about": 287,
      "od": 288,
      "day": 289,
      "get": 290,
      "like": 291,
      "ir": 292,
      "ter": 293,
      "pre": 294,
      "this": 295,
      "ce": 296,
      "It": 297,
      "fri": 298,
      "all": 299,
      "ation": 300,
      "very": 301,
      "up": 302,
      "friend": 303,
      "ho": 304,
      "hi": 305,
      "any": 306,
      "king": 307,
      "hel": 308,
      "ul": 309,
      "if": 310,
      "just": 311,
      "how": 312,
      "her": 313,
      "ell": 314,
      "help": 315,
      "way": 316,
      "ex": 317,
      "un": 318,
      "really": 319,
      "con": 320,
      "know": 321,
      "art": 322,
      "what": 323,
      "jo": 324,
      "ind": 325,
      "thin": 326,
      "ur": 327,
      "That": 328,
      "been": 329,
      "us": 330,
      "sel": 331,
      "will": 332,
      "ye": 333,
      "work": 334,
      "op": 335,
      "they": 336,
      "good": 337,
      "Wh": 338,
      "no": 339,
      "ough": 340,
      "there": 341,
      "when": 342,
      "ound": 343,
      "think": 344,
      "au": 345,
      "going": 346,
      "don": 347,
      "ry": 348,
      "did": 349,
      "ta": 350,
      "ie": 351,
      "had": 352,
      "ere": 353,
      "would": 354,
      "other": 355,
      "per": 356,
      "ty": 357,
      "My": 358,
      "la": 359,
      "rom": 360,
      "she": 361,
      "ok": 362,
      "job": 363,
      "ful": 364,
      "ue": 365,
      "ct": 366,
      "want": 367,
      "from": 368,
      "feeling": 369,
      "self": 370,
      "happ": 371,
      "our": 372,
      "ea": 373,
      "ight": 374,
      "har": 375,
      "ting": 376,
      "them": 377,
      "him": 378,
      "What": 379,
      "sa": 380,
      "ving": 381,
      "ort": 382,
      "ous": 383,
      "gre": 384,
      "pl": 385,
      "tal": 386,
      "ep": 387,
      "try": 388,
      "year": 389,
      "ol": 390,
      "more": 391,
      "cau": 392,
      "ople": 393,
      "make": 394,
      "has": 395,
      "sit": 396,
      "depre": 397,
      "ment": 398,
      "ong": 399,
      "ssion": 400,
      "ra": 401,
      "im": 402,
      "see": 403,
      "too": 404,
      "ven": 405,
      "ely": 406,
      "people": 407,
      "How": 408,
      "got": 409,
      "cause": 410,
      "friends": 411,
      "fo": 412,
      "ive": 413,
      "af": 414,
      "und": 415,
      "hard": 416,
      "new": 417,
      "The": 418,
      "ine": 419,
      "po": 420,
      "today": 421,
      "pro": 422,
      "You": 423,
      "ack": 424,
      "bo": 425,
      "could": 426,
      "right": 427,
      "sh": 428,
      "need": 429,
      "ck": 430,
      "under": 431,
      "wee": 432,
      "hear": 433,
      "because": 434,
      "sure": 435,
      "nt": 436,
      "il": 437,
      "ank": 438,
      "well": 439,
      "lot": 440,
      "stand": 441,
      "ssed": 442,
      "things": 443,
      "own": 444,
      "ill": 445,
      "bet": 446,
      "mu": 447,
      "anx": 448,
      "rea": 449,
      "doing": 450,
      "So": 451,
      "part": 452,
      "every": 453,
      "ily": 454,
      "week": 455,
      "able": 456,
      "ice": 457,
      "gr": 458,
      "much": 459,
      "depression": 460,
      "ag": 461,
      "over": 462,
      "talk": 463,
      "understand": 464,
      "act": 465,
      "sad": 466,
      "son": 467,
      "ci": 468,
      "orry": 469,
      "Yes": 470,
      "cou": 471,
      "great": 472,
      "cho": 473,
      "Do": 474,
      "ave": 475,
      "who": 476,
      "supp": 477,
      "ist": 478,
      "car": 479,
      "back": 480,
      "dis": 481,
      "may": 482,
      "ner": 483,
      "times": 484,
      "ways": 485,
      "pr": 486,
      "ang": 487,
      "life": 488,
      "find": 489,
      "ure": 490,
      "hope": 491,
      "take": 492,
      "Oh": 493,
      "sorry": 494,
      "ations": 495,
      "care": 496,
      "fam": 497,
      "ide": 498,
      "ied": 499,
      "off": 500,
      "fa": 501,
      "fir": 502,
      "app": 503,
      "sound": 504,
      "sp": 505,
      "start": 506,
      "ig": 507,
      "even": 508,
      "rough": 509,
      "something": 510,
      "by": 511,
      "Hel": 512,
      "family": 513,
      "ought": 514,
      "come": 515,
      "Hello": 516,
      "were": 517,
      "ated": 518,
      "better": 519,
      "whi": 520,
      "should": 521,
      "fin": 522,
      "bad": 523,
      "home": 524,
      "est": 525,
      "does": 526,
      "ies": 527,
      "happen": 528,
      "long": 529,
      "iety": 530,
      "He": 531,
      "someone": 532,
      "always": 533,
      "qu": 534,
      "stion": 535,
      "brea": 536,
      "ating": 537,
      "iss": 538,
      "let": 539,
      "pare": 540,
      "stre": 541,
      "ance": 542,
      "being": 543,
      "his": 544,
      "anxiety": 545,
      "rel": 546,
      "through": 547,
      "chool": 548,
      "dif": 549,
      "last": 550,
      "problem": 551,
      "diff": 552,
      "down": 553,
      "med": 554,
      "coun": 555,
      "hip": 556,
      "years": 557,
      "ap": 558,
      "also": 559,
      "sounds": 560,
      "school": 561,
      "ard": 562,
      "having": 563,
      "person": 564,
      "happy": 565,
      "ast": 566,
      "situ": 567,
      "support": 568,
      "Hi": 569,
      "best": 570,
      "read": 571,
      "never": 572,
      "fore": 573,
      "tell": 574,
      "om": 575,
      "still": 576,
      "after": 577,
      "love": 578,
      "say": 579,
      "ers": 580,
      "then": 581,
      "stu": 582,
      "getting": 583,
      "anything": 584,
      "myself": 585,
      "spe": 586,
      "ru": 587,
      "tle": 588,
      "first": 589,
      "ish": 590,
      "mon": 591,
      "kid": 592,
      "ame": 593,
      "ain": 594,
      "comp": 595,
      "ious": 596,
      "break": 597,
      "gu": 598,
      "Is": 599,
      "situation": 600,
      "lit": 601,
      "though": 602,
      "ace": 603,
      "ved": 604,
      "age": 605,
      "into": 606,
      "most": 607,
      "But": 608,
      "Have": 609,
      "cer": 610,
      "clo": 611,
      "thought": 612,
      "She": 613,
      "We": 614,
      "its": 615,
      "che": 616,
      "ite": 617,
      "bro": 618,
      "keep": 619,
      "int": 620,
      "ity": 621,
      "yourself": 622,
      "ness": 623,
      "yes": 624,
      "before": 625,
      "old": 626,
      "little": 627,
      "won": 628,
      "man": 629,
      "ning": 630,
      "their": 631,
      "where": 632,
      "ationship": 633,
      "dog": 634,
      "here": 635,
      "cont": 636,
      "might": 637,
      "relationship": 638,
      "inter": 639,
      "ose": 640,
      "led": 641,
      "didn": 642,
      "seem": 643,
      "irl": 644,
      "vid": 645,
      "sur": 646,
      "ever": 647,
      "girl": 648,
      "ild": 649,
      "wa": 650,
      "only": 651,
      "went": 652,
      "ple": 653,
      "set": 654,
      "mor": 655,
      "mb": 656,
      "Thank": 657,
      "ouse": 658,
      "than": 659,
      "kind": 660,
      "red": 661,
      "counsel": 662,
      "ask": 663,
      "emic": 664,
      "ick": 665,
      "Yea": 666,
      "many": 667,
      "ult": 668,
      "away": 669,
      "night": 670,
      "same": 671,
      "iz": 672,
      "They": 673,
      "et": 674,
      "mind": 675,
      "cent": 676,
      "look": 677,
      "If": 678,
      "thank": 679,
      "month": 680,
      "made": 681,
      "partner": 682,
      "give": 683,
      "nice": 684,
      "gge": 685,
      "trying": 686,
      "elt": 687,
      "cr": 688,
      "pret": 689,
      "row": 690,
      "der": 691,
      "while": 692,
      "bu": 693,
      "house": 694,
      "kids": 695,
      "Well": 696,
      "felt": 697,
      "used": 698,
      "oking": 699,
      "ence": 700,
      "gl": 701,
      "bel": 702,
      "live": 703,
      "stress": 704,
      "No": 705,
      "uestion": 706,
      "ince": 707,
      "ready": 708,
      "ried": 709,
      "pretty": 710,
      "why": 711,
      "child": 712,
      "exc": 713,
      "Did": 714,
      "tried": 715,
      "ef": 716,
      "feelings": 717,
      "Yeah": 718,
      "wait": 719,
      "parent": 720,
      "ually": 721,
      "around": 722,
      "May": 723,
      "found": 724,
      "When": 725,
      "Are": 726,
      "Some": 727,
      "leep": 728,
      "therap": 729,
      "bit": 730,
      "ase": 731,
      "put": 732,
      "br": 733,
      "oney": 734,
      "again": 735,
      "ten": 736,
      "nex": 737,
      "fr": 738,
      "And": 739,
      "joy": 740,
      "belie": 741,
      "ward": 742,
      "ited": 743,
      "money": 744,
      "ise": 745,
      "lear": 746,
      "counseling": 747,
      "makes": 748,
      "must": 749,
      "wal": 750,
      "looking": 751,
      "few": 752,
      "peri": 753,
      "ps": 754,
      "diffic": 755,
      "atch": 756,
      "wr": 757,
      "tur": 758,
      "fun": 759,
      "less": 760,
      "wo": 761,
      "bab": 762,
      "ph": 763,
      "stay": 764,
      "idea": 765,
      "aught": 766,
      "te": 767,
      "side": 768,
      "pay": 769,
      "stud": 770,
      "ago": 771,
      "working": 772,
      "trust": 773,
      "Maybe": 774,
      "There": 775,
      "plan": 776,
      "mation": 777,
      "everything": 778,
      "since": 779,
      "ft": 780,
      "days": 781,
      "mean": 782,
      "line": 783,
      "ason": 784,
      "lu": 785,
      "conf": 786,
      "each": 787,
      "parents": 788,
      "cal": 789,
      "gether": 790,
      "together": 791,
      "next": 792,
      "ongoing": 793,
      "mar": 794,
      "maybe": 795,
      "par": 796,
      "sadness": 797,
      "je": 798,
      "recent": 799,
      "use": 800,
      "sometimes": 801,
      "alone": 802,
      "difficult": 803,
      "heal": 804,
      "memb": 805,
      "believe": 806,
      "posit": 807,
      "boy": 808,
      "else": 809,
      "sleep": 810,
      "terri": 811,
      "those": 812,
      "these": 813,
      "experi": 814,
      "cial": 815,
      "fi": 816,
      "cour": 817,
      "cla": 818,
      "ned": 819,
      "which": 820,
      "pt": 821,
      "ster": 822,
      "ident": 823,
      "list": 824,
      "port": 825,
      "breakup": 826,
      "play": 827,
      "tre": 828,
      "lost": 829,
      "surpr": 830,
      "problems": 831,
      "done": 832,
      "big": 833,
      "ions": 834,
      "This": 835,
      "another": 836,
      "sto": 837,
      "okay": 838,
      "daught": 839,
      "recently": 840,
      "ues": 841,
      "andemic": 842,
      "band": 843,
      "ised": 844,
      "said": 845,
      "oud": 846,
      "col": 847,
      "deal": 848,
      "anxious": 849,
      "real": 850,
      "press": 851,
      "call": 852,
      "pandemic": 853,
      "ip": 854,
      "happened": 855,
      "vie": 856,
      "ggestion": 857,
      "enti": 858,
      "past": 859,
      "scare": 860,
      "ately": 861,
      "differ": 862,
      "talking": 863,
      "class": 864,
      "di": 865,
      "dec": 866,
      "ange": 867,
      "lon": 868,
      "doesn": 869,
      "angry": 870,
      "sha": 871,
      "coming": 872,
      "place": 873,
      "upset": 874,
      "comm": 875,
      "actually": 876,
      "making": 877,
      "cris": 878,
      "excited": 879,
      "In": 880,
      "mom": 881,
      "crisis": 882,
      "raid": 883,
      "hus": 884,
      "wife": 885,
      "gue": 886,
      "seems": 887,
      "bor": 888,
      "wanted": 889,
      "member": 890,
      "daughter": 891,
      "tor": 892,
      "afraid": 893,
      "husband": 894,
      "enough": 895,
      "rug": 896,
      "adv": 897,
      "cur": 898,
      "show": 899,
      "finit": 900,
      "yea": 901,
      "girlfriend": 902,
      "Go": 903,
      "anyone": 904,
      "fu": 905,
      "hur": 906,
      "sid": 907,
      "ts": 908,
      "two": 909,
      "fre": 910,
      "watch": 911,
      "fear": 912,
      "um": 913,
      "such": 914,
      "finitely": 915,
      "thers": 916,
      "orm": 917,
      "scared": 918,
      "ff": 919,
      "av": 920,
      "ggestions": 921,
      "close": 922,
      "cre": 923,
      "import": 924,
      "reason": 925,
      "miss": 926,
      "wish": 927,
      "told": 928,
      "saw": 929,
      "move": 930,
      "Af": 931,
      "taking": 932,
      "guess": 933,
      "ca": 934,
      "important": 935,
      "others": 936,
      "glad": 937,
      "everyone": 938,
      "pect": 939,
      "test": 940,
      "colle": 941,
      "ction": 942,
      "different": 943,
      "ys": 944,
      "uring": 945,
      "cially": 946,
      "sm": 947,
      "Question": 948,
      "surprised": 949,
      "tic": 950,
      "lonely": 951,
      "online": 952,
      "sing": 953,
      "emp": 954,
      "bar": 955,
      "proud": 956,
      "depressed": 957,
      "eas": 958,
      "emotion": 959,
      "least": 960,
      "took": 961,
      "cess": 962,
      "boyfriend": 963,
      "worried": 964,
      "listen": 965,
      "prepare": 966,
      "als": 967,
      "definitely": 968,
      "weekend": 969,
      "gi": 970,
      "started": 971,
      "change": 972,
      "left": 973,
      "room": 974,
      "months": 975,
      "thinking": 976,
      "appre": 977,
      "issues": 978,
      "vor": 979,
      "dri": 980,
      "min": 981,
      "ying": 982,
      "soon": 983,
      "walk": 984,
      "Pro": 985,
      "came": 986,
      "Why": 987,
      "high": 988,
      "sho": 989,
      "hate": 990,
      "ear": 991,
      "grad": 992,
      "anger": 993,
      "fort": 994,
      "exam": 995,
      "str": 996,
      "tive": 997,
      "therapist": 998,
      "dont": 999,
      "bus": 1000,
      "fect": 1001,
      "rent": 1002,
      "tough": 1003,
      "wesome": 1004,
      "Others": 1005,
      "once": 1006,
      "without": 1007,
      "nerv": 1008,
      "Just": 1009,
      "sol": 1010,
      "low": 1011,
      "enjoy": 1012,
      "both": 1013,
      "nervous": 1014,
      "sider": 1015,
      "hour": 1016,
      "Can": 1017,
      "Not": 1018,
      "cor": 1019,
      "Good": 1020,
      "game": 1021,
      "food": 1022,
      "remember": 1023,
      "during": 1024,
      "tain": 1025,
      "ens": 1026,
      "att": 1027,
      "pressure": 1028,
      "college": 1029,
      "ces": 1030,
      "brother": 1031,
      "haven": 1032,
      "mother": 1033,
      "Su": 1034,
      "fully": 1035,
      "Wow": 1036,
      "mental": 1037,
      "strug": 1038,
      "vers": 1039,
      "consider": 1040,
      "mat": 1041,
      "gust": 1042,
      "lol": 1043,
      "open": 1044,
      "hand": 1045,
      "moment": 1046,
      "anno": 1047,
      "gree": 1048,
      "vac": 1049,
      "add": 1050,
      "due": 1051,
      "iv": 1052,
      "worry": 1053,
      "ical": 1054,
      "luck": 1055,
      "onest": 1056,
      "frust": 1057,
      "cle": 1058,
      "norm": 1059,
      "awesome": 1060,
      "appo": 1061,
      "wonder": 1062,
      "disgust": 1063,
      "sist": 1064,
      "ger": 1065,
      "head": 1066,
      "oh": 1067,
      "interest": 1068,
      "cra": 1069,
      "ren": 1070,
      "helpful": 1071,
      "experience": 1072,
      "viding": 1073,
      "nothing": 1074,
      "aw": 1075,
      "bl": 1076,
      "bably": 1077,
      "yester": 1078,
      "wrong": 1079,
      "mm": 1080,
      "sim": 1081,
      "ary": 1082,
      "Sometimes": 1083,
      "yesterday": 1084,
      "dr": 1085,
      "prepared": 1086,
      "urance": 1087,
      "frustr": 1088,
      "exp": 1089,
      "vis": 1090,
      "possi": 1091,
      "ssurance": 1092,
      "rect": 1093,
      "rest": 1094,
      "positive": 1095,
      "firmation": 1096,
      "Thanks": 1097,
      "dist": 1098,
      "pu": 1099,
      "true": 1100,
      "view": 1101,
      "already": 1102,
      "vi": 1103,
      "ans": 1104,
      "quite": 1105,
      "ama": 1106,
      "igh": 1107,
      "ste": 1108,
      "expect": 1109,
      "dev": 1110,
      "appoint": 1111,
      "ach": 1112,
      "res": 1113,
      "helps": 1114,
      "ake": 1115,
      "yed": 1116,
      "grou": 1117,
      "broke": 1118,
      "stressed": 1119,
      "guil": 1120,
      "sed": 1121,
      "leave": 1122,
      "Suggestions": 1123,
      "Rea": 1124,
      "Affirmation": 1125,
      "Providing": 1126,
      "Reassurance": 1127,
      "vent": 1128,
      "scar": 1129,
      "confident": 1130,
      "concer": 1131,
      "cu": 1132,
      "ny": 1133,
      "cat": 1134,
      "almost": 1135,
      "pped": 1136,
      "ith": 1137,
      "ash": 1138,
      "yeah": 1139,
      "weeks": 1140,
      "til": 1141,
      "reach": 1142,
      "ual": 1143,
      "mi": 1144,
      "sk": 1145,
      "cked": 1146,
      "embar": 1147,
      "dad": 1148,
      "mad": 1149,
      "course": 1150,
      "fied": 1151,
      "ping": 1152,
      "advice": 1153,
      "bir": 1154,
      "wasn": 1155,
      "point": 1156,
      "feels": 1157,
      "ves": 1158,
      "iday": 1159,
      "ense": 1160,
      "cut": 1161,
      "ener": 1162,
      "health": 1163,
      "bed": 1164,
      "vide": 1165,
      "spend": 1166,
      "hu": 1167,
      "ically": 1168,
      "hurt": 1169,
      "using": 1170,
      "probably": 1171,
      "hol": 1172,
      "hello": 1173,
      "forward": 1174,
      "thats": 1175,
      "rist": 1176,
      "couple": 1177,
      "book": 1178,
      "ities": 1179,
      "mas": 1180,
      "complet": 1181,
      "honest": 1182,
      "current": 1183,
      "spon": 1184,
      "neigh": 1185,
      "order": 1186,
      "phone": 1187,
      "ody": 1188,
      "bring": 1189,
      "pecially": 1190,
      "spec": 1191,
      "lic": 1192,
      "until": 1193,
      "morning": 1194,
      "yet": 1195,
      "thanks": 1196,
      "ink": 1197,
      "normal": 1198,
      "grand": 1199,
      "les": 1200,
      "alous": 1201,
      "especially": 1202,
      "respon": 1203,
      "far": 1204,
      "jealous": 1205,
      "guilty": 1206,
      "scary": 1207,
      "helped": 1208,
      "embarra": 1209,
      "iness": 1210,
      "emplo": 1211,
      "outside": 1212,
      "Be": 1213,
      "terrible": 1214,
      "des": 1215,
      "ize": 1216,
      "neighbor": 1217,
      "ton": 1218,
      "youn": 1219,
      "acti": 1220,
      "issue": 1221,
      "usu": 1222,
      "iting": 1223,
      "meet": 1224,
      "ater": 1225,
      "guy": 1226,
      "inv": 1227,
      "10": 1228,
      "ctor": 1229,
      "Ok": 1230,
      "eng": 1231,
      "turn": 1232,
      "often": 1233,
      "ork": 1234,
      "question": 1235,
      "sister": 1236,
      "super": 1237,
      "stop": 1238,
      "table": 1239,
      "impre": 1240,
      "agree": 1241,
      "haps": 1242,
      "therapy": 1243,
      "Al": 1244,
      "Ho": 1245,
      "Ch": 1246,
      "Im": 1247,
      "step": 1248,
      "body": 1249,
      "fine": 1250,
      "isn": 1251,
      "birth": 1252,
      "20": 1253,
      "ont": 1254,
      "world": 1255,
      "amaz": 1256,
      "pain": 1257,
      "stuff": 1258,
      "acad": 1259,
      "formation": 1260,
      "boss": 1261,
      "pet": 1262,
      "ither": 1263,
      "run": 1264,
      "heart": 1265,
      "favor": 1266,
      "sent": 1267,
      "disappoint": 1268,
      "company": 1269,
      "hours": 1270,
      "academic": 1271,
      "ative": 1272,
      "arch": 1273,
      "manag": 1274,
      "ak": 1275,
      "mot": 1276,
      "gn": 1277,
      "heard": 1278,
      "worth": 1279,
      "certain": 1280,
      "eat": 1281,
      "si": 1282,
      "foc": 1283,
      "hor": 1284,
      "knew": 1285,
      "ken": 1286,
      "children": 1287,
      "fut": 1288,
      "chat": 1289,
      "free": 1290,
      "profe": 1291,
      "resu": 1292,
      "asha": 1293,
      "grate": 1294,
      "passed": 1295,
      "ds": 1296,
      "ristmas": 1297,
      "Its": 1298,
      "ashamed": 1299,
      "future": 1300,
      "ID": 1301,
      "grateful": 1302,
      "wow": 1303,
      "party": 1304,
      "solut": 1305,
      "mag": 1306,
      "ced": 1307,
      "sy": 1308,
      "rela": 1309,
      "ject": 1310,
      "moved": 1311,
      "morrow": 1312,
      "disappointed": 1313,
      "ensive": 1314,
      "face": 1315,
      "tomorrow": 1316,
      "rain": 1317,
      "cy": 1318,
      "cept": 1319,
      "sick": 1320,
      "possible": 1321,
      "cant": 1322,
      "rious": 1323,
      "pass": 1324,
      "tru": 1325,
      "social": 1326,
      "birthday": 1327,
      "conne": 1328,
      "ills": 1329,
      "antic": 1330,
      "annoyed": 1331,
      "stal": 1332,
      "share": 1333,
      "appreci": 1334,
      "relax": 1335,
      "whole": 1336,
      "ggest": 1337,
      "trip": 1338,
      "gets": 1339,
      "cks": 1340,
      "died": 1341,
      "thoughts": 1342,
      "suggest": 1343,
      "zy": 1344,
      "light": 1345,
      "learn": 1346,
      "doctor": 1347,
      "thre": 1348,
      "baby": 1349,
      "CO": 1350,
      "terrified": 1351,
      "Hope": 1352,
      "cool": 1353,
      "convers": 1354,
      "disgusted": 1355,
      "wn": 1356,
      "stressful": 1357,
      "worked": 1358,
      "trou": 1359,
      "ended": 1360,
      "actly": 1361,
      "na": 1362,
      "Re": 1363,
      "ict": 1364,
      "usually": 1365,
      "favorite": 1366,
      "faith": 1367,
      "safe": 1368,
      "either": 1369,
      "gic": 1370,
      "lose": 1371,
      "tot": 1372,
      "anymore": 1373,
      "embarrassed": 1374,
      "ication": 1375,
      "lately": 1376,
      "interview": 1377,
      "jobs": 1378,
      "commun": 1379,
      "gave": 1380,
      "living": 1381,
      "hopeful": 1382,
      "small": 1383,
      "totally": 1384,
      "cond": 1385,
      "mess": 1386,
      "hit": 1387,
      "ular": 1388,
      "covid": 1389,
      "married": 1390,
      "One": 1391,
      "VID": 1392,
      "COVID": 1393,
      "ings": 1394,
      "motiv": 1395,
      "asking": 1396,
      "finally": 1397,
      "front": 1398,
      "impressed": 1399,
      "seeing": 1400,
      "fortun": 1401,
      "chang": 1402,
      "bought": 1403,
      "state": 1404,
      "correct": 1405,
      "bas": 1406,
      "worse": 1407,
      "nostal": 1408,
      "pri": 1409,
      "content": 1410,
      "furious": 1411,
      "search": 1412,
      "devast": 1413,
      "completely": 1414,
      "ush": 1415,
      "gling": 1416,
      "dd": 1417,
      "memor": 1418,
      "gone": 1419,
      "vir": 1420,
      "specif": 1421,
      "amazing": 1422,
      "gro": 1423,
      "Was": 1424,
      "cow": 1425,
      "contro": 1426,
      "nostalgic": 1427,
      "experien": 1428,
      "imag": 1429,
      "ign": 1430,
      "anticip": 1431,
      "finan": 1432,
      "closure": 1433,
      "eting": 1434,
      "sort": 1435,
      "teach": 1436,
      "ement": 1437,
      "clean": 1438,
      "ia": 1439,
      "ier": 1440,
      "store": 1441,
      "holiday": 1442,
      "seen": 1443,
      "cannot": 1444,
      "needs": 1445,
      "val": 1446,
      "ones": 1447,
      "elf": 1448,
      "meeting": 1449,
      "saying": 1450,
      "offer": 1451,
      "late": 1452,
      "ress": 1453,
      "ors": 1454,
      "caring": 1455,
      "ition": 1456,
      "ilar": 1457,
      "wer": 1458,
      "easy": 1459,
      "treat": 1460,
      "comes": 1461,
      "ms": 1462,
      "Would": 1463,
      "Every": 1464,
      "aren": 1465,
      "Self": 1466,
      "struggling": 1467,
      "trouble": 1468,
      "grow": 1469,
      "matter": 1470,
      "comfor": 1471,
      "Now": 1472,
      "check": 1473,
      "full": 1474,
      "Christmas": 1475,
      "similar": 1476,
      "win": 1477,
      "lain": 1478,
      "couldn": 1479,
      "giving": 1480,
      "fight": 1481,
      "tonight": 1482,
      "ob": 1483,
      "unch": 1484,
      "devastated": 1485,
      "asked": 1486,
      "phys": 1487,
      "group": 1488,
      "loved": 1489,
      "lection": 1490,
      "wants": 1491,
      "anticipating": 1492,
      "father": 1493,
      "waiting": 1494,
      "acc": 1495,
      "Co": 1496,
      "called": 1497,
      "Any": 1498,
      "buy": 1499,
      "For": 1500,
      "vacation": 1501,
      "control": 1502,
      "senti": 1503,
      "finding": 1504,
      "wom": 1505,
      "cowork": 1506,
      "happens": 1507,
      "wouldn": 1508,
      "cing": 1509,
      "ball": 1510,
      "gener": 1511,
      "joyful": 1512,
      "hood": 1513,
      "stor": 1514,
      "minut": 1515,
      "video": 1516,
      "reg": 1517,
      "disclosure": 1518,
      "ass": 1519,
      "sense": 1520,
      "position": 1521,
      "talked": 1522,
      "connect": 1523,
      "mist": 1524,
      "ments": 1525,
      "horri": 1526,
      "comfortable": 1527,
      "needed": 1528,
      "appro": 1529,
      "date": 1530,
      "On": 1531,
      "mine": 1532,
      "trusting": 1533,
      "Or": 1534,
      "emotions": 1535,
      "ket": 1536,
      "conversation": 1537,
      "cry": 1538,
      "imagine": 1539,
      "top": 1540,
      "appreciate": 1541,
      "starting": 1542,
      "activ": 1543,
      "tired": 1544,
      "affect": 1545,
      "relationships": 1546,
      "lied": 1547,
      "worst": 1548,
      "mmer": 1549,
      "mp": 1550,
      "busy": 1551,
      "fair": 1552,
      "crazy": 1553,
      "del": 1554,
      "exactly": 1555,
      "event": 1556,
      "discu": 1557,
      "sentimental": 1558,
      "assi": 1559,
      "Does": 1560,
      "study": 1561,
      "classes": 1562,
      "ility": 1563,
      "decid": 1564,
      "beg": 1565,
      "sex": 1566,
      "movie": 1567,
      "As": 1568,
      "healthy": 1569,
      "pick": 1570,
      "ched": 1571,
      "gradu": 1572,
      "profession": 1573,
      "chur": 1574,
      "stead": 1575,
      "Don": 1576,
      "ath": 1577,
      "erc": 1578,
      "elling": 1579,
      "At": 1580,
      "inc": 1581,
      "train": 1582,
      "selves": 1583,
      "focus": 1584,
      "vious": 1585,
      "team": 1586,
      "contin": 1587,
      "ref": 1588,
      "Ah": 1589,
      "bother": 1590,
      "pat": 1591,
      "town": 1592,
      "allow": 1593,
      "become": 1594,
      "lease": 1595,
      "ized": 1596,
      "wear": 1597,
      "walking": 1598,
      "opt": 1599,
      "Your": 1600,
      "mus": 1601,
      "ounds": 1602,
      "asing": 1603,
      "turned": 1604,
      "type": 1605,
      "met": 1606,
      "tra": 1607,
      "fig": 1608,
      "name": 1609,
      "cover": 1610,
      "ike": 1611,
      "ird": 1612,
      "hob": 1613,
      "vel": 1614,
      "oid": 1615,
      "strong": 1616,
      "personal": 1617,
      "cli": 1618,
      "helping": 1619,
      "wonderful": 1620,
      "haha": 1621,
      "horrible": 1622,
      "apart": 1623,
      "hold": 1624,
      "fall": 1625,
      "ext": 1626,
      "lik": 1627,
      "bur": 1628,
      "present": 1629,
      "visit": 1630,
      "Ref": 1631,
      "memories": 1632,
      "door": 1633,
      "chall": 1634,
      "please": 1635,
      "oo": 1636,
      "neg": 1637,
      "plac": 1638,
      "area": 1639,
      "Per": 1640,
      "beha": 1641,
      "takes": 1642,
      "hang": 1643,
      "church": 1644,
      "goes": 1645,
      "umb": 1646,
      "moving": 1647,
      "accident": 1648,
      "employ": 1649,
      "din": 1650,
      "cri": 1651,
      "frustrating": 1652,
      "process": 1653,
      "news": 1654,
      "llow": 1655,
      "decis": 1656,
      "fortunately": 1657,
      "ww": 1658,
      "aking": 1659,
      "overwh": 1660,
      "opp": 1661,
      "reli": 1662,
      "Reflection": 1663,
      "Ha": 1664,
      "tu": 1665,
      "riage": 1666,
      "contact": 1667,
      "die": 1668,
      "Thats": 1669,
      "faithful": 1670,
      "finish": 1671,
      "watching": 1672,
      "overwhel": 1673,
      "special": 1674,
      "spect": 1675,
      "telling": 1676,
      "sucks": 1677,
      "ending": 1678,
      "accept": 1679,
      "hensive": 1680,
      "works": 1681,
      "figure": 1682,
      "decided": 1683,
      "strugg": 1684,
      "suc": 1685,
      "behavi": 1686,
      "form": 1687,
      "resul": 1688,
      "que": 1689,
      "local": 1690,
      "ding": 1691,
      "wel": 1692,
      "apprehensive": 1693,
      "00": 1694,
      "serious": 1695,
      "lying": 1696,
      "follow": 1697,
      "encour": 1698,
      "clear": 1699,
      "pping": 1700,
      "music": 1701,
      "loss": 1702,
      "speak": 1703,
      "exerc": 1704,
      "ars": 1705,
      "deser": 1706,
      "specific": 1707,
      "osed": 1708,
      "recomm": 1709,
      "didnt": 1710,
      "ump": 1711,
      "hr": 1712,
      "nat": 1713,
      "main": 1714,
      "playing": 1715,
      "cheated": 1716,
      "mail": 1717,
      "fail": 1718,
      "project": 1719,
      "business": 1720,
      "city": 1721,
      "supposed": 1722,
      "dealing": 1723,
      "professional": 1724,
      "fix": 1725,
      "og": 1726,
      "story": 1727,
      "serv": 1728,
      "marriage": 1729,
      "drive": 1730,
      "cl": 1731,
      "ns": 1732,
      "da": 1733,
      "mid": 1734,
      "near": 1735,
      "mate": 1736,
      "suppor": 1737,
      "oc": 1738,
      "impro": 1739,
      "road": 1740,
      "ents": 1741,
      "Par": 1742,
      "pur": 1743,
      "quit": 1744,
      "looked": 1745,
      "calm": 1746,
      "sever": 1747,
      "studying": 1748,
      "etc": 1749,
      "solutely": 1750,
      "sub": 1751,
      "wards": 1752,
      "currently": 1753,
      "dro": 1754,
      "ssing": 1755,
      "understanding": 1756,
      "beh": 1757,
      "sign": 1758,
      "losing": 1759,
      "ote": 1760,
      "paid": 1761,
      "summer": 1762,
      "swee": 1763,
      "suff": 1764,
      "recommend": 1765,
      "fast": 1766,
      "Hey": 1767,
      "young": 1768,
      "gotten": 1769,
      "avoid": 1770,
      "Ex": 1771,
      "ben": 1772,
      "log": 1773,
      "huge": 1774,
      "dinner": 1775,
      "welcome": 1776,
      "eating": 1777,
      "ost": 1778,
      "ween": 1779,
      "quick": 1780,
      "ber": 1781,
      "gif": 1782,
      "season": 1783,
      "instead": 1784,
      "park": 1785,
      "rat": 1786,
      "invol": 1787,
      "Perhaps": 1788,
      "dre": 1789,
      "All": 1790,
      "later": 1791,
      "slow": 1792,
      "Sorry": 1793,
      "fac": 1794,
      "char": 1795,
      "org": 1796,
      "Also": 1797,
      "Un": 1798,
      "hoping": 1799,
      "inking": 1800,
      "three": 1801,
      "behind": 1802,
      "dep": 1803,
      "happening": 1804,
      "partic": 1805,
      "given": 1806,
      "answer": 1807,
      "qual": 1808,
      "games": 1809,
      "counselor": 1810,
      "particular": 1811,
      "ted": 1812,
      "begin": 1813,
      "case": 1814,
      "Information": 1815,
      "ices": 1816,
      "extra": 1817,
      "estate": 1818,
      "Where": 1819,
      "reading": 1820,
      "handle": 1821,
      "driving": 1822,
      "explain": 1823,
      "lies": 1824,
      "urant": 1825,
      "lives": 1826,
      "deep": 1827,
      "brought": 1828,
      "plans": 1829,
      "prom": 1830,
      "holidays": 1831,
      "Of": 1832,
      "between": 1833,
      "ering": 1834,
      "gram": 1835,
      "ial": 1836,
      "fact": 1837,
      "hot": 1838,
      "whe": 1839,
      "awful": 1840,
      "rece": 1841,
      "Then": 1842,
      "guys": 1843,
      "lucky": 1844,
      "ics": 1845,
      "manager": 1846,
      "cope": 1847,
      "perhaps": 1848,
      "lock": 1849,
      "easier": 1850,
      "friendship": 1851,
      "second": 1852,
      "ortun": 1853,
      "willing": 1854,
      "resta": 1855,
      "cam": 1856,
      "hes": 1857,
      "ford": 1858,
      "ends": 1859,
      "restaurant": 1860,
      "ran": 1861,
      "extre": 1862,
      "aphr": 1863,
      "information": 1864,
      "ital": 1865,
      "Sounds": 1866,
      "evening": 1867,
      "says": 1868,
      "distr": 1869,
      "negative": 1870,
      "Please": 1871,
      "itch": 1872,
      "Paraphr": 1873,
      "Paraphrasing": 1874,
      "Restate": 1875,
      "weight": 1876,
      "Restatement": 1877,
      "afford": 1878,
      "minutes": 1879,
      "weird": 1880,
      "air": 1881,
      "early": 1882,
      "suggestions": 1883,
      "drink": 1884,
      "respect": 1885,
      "chance": 1886,
      "goals": 1887,
      "learning": 1888,
      "knowing": 1889,
      "Hopefully": 1890,
      "dating": 1891,
      "gon": 1892,
      "financial": 1893,
      "taken": 1894,
      "opportun": 1895,
      "country": 1896,
      "emotional": 1897,
      "den": 1898,
      "words": 1899,
      "chedu": 1900,
      "kept": 1901,
      "considered": 1902,
      "lad": 1903,
      "extreme": 1904,
      "tou": 1905,
      "sleeping": 1906,
      "sweet": 1907,
      "benef": 1908,
      "ather": 1909,
      "longer": 1910,
      "action": 1911,
      "groups": 1912,
      "Me": 1913,
      "dream": 1914,
      "sn": 1915,
      "isol": 1916,
      "foot": 1917,
      "cook": 1918,
      "example": 1919,
      "ctive": 1920,
      "dogs": 1921,
      "woman": 1922,
      "cheating": 1923,
      "vacc": 1924,
      "19": 1925,
      "forgot": 1926,
      "rid": 1927,
      "causing": 1928,
      "Last": 1929,
      "ju": 1930,
      "ower": 1931,
      "broken": 1932,
      "fell": 1933,
      "assist": 1934,
      "success": 1935,
      "alf": 1936,
      "ention": 1937,
      "pregn": 1938,
      "ai": 1939,
      "cancer": 1940,
      "ages": 1941,
      "build": 1942,
      "level": 1943,
      "law": 1944,
      "means": 1945,
      "program": 1946,
      "final": 1947,
      "De": 1948,
      "short": 1949,
      "everyday": 1950,
      "Okay": 1951,
      "schedu": 1952,
      "trau": 1953,
      "skills": 1954,
      "challeng": 1955,
      "bly": 1956,
      "discuss": 1957,
      "15": 1958,
      "ins": 1959,
      "aware": 1960,
      "icture": 1961,
      "dest": 1962,
      "exciting": 1963,
      "organ": 1964,
      "lots": 1965,
      "Covid": 1966,
      "qui": 1967,
      "izz": 1968,
      "Try": 1969,
      "key": 1970,
      "promotion": 1971,
      "du": 1972,
      "picture": 1973,
      "seme": 1974,
      "After": 1975,
      "along": 1976,
      "office": 1977,
      "common": 1978,
      "thankful": 1979,
      "ris": 1980,
      "knows": 1981,
      "pleas": 1982,
      "semester": 1983,
      "St": 1984,
      "learned": 1985,
      "shame": 1986,
      "throw": 1987,
      "grade": 1988,
      "mistake": 1989,
      "illed": 1990,
      "anim": 1991,
      "lead": 1992,
      "Cong": 1993,
      "ming": 1994,
      "mood": 1995,
      "bothering": 1996,
      "lay": 1997,
      "realize": 1998,
      "continue": 1999,
      "leg": 2000,
      "ideas": 2001,
      "shocked": 2002,
      "decision": 2003,
      "tri": 2004,
      "pray": 2005,
      "grocer": 2006,
      "gonna": 2007,
      "wanting": 2008,
      "responsi": 2009,
      "Whi": 2010,
      "water": 2011,
      "stuck": 2012,
      "single": 2013,
      "hosp": 2014,
      "pizz": 2015,
      "numb": 2016,
      "relate": 2017,
      "Congrat": 2018,
      "listening": 2019,
      "ered": 2020,
      "whether": 2021,
      "accom": 2022,
      "questions": 2023,
      "God": 2024,
      "aut": 2025,
      "deserve": 2026,
      "bal": 2027,
      "write": 2028,
      "coworker": 2029,
      "employment": 2030,
      "Pe": 2031,
      "attention": 2032,
      "ines": 2033,
      "remind": 2034,
      "half": 2035,
      "childhood": 2036,
      "reaching": 2037,
      "improve": 2038,
      "Someone": 2039,
      "dra": 2040,
      "male": 2041,
      "provide": 2042,
      "activities": 2043,
      "lau": 2044,
      "hopefully": 2045,
      "spent": 2046,
      "physical": 2047,
      "fit": 2048,
      "manage": 2049,
      "putting": 2050,
      "tend": 2051,
      "inst": 2052,
      "cas": 2053,
      "ling": 2054,
      "ni": 2055,
      "extremely": 2056,
      "vies": 2057,
      "stem": 2058,
      "caught": 2059,
      "ient": 2060,
      "iver": 2061,
      "gest": 2062,
      "Se": 2063,
      "atever": 2064,
      "lier": 2065,
      "tail": 2066,
      "drinking": 2067,
      "honestly": 2068,
      "daily": 2069,
      "forget": 2070,
      "perfect": 2071,
      "motivated": 2072,
      "gg": 2073,
      "staying": 2074,
      "bies": 2075,
      "inside": 2076,
      "address": 2077,
      "pizza": 2078,
      "movies": 2079,
      "paying": 2080,
      "interested": 2081,
      "fee": 2082,
      "touch": 2083,
      "bt": 2084,
      "However": 2085,
      "planning": 2086,
      "aff": 2087,
      "confid": 2088,
      "interesting": 2089,
      "general": 2090,
      "fiance": 2091,
      "ross": 2092,
      "unk": 2093,
      "mit": 2094,
      "ount": 2095,
      "ates": 2096,
      "Were": 2097,
      "raise": 2098,
      "entire": 2099,
      "pot": 2100,
      "cake": 2101,
      "avai": 2102,
      "hair": 2103,
      "trav": 2104,
      "divor": 2105,
      "lar": 2106,
      "distance": 2107,
      "io": 2108,
      "career": 2109,
      "certainly": 2110,
      "sat": 2111,
      "join": 2112,
      "dar": 2113,
      "supportive": 2114,
      "gift": 2115,
      "ian": 2116,
      "paper": 2117,
      "situations": 2118,
      "bank": 2119,
      "men": 2120,
      "Even": 2121,
      "rather": 2122,
      "amount": 2123,
      "net": 2124,
      "Nice": 2125,
      "fer": 2126,
      "lable": 2127,
      "younger": 2128,
      "exercise": 2129,
      "ssive": 2130,
      "constant": 2131,
      "effort": 2132,
      "hobbies": 2133,
      "available": 2134,
      "actions": 2135,
      "surprise": 2136,
      "concerned": 2137,
      "places": 2138,
      "wind": 2139,
      "bills": 2140,
      "acting": 2141,
      "count": 2142,
      "People": 2143,
      "plish": 2144,
      "argu": 2145,
      "suppose": 2146,
      "rand": 2147,
      "themselves": 2148,
      "frustrated": 2149,
      "pub": 2150,
      "Lo": 2151,
      "ile": 2152,
      "fresh": 2153,
      "earlier": 2154,
      "couns": 2155,
      "gri": 2156,
      "keeps": 2157,
      "likely": 2158,
      "schedule": 2159,
      "alright": 2160,
      "apartment": 2161,
      "accomplish": 2162,
      "mer": 2163,
      "dead": 2164,
      "speaking": 2165,
      "behavior": 2166,
      "brain": 2167,
      "term": 2168,
      "board": 2169,
      "resume": 2170,
      "changed": 2171,
      "hospital": 2172,
      "ural": 2173,
      "ery": 2174,
      "An": 2175,
      "ising": 2176,
      "chan": 2177,
      "tech": 2178,
      "whatever": 2179,
      "annoying": 2180,
      "medit": 2181,
      "truly": 2182,
      "spa": 2183,
      "decide": 2184,
      "fiel": 2185,
      "path": 2186,
      "mask": 2187,
      "session": 2188,
      "ability": 2189,
      "members": 2190,
      "approach": 2191,
      "system": 2192,
      "medication": 2193,
      "war": 2194,
      "pho": 2195,
      "motivation": 2196,
      "Who": 2197,
      "public": 2198,
      "ppy": 2199,
      "options": 2200,
      "fur": 2201,
      "Has": 2202,
      "cir": 2203,
      "expecting": 2204,
      "cking": 2205,
      "sitting": 2206,
      "seek": 2207,
      "against": 2208,
      "iled": 2209,
      "absolutely": 2210,
      "older": 2211,
      "power": 2212,
      "ants": 2213,
      "ulations": 2214,
      "treatment": 2215,
      "push": 2216,
      "personally": 2217,
      "task": 2218,
      "beaut": 2219,
      "however": 2220,
      "born": 2221,
      "spending": 2222,
      "card": 2223,
      "text": 2224,
      "lect": 2225,
      "wed": 2226,
      "dden": 2227,
      "pregnant": 2228,
      "forever": 2229,
      "yard": 2230,
      "cup": 2231,
      "inti": 2232,
      "eventually": 2233,
      "cold": 2234,
      "noon": 2235,
      "fault": 2236,
      "cen": 2237,
      "shows": 2238,
      "cred": 2239,
      "worker": 2240,
      "neighbors": 2241,
      "To": 2242,
      "aving": 2243,
      "shar": 2244,
      "income": 2245,
      "Like": 2246,
      "cous": 2247,
      "cof": 2248,
      "cohol": 2249,
      "maj": 2250,
      "looks": 2251,
      "ground": 2252,
      "teen": 2253,
      "quickly": 2254,
      "ond": 2255,
      "notic": 2256,
      "wake": 2257,
      "overwhelmed": 2258,
      "Fe": 2259,
      "crying": 2260,
      "requi": 2261,
      "starts": 2262,
      "smart": 2263,
      "ess": 2264,
      "fl": 2265,
      "tern": 2266,
      "Really": 2267,
      "coffee": 2268,
      "sudden": 2269,
      "iful": 2270,
      "involved": 2271,
      "ply": 2272,
      "leaving": 2273,
      "Ne": 2274,
      "grandmother": 2275,
      "Tr": 2276,
      "agno": 2277,
      "understandable": 2278,
      "risk": 2279,
      "travel": 2280,
      "sen": 2281,
      "irr": 2282,
      "express": 2283,
      "afternoon": 2284,
      "coworkers": 2285,
      "vaccine": 2286,
      "vo": 2287,
      "encourage": 2288,
      "keeping": 2289,
      "field": 2290,
      "towards": 2291,
      "jud": 2292,
      "Ab": 2293,
      "land": 2294,
      "proper": 2295,
      "roll": 2296,
      "gain": 2297,
      "comput": 2298,
      "gross": 2299,
      "compet": 2300,
      "chatting": 2301,
      "practi": 2302,
      "beautiful": 2303,
      "sw": 2304,
      "experiencing": 2305,
      "word": 2306,
      "harder": 2307,
      "student": 2308,
      "reasons": 2309,
      "missing": 2310,
      "dle": 2311,
      "lack": 2312,
      "adult": 2313,
      "stole": 2314,
      "confidence": 2315,
      "30": 2316,
      "oom": 2317,
      "ties": 2318,
      "diagno": 2319,
      "running": 2320,
      "several": 2321,
      "lunch": 2322,
      "applied": 2323,
      "realized": 2324,
      "research": 2325,
      "beach": 2326,
      "prote": 2327,
      "cru": 2328,
      "oun": 2329,
      "teacher": 2330,
      "necess": 2331,
      "reco": 2332,
      "lice": 2333,
      "umped": 2334,
      "medical": 2335,
      "Once": 2336,
      "post": 2337,
      "vest": 2338,
      "goal": 2339,
      "iece": 2340,
      "results": 2341,
      "photo": 2342,
      "pan": 2343,
      "exams": 2344,
      "within": 2345,
      "virus": 2346,
      "middle": 2347,
      "jour": 2348,
      "communic": 2349,
      "walked": 2350,
      "communication": 2351,
      "Very": 2352,
      "aged": 2353,
      "acted": 2354,
      "service": 2355,
      "dou": 2356,
      "beat": 2357,
      "Sure": 2358,
      "bunch": 2359,
      "ili": 2360,
      "known": 2361,
      "qualif": 2362,
      "major": 2363,
      "poop": 2364,
      "typ": 2365,
      "energy": 2366,
      "bla": 2367,
      "cost": 2368,
      "dark": 2369,
      "50": 2370,
      "vol": 2371,
      "workers": 2372,
      "regard": 2373,
      "LO": 2374,
      "doll": 2375,
      "shut": 2376,
      "elop": 2377,
      "weather": 2378,
      "virt": 2379,
      "mpto": 2380,
      "develop": 2381,
      "option": 2382,
      "Gre": 2383,
      "thes": 2384,
      "ney": 2385,
      "appe": 2386,
      "Unfortunately": 2387,
      "smo": 2388,
      "lebr": 2389,
      "compan": 2390,
      "ament": 2391,
      "site": 2392,
      "sympto": 2393,
      "wise": 2394,
      "gym": 2395,
      "box": 2396,
      "spir": 2397,
      "studied": 2398,
      "computer": 2399,
      "sal": 2400,
      "choice": 2401,
      "watched": 2402,
      "degree": 2403,
      "unfortunately": 2404,
      "shopping": 2405,
      "Because": 2406,
      "funny": 2407,
      "struggle": 2408,
      "opportunity": 2409,
      "ah": 2410,
      "attack": 2411,
      "puppy": 2412,
      "hun": 2413,
      "feed": 2414,
      "lict": 2415,
      "hasn": 2416,
      "writing": 2417,
      "direct": 2418,
      "practice": 2419,
      "insur": 2420,
      "cha": 2421,
      "mention": 2422,
      "Most": 2423,
      "Tell": 2424,
      "incre": 2425,
      "peace": 2426,
      "conflict": 2427,
      "books": 2428,
      "football": 2429,
      "gen": 2430,
      "ime": 2431,
      "previous": 2432,
      "hew": 2433,
      "challenging": 2434,
      "large": 2435,
      "stra": 2436,
      "storm": 2437,
      "wont": 2438,
      "credit": 2439,
      "math": 2440,
      "stopped": 2441,
      "expensive": 2442,
      "concerns": 2443,
      "catch": 2444,
      "MY": 2445,
      "turk": 2446,
      "addict": 2447,
      "blo": 2448,
      "girls": 2449,
      "himself": 2450,
      "ded": 2451,
      "Being": 2452,
      "solution": 2453,
      "gas": 2454,
      "ordered": 2455,
      "recei": 2456,
      "insurance": 2457,
      "profess": 2458,
      "arely": 2459,
      "anyway": 2460,
      "medi": 2461,
      "human": 2462,
      "oga": 2463,
      "management": 2464,
      "sexual": 2465,
      "cousin": 2466,
      "planned": 2467,
      "worrying": 2468,
      "shi": 2469,
      "soc": 2470,
      "god": 2471,
      "effect": 2472,
      "experienced": 2473,
      "OK": 2474,
      "flo": 2475,
      "awhile": 2476,
      "inclu": 2477,
      "trauma": 2478,
      "grocery": 2479,
      "IT": 2480,
      "bility": 2481,
      "choose": 2482,
      "medic": 2483,
      "sharing": 2484,
      "ahead": 2485,
      "loves": 2486,
      "psy": 2487,
      "fire": 2488,
      "pack": 2489,
      "sites": 2490,
      "Feel": 2491,
      "ined": 2492,
      "sun": 2493,
      "oken": 2494,
      "Could": 2495,
      "bound": 2496,
      "ources": 2497,
      "Get": 2498,
      "commit": 2499,
      "training": 2500,
      "snow": 2501,
      "till": 2502,
      "quie": 2503,
      "report": 2504,
      "changes": 2505,
      "separ": 2506,
      "tery": 2507,
      "letting": 2508,
      "natural": 2509,
      "Since": 2510,
      "ible": 2511,
      "poor": 2512,
      "arent": 2513,
      "across": 2514,
      "mostly": 2515,
      "calls": 2516,
      "celebr": 2517,
      "knowled": 2518,
      "Fr": 2519,
      "From": 2520,
      "ks": 2521,
      "ises": 2522,
      "police": 2523,
      "space": 2524,
      "mis": 2525,
      "sil": 2526,
      "wast": 2527,
      "ourselves": 2528,
      "coping": 2529,
      "logy": 2530,
      "street": 2531,
      "pull": 2532,
      "save": 2533,
      "ential": 2534,
      "client": 2535,
      "meant": 2536,
      "Those": 2537,
      "overcome": 2538,
      "Make": 2539,
      "shouldn": 2540,
      "concern": 2541,
      "growing": 2542,
      "bath": 2543,
      "scre": 2544,
      "izing": 2545,
      "counselling": 2546,
      "bul": 2547,
      "abuse": 2548,
      "expected": 2549,
      "nal": 2550,
      "itu": 2551,
      "death": 2552,
      "quiet": 2553,
      "uck": 2554,
      "cats": 2555,
      "cel": 2556,
      "employe": 2557,
      "alcohol": 2558,
      "breaking": 2559,
      "wedding": 2560,
      "fli": 2561,
      "ging": 2562,
      "sity": 2563,
      "played": 2564,
      "dem": 2565,
      "related": 2566,
      "treating": 2567,
      "number": 2568,
      "With": 2569,
      "load": 2570,
      "web": 2571,
      "upid": 2572,
      "hearing": 2573,
      "response": 2574,
      "Everyone": 2575,
      "depend": 2576,
      "New": 2577,
      "Great": 2578,
      "drug": 2579,
      "history": 2580,
      "unt": 2581,
      "saving": 2582,
      "100": 2583,
      "noticed": 2584,
      "ade": 2585,
      "media": 2586,
      "messages": 2587,
      "result": 2588,
      "Many": 2589,
      "lie": 2590,
      "spoken": 2591,
      "igno": 2592,
      "women": 2593,
      "email": 2594,
      "ove": 2595,
      "secre": 2596,
      "specially": 2597,
      "roommate": 2598,
      "threw": 2599,
      "Tod": 2600,
      "fill": 2601,
      "ged": 2602,
      "ring": 2603,
      "ride": 2604,
      "kets": 2605,
      "gar": 2606,
      "laugh": 2607,
      "ats": 2608,
      "coast": 2609,
      "eep": 2610,
      "lived": 2611,
      "kinda": 2612,
      "truth": 2613,
      "fund": 2614,
      "liked": 2615,
      "alot": 2616,
      "ester": 2617,
      "steps": 2618,
      "ord": 2619,
      "seemed": 2620,
      "relaxing": 2621,
      "Today": 2622,
      "respond": 2623,
      "Congratulations": 2624,
      "window": 2625,
      "unable": 2626,
      "clothes": 2627,
      "gives": 2628,
      "emotionally": 2629,
      "descri": 2630,
      "graduate": 2631,
      "constantly": 2632,
      "phew": 2633,
      "aries": 2634,
      "anywhere": 2635,
      "reak": 2636,
      "regular": 2637,
      "graduated": 2638,
      "symptoms": 2639,
      "ado": 2640,
      "yoga": 2641,
      "stupid": 2642,
      "return": 2643,
      "nephew": 2644,
      "esterday": 2645,
      "loud": 2646,
      "painful": 2647,
      "overwhelming": 2648,
      "HI": 2649,
      "kill": 2650,
      "dropped": 2651,
      "Keep": 2652,
      "pi": 2653,
      "strate": 2654,
      "por": 2655,
      "apply": 2656,
      "este": 2657,
      "breath": 2658,
      "upsetting": 2659,
      "ator": 2660,
      "provid": 2661,
      "black": 2662,
      "unex": 2663,
      "track": 2664,
      "suggestion": 2665,
      "active": 2666,
      "divorce": 2667,
      "sty": 2668,
      "secur": 2669,
      "seeking": 2670,
      "walks": 2671,
      "ances": 2672,
      "animals": 2673,
      "rout": 2674,
      "lottery": 2675,
      "truck": 2676,
      "minute": 2677,
      "apo": 2678,
      "opin": 2679,
      "failed": 2680,
      "strange": 2681,
      "ane": 2682,
      "macy": 2683,
      "deed": 2684,
      "sme": 2685,
      "ization": 2686,
      "bling": 2687,
      "facing": 2688,
      "clu": 2689,
      "invest": 2690,
      "reward": 2691,
      "somewhere": 2692,
      "meaning": 2693,
      "market": 2694,
      "patient": 2695,
      "unexpect": 2696,
      "eyes": 2697,
      "ease": 2698,
      "send": 2699,
      "detail": 2700,
      "unexpected": 2701,
      "easily": 2702,
      "neighborhood": 2703,
      "ased": 2704,
      "spective": 2705,
      "connected": 2706,
      "Especially": 2707,
      "Yesterday": 2708,
      "thinks": 2709,
      "finished": 2710,
      "couldnt": 2711,
      "esteem": 2712,
      "Our": 2713,
      "ups": 2714,
      "message": 2715,
      "trig": 2716,
      "whats": 2717,
      "crash": 2718,
      "mix": 2719,
      "tv": 2720,
      "caused": 2721,
      "random": 2722,
      "circ": 2723,
      "Take": 2724,
      "rac": 2725,
      "above": 2726,
      "woke": 2727,
      "recogn": 2728,
      "ife": 2729,
      "became": 2730,
      "spouse": 2731,
      "His": 2732,
      "pair": 2733,
      "yours": 2734,
      "simply": 2735,
      "Let": 2736,
      "ze": 2737,
      "valu": 2738,
      "cure": 2739,
      "comfort": 2740,
      "ulti": 2741,
      "Aww": 2742,
      "barely": 2743,
      "ination": 2744,
      "icial": 2745,
      "badly": 2746,
      "basically": 2747,
      "specifically": 2748,
      "tens": 2749,
      "attr": 2750,
      "sport": 2751,
      "period": 2752,
      "missed": 2753,
      "financially": 2754,
      "female": 2755,
      "surger": 2756,
      "NO": 2757,
      "fan": 2758,
      "goodness": 2759,
      "ieve": 2760,
      "ilities": 2761,
      "drunk": 2762,
      "lockdown": 2763,
      "18": 2764,
      "unemployment": 2765,
      "happiness": 2766,
      "mil": 2767,
      "sco": 2768,
      "song": 2769,
      "ems": 2770,
      "notice": 2771,
      "shot": 2772,
      "considering": 2773,
      "satis": 2774,
      "stick": 2775,
      "Things": 2776,
      "students": 2777,
      "blue": 2778,
      "lady": 2779,
      "cand": 2780,
      "laid": 2781,
      "pose": 2782,
      "stood": 2783,
      "gra": 2784,
      "temp": 2785,
      "exha": 2786,
      "normally": 2787,
      "cute": 2788,
      "successful": 2789,
      "argument": 2790,
      "calling": 2791,
      "fish": 2792,
      "irst": 2793,
      "perform": 2794,
      "Nothing": 2795,
      "hurting": 2796,
      "concert": 2797,
      "six": 2798,
      "bon": 2799,
      "nel": 2800,
      "invited": 2801,
      "Sh": 2802,
      "agre": 2803,
      "bag": 2804,
      "pres": 2805,
      "ches": 2806,
      "pictures": 2807,
      "meditation": 2808,
      "Right": 2809,
      "tem": 2810,
      "beginning": 2811,
      "valid": 2812,
      "accidentally": 2813,
      "outh": 2814,
      "doesnt": 2815,
      "complain": 2816,
      "itude": 2817,
      "closed": 2818,
      "diet": 2819,
      "grief": 2820,
      "ancing": 2821,
      "borrow": 2822,
      "necessary": 2823,
      "irrit": 2824,
      "herself": 2825,
      "ticket": 2826,
      "courses": 2827,
      "redu": 2828,
      "turning": 2829,
      "Everything": 2830,
      "While": 2831,
      "fortunate": 2832,
      "produ": 2833,
      "community": 2834,
      "wearing": 2835,
      "boundaries": 2836,
      "surgery": 2837,
      "Tru": 2838,
      "tickets": 2839,
      "isolated": 2840,
      "First": 2841,
      "ele": 2842,
      "swi": 2843,
      "grades": 2844,
      "resources": 2845,
      "fighting": 2846,
      "mach": 2847,
      "cep": 2848,
      "physically": 2849,
      "instru": 2850,
      "bra": 2851,
      "ng": 2852,
      "traff": 2853,
      "explo": 2854,
      "virtual": 2855,
      "traffic": 2856,
      "Mar": 2857,
      "gress": 2858,
      "breathing": 2859,
      "studies": 2860,
      "received": 2861,
      "pants": 2862,
      "meal": 2863,
      "quar": 2864,
      "ption": 2865,
      "reached": 2866,
      "cleaning": 2867,
      "pol": 2868,
      "ently": 2869,
      "unte": 2870,
      "guid": 2871,
      "cheat": 2872,
      "budd": 2873,
      "tested": 2874,
      "frustration": 2875,
      "dress": 2876,
      "gs": 2877,
      "passion": 2878,
      "solve": 2879,
      "cation": 2880,
      "star": 2881,
      "perspective": 2882,
      "trusted": 2883,
      "hurts": 2884,
      "hung": 2885,
      "checked": 2886,
      "enjoyed": 2887,
      "Haha": 2888,
      "ler": 2889,
      "These": 2890,
      "cies": 2891,
      "applic": 2892,
      "dire": 2893,
      "subject": 2894,
      "twi": 2895,
      "steal": 2896,
      "expectations": 2897,
      "turns": 2898,
      "pul": 2899,
      "based": 2900,
      "intimacy": 2901,
      "repe": 2902,
      "prefer": 2903,
      "slowly": 2904,
      "doubt": 2905,
      "exhaust": 2906,
      "Sleep": 2907,
      "pact": 2908,
      "termin": 2909,
      "changing": 2910,
      "experiences": 2911,
      "affected": 2912,
      "12": 2913,
      "ior": 2914,
      "pite": 2915,
      "complete": 2916,
      "volunte": 2917,
      "Life": 2918,
      "piece": 2919,
      "winter": 2920,
      "itself": 2921,
      "pets": 2922,
      "Honest": 2923,
      "US": 2924,
      "knowledge": 2925,
      "Which": 2926,
      "switch": 2927,
      "companies": 2928,
      "ya": 2929,
      "recover": 2930,
      "difference": 2931,
      "addition": 2932,
      "simple": 2933,
      "except": 2934,
      "acking": 2935,
      "uncomfortable": 2936,
      "aging": 2937,
      "following": 2938,
      "taught": 2939,
      "ences": 2940,
      "loan": 2941,
      "cancel": 2942,
      "difficul": 2943,
      "assign": 2944,
      "hobby": 2945,
      "sig": 2946,
      "alive": 2947,
      "ters": 2948,
      "impact": 2949,
      "shoes": 2950,
      "See": 2951,
      "Absolutely": 2952,
      "mentioned": 2953,
      "secret": 2954,
      "cooking": 2955,
      "aming": 2956,
      "daughters": 2957,
      "empty": 2958,
      "journal": 2959,
      "Friday": 2960,
      "regre": 2961,
      "relie": 2962,
      "professor": 2963,
      "Trump": 2964,
      "Exactly": 2965,
      "Honestly": 2966,
      "ped": 2967,
      "ries": 2968,
      "actic": 2969,
      "likes": 2970,
      "opti": 2971,
      "visor": 2972,
      "worthless": 2973,
      "generally": 2974,
      "Am": 2975,
      "Aw": 2976,
      "aunt": 2977,
      "trans": 2978,
      "ively": 2979,
      "iversity": 2980,
      "Man": 2981,
      "becoming": 2982,
      "somewhat": 2983,
      "nature": 2984,
      "sessions": 2985,
      "dollars": 2986,
      "straight": 2987,
      "AN": 2988,
      "En": 2989,
      "Luck": 2990,
      "tasks": 2991,
      "blame": 2992,
      "Pl": 2993,
      "flu": 2994,
      "os": 2995,
      "onment": 2996,
      "whenever": 2997,
      "Should": 2998,
      "tray": 2999,
      "grew": 3000,
      "trash": 3001,
      "spot": 3002,
      "complic": 3003,
      "higher": 3004,
      "offered": 3005,
      "bing": 3006,
      "loving": 3007,
      "bum": 3008,
      "apolog": 3009,
      "Mon": 3010,
      "Time": 3011,
      "tex": 3012,
      "ons": 3013,
      "christmas": 3014,
      "icking": 3015,
      "rude": 3016,
      "building": 3017,
      "balance": 3018,
      "fying": 3019,
      "returned": 3020,
      "smile": 3021,
      "grandma": 3022,
      "affecting": 3023,
      "True": 3024,
      "style": 3025,
      "Her": 3026,
      "advant": 3027,
      "correctly": 3028,
      "value": 3029,
      "bathroom": 3030,
      "details": 3031,
      "pop": 3032,
      "stri": 3033,
      "ures": 3034,
      "weren": 3035,
      "services": 3036,
      "nobody": 3037,
      "security": 3038,
      "nia": 3039,
      "enge": 3040,
      "concen": 3041,
      "cip": 3042,
      "practic": 3043,
      "connection": 3044,
      "twice": 3045,
      "ER": 3046,
      "kick": 3047,
      "TV": 3048,
      "bill": 3049,
      "gard": 3050,
      "fired": 3051,
      "showed": 3052,
      "condition": 3053,
      "challenge": 3054,
      "ogle": 3055,
      "danger": 3056,
      "sci": 3057,
      "heav": 3058,
      "suffering": 3059,
      "LOL": 3060,
      "identi": 3061,
      "Problems": 3062,
      "accep": 3063,
      "iring": 3064,
      "Thanksgiving": 3065,
      "gun": 3066,
      "mturk": 3067,
      "gover": 3068,
      "closer": 3069,
      "moments": 3070,
      "brings": 3071,
      "circum": 3072,
      "cust": 3073,
      "ceed": 3074,
      "angu": 3075,
      "advantage": 3076,
      "erally": 3077,
      "envious": 3078,
      "wondering": 3079,
      "hanging": 3080,
      "protect": 3081,
      "pooped": 3082,
      "Work": 3083,
      "kno": 3084,
      "round": 3085,
      "lex": 3086,
      "asleep": 3087,
      "prior": 3088,
      "purpose": 3089,
      "eliness": 3090,
      "harm": 3091,
      "internet": 3092,
      "crush": 3093,
      "seriously": 3094,
      "diagnosed": 3095,
      "rush": 3096,
      "vely": 3097,
      "betray": 3098,
      "tire": 3099,
      "somehow": 3100,
      "immedi": 3101,
      "relief": 3102,
      "decent": 3103,
      "file": 3104,
      "possibly": 3105,
      "invite": 3106,
      "regarding": 3107,
      "tempor": 3108,
      "sou": 3109,
      "incred": 3110,
      "circumst": 3111,
      "supervisor": 3112,
      "ire": 3113,
      "envir": 3114,
      "awk": 3115,
      "appointment": 3116,
      "achieve": 3117,
      "pulled": 3118,
      "dama": 3119,
      "applying": 3120,
      "attend": 3121,
      "activity": 3122,
      "decisions": 3123,
      "snake": 3124,
      "spo": 3125,
      "hey": 3126,
      "ational": 3127,
      "lap": 3128,
      "employed": 3129,
      "responsible": 3130,
      "fy": 3131,
      "lines": 3132,
      "toward": 3133,
      "arily": 3134,
      "secure": 3135,
      "consu": 3136,
      "ctions": 3137,
      "Tal": 3138,
      "kitch": 3139,
      "account": 3140,
      "university": 3141,
      "progress": 3142,
      "paren": 3143,
      "animal": 3144,
      "drugs": 3145,
      "Never": 3146,
      "trick": 3147,
      "def": 3148,
      "ource": 3149,
      "wallet": 3150,
      "tests": 3151,
      "Anything": 3152,
      "deliver": 3153,
      "kitchen": 3154,
      "bike": 3155,
      "gies": 3156,
      "sl": 3157,
      "loneliness": 3158,
      "opportunities": 3159,
      "chas": 3160,
      "hy": 3161,
      "ening": 3162,
      "rob": 3163,
      "presentation": 3164,
      "feedback": 3165,
      "Getting": 3166,
      "HA": 3167,
      "Hmm": 3168,
      "Wor": 3169,
      "lled": 3170,
      "ube": 3171,
      "oked": 3172,
      "literally": 3173,
      "stressing": 3174,
      "awkward": 3175,
      "School": 3176,
      "bright": 3177,
      "although": 3178,
      "lig": 3179,
      "congr": 3180,
      "Glad": 3181,
      "ender": 3182,
      "upcoming": 3183,
      "usive": 3184,
      "despite": 3185,
      "burden": 3186,
      "assistance": 3187,
      "destro": 3188,
      "environment": 3189,
      "crast": 3190,
      "tribut": 3191,
      "opinion": 3192,
      "bri": 3193,
      "tran": 3194,
      "attitude": 3195,
      "Feeling": 3196,
      "lim": 3197,
      "conv": 3198,
      "crit": 3199,
      "Going": 3200,
      "mistic": 3201,
      "struggled": 3202,
      "fundament": 3203,
      "rad": 3204,
      "shel": 3205,
      "wers": 3206,
      "sides": 3207,
      "appear": 3208,
      "shift": 3209,
      "five": 3210,
      "arri": 3211,
      "lift": 3212,
      "confront": 3213,
      "driver": 3214,
      "communicate": 3215,
      "gig": 3216,
      "oted": 3217,
      "mentally": 3218,
      "agen": 3219,
      "brand": 3220,
      "meth": 3221,
      "hotel": 3222,
      "Will": 3223,
      "hh": 3224,
      "pays": 3225,
      "11": 3226,
      "IN": 3227,
      "fant": 3228,
      "fly": 3229,
      "role": 3230,
      "healing": 3231,
      "explore": 3232,
      "sell": 3233,
      "non": 3234,
      "careful": 3235,
      "spid": 3236,
      "depart": 3237,
      "hopeless": 3238,
      "placed": 3239,
      "photos": 3240,
      "ume": 3241,
      "admit": 3242,
      "irt": 3243,
      "streng": 3244,
      "Po": 3245,
      "ism": 3246,
      "ific": 3247,
      "unless": 3248,
      "courage": 3249,
      "focused": 3250,
      "blood": 3251,
      "Monday": 3252,
      "base": 3253,
      "hiring": 3254,
      "edu": 3255,
      "silly": 3256,
      "club": 3257,
      "14": 3258,
      "Cor": 3259,
      "understood": 3260,
      "lets": 3261,
      "writ": 3262,
      "desk": 3263,
      "Having": 3264,
      "panic": 3265,
      "Dis": 3266,
      "tips": 3267,
      "prepar": 3268,
      "hadn": 3269,
      "setting": 3270,
      "stayed": 3271,
      "engaged": 3272,
      "voice": 3273,
      "addiction": 3274,
      "soccer": 3275,
      "pissed": 3276,
      "bonus": 3277,
      "regret": 3278,
      "optimistic": 3279,
      "parenting": 3280,
      "havent": 3281,
      "carry": 3282,
      "meds": 3283,
      "conversations": 3284,
      "obvious": 3285,
      "deli": 3286,
      "celebrate": 3287,
      "fundamentals": 3288,
      "bye": 3289,
      "ining": 3290,
      "tool": 3291,
      "bey": 3292,
      "sometime": 3293,
      "reasonable": 3294,
      "stepped": 3295,
      "usual": 3296,
      "clients": 3297,
      "benefit": 3298,
      "hon": 3299,
      "suic": 3300,
      "ods": 3301,
      "hardest": 3302,
      "pool": 3303,
      "cycle": 3304,
      "events": 3305,
      "bow": 3306,
      "ali": 3307,
      "hab": 3308,
      "engine": 3309,
      "indeed": 3310,
      "ays": 3311,
      "wre": 3312,
      "depressing": 3313,
      "teenag": 3314,
      "complicated": 3315,
      "none": 3316,
      "zoom": 3317,
      "effe": 3318,
      "fears": 3319,
      "shop": 3320,
      "picked": 3321,
      "suffered": 3322,
      "uts": 3323,
      "econ": 3324,
      "ssues": 3325,
      "ured": 3326,
      "parking": 3327,
      "facebook": 3328,
      "refer": 3329,
      "accepted": 3330,
      "pursu": 3331,
      "Chi": 3332,
      "agement": 3333,
      "Something": 3334,
      "biggest": 3335,
      "pattern": 3336,
      "programs": 3337,
      "roller": 3338,
      "crow": 3339,
      "access": 3340,
      "indi": 3341,
      "noise": 3342,
      "finals": 3343,
      "homeless": 3344,
      "tells": 3345,
      "inten": 3346,
      "answers": 3347,
      "teaching": 3348,
      "Only": 3349,
      "40": 3350,
      "four": 3351,
      "scr": 3352,
      "kinds": 3353,
      "belief": 3354,
      "nment": 3355,
      "itive": 3356,
      "exist": 3357,
      "contr": 3358,
      "boat": 3359,
      "firm": 3360,
      "falling": 3361,
      "Luckily": 3362,
      "Con": 3363,
      "Issues": 3364,
      "Yep": 3365,
      "forgive": 3366,
      "uncertain": 3367,
      "saved": 3368,
      "matic": 3369,
      "memory": 3370,
      "distract": 3371,
      "spl": 3372,
      "loy": 3373,
      "aches": 3374,
      "enty": 3375,
      "useful": 3376,
      "shared": 3377,
      "skill": 3378,
      "tube": 3379,
      "suddenly": 3380,
      "nowhere": 3381,
      "astic": 3382,
      "polit": 3383,
      "cash": 3384,
      "ore": 3385,
      "stru": 3386,
      "oring": 3387,
      "pride": 3388,
      "psycho": 3389,
      "Awesome": 3390,
      "dated": 3391,
      "uch": 3392,
      "ened": 3393,
      "apped": 3394,
      "searching": 3395,
      "occur": 3396,
      "pleasant": 3397,
      "directly": 3398,
      "cried": 3399,
      "var": 3400,
      "stage": 3401,
      "sooo": 3402,
      "embarrassing": 3403,
      "receive": 3404,
      "smell": 3405,
      "Face": 3406,
      "TS": 3407,
      "dent": 3408,
      "nur": 3409,
      "uncle": 3410,
      "bigger": 3411,
      "hands": 3412,
      "blind": 3413,
      "guilt": 3414,
      "reminded": 3415,
      "iliar": 3416,
      "remain": 3417,
      "loose": 3418,
      "reflect": 3419,
      "Tur": 3420,
      "bat": 3421,
      "een": 3422,
      "ech": 3423,
      "boys": 3424,
      "pen": 3425,
      "aspect": 3426,
      "survi": 3427,
      "uses": 3428,
      "inks": 3429,
      "maintain": 3430,
      "Often": 3431,
      "By": 3432,
      "dy": 3433,
      "rele": 3434,
      "habit": 3435,
      "everywhere": 3436,
      "smash": 3437,
      "Probably": 3438,
      "bringing": 3439,
      "Although": 3440,
      "camping": 3441,
      "techni": 3442,
      "further": 3443,
      "strategies": 3444,
      "25": 3445,
      "Zoom": 3446,
      "note": 3447,
      "cares": 3448,
      "confused": 3449,
      "Definitely": 3450,
      "unfortunate": 3451,
      "nother": 3452,
      "nerve": 3453,
      "treated": 3454,
      "continu": 3455,
      "cookies": 3456,
      "Anx": 3457,
      "Doing": 3458,
      "parti": 3459,
      "fixed": 3460,
      "responsibility": 3461,
      "recognize": 3462,
      "anguage": 3463,
      "beyond": 3464,
      "Another": 3465,
      "google": 3466,
      "Fri": 3467,
      "killed": 3468,
      "areas": 3469,
      "unsure": 3470,
      "miles": 3471,
      "teachers": 3472,
      "videos": 3473,
      "clearly": 3474,
      "buddy": 3475,
      "flow": 3476,
      "nast": 3477,
      "soft": 3478,
      "buying": 3479,
      "beneficial": 3480,
      "ES": 3481,
      "bc": 3482,
      "eth": 3483,
      "anni": 3484,
      "staff": 3485,
      "ley": 3486,
      "allowed": 3487,
      "signific": 3488,
      "Child": 3489,
      "AL": 3490,
      "Kind": 3491,
      "bre": 3492,
      "wis": 3493,
      "chi": 3494,
      "miser": 3495,
      "benefits": 3496,
      "custom": 3497,
      "yelling": 3498,
      "plenty": 3499,
      "schools": 3500,
      "court": 3501,
      "stranger": 3502,
      "organization": 3503,
      "floor": 3504,
      "annivers": 3505,
      "PTS": 3506,
      "bot": 3507,
      "fing": 3508,
      "mut": 3509,
      "onto": 3510,
      "review": 3511,
      "icious": 3512,
      "talks": 3513,
      "mission": 3514,
      "package": 3515,
      "significant": 3516,
      "PTSD": 3517,
      "16": 3518,
      "Ugh": 3519,
      "bs": 3520,
      "third": 3521,
      "cream": 3522,
      "challenges": 3523,
      "circumstances": 3524,
      "Com": 3525,
      "Too": 3526,
      "feet": 3527,
      "Ther": 3528,
      "speed": 3529,
      "cheer": 3530,
      "raining": 3531,
      "relig": 3532,
      "specialist": 3533,
      "insight": 3534,
      "groceries": 3535,
      "individ": 3536,
      "nic": 3537,
      "adjust": 3538,
      "pper": 3539,
      "cheap": 3540,
      "impressive": 3541,
      "meetings": 3542,
      "quarant": 3543,
      "strength": 3544,
      "scratch": 3545,
      "anniversary": 3546,
      "Got": 3547,
      "fat": 3548,
      "shower": 3549,
      "frequ": 3550,
      "couples": 3551,
      "holding": 3552,
      "direction": 3553,
      "Best": 3554,
      "freak": 3555,
      "items": 3556,
      "wrote": 3557,
      "opening": 3558,
      "covered": 3559,
      "clar": 3560,
      "pleasure": 3561,
      "Congrats": 3562,
      "ibly": 3563,
      "safety": 3564,
      "suffer": 3565,
      "competition": 3566,
      "ee": 3567,
      "oci": 3568,
      "sch": 3569,
      "abor": 3570,
      "chocol": 3571,
      "choices": 3572,
      "youngest": 3573,
      "ware": 3574,
      "wall": 3575,
      "employees": 3576,
      "reduce": 3577,
      "delivery": 3578,
      "Friends": 3579,
      "Bo": 3580,
      "HR": 3581,
      "ilies": 3582,
      "som": 3583,
      "familiar": 3584,
      "potential": 3585,
      "ked": 3586,
      "race": 3587,
      "tries": 3588,
      "compare": 3589,
      "unhappy": 3590,
      "properly": 3591,
      "effects": 3592,
      "government": 3593,
      "dumped": 3594,
      "vil": 3595,
      "ony": 3596,
      "doors": 3597,
      "bummer": 3598,
      "mater": 3599,
      "sisters": 3600,
      "viol": 3601,
      "matters": 3602,
      "traumatic": 3603,
      "website": 3604,
      "dying": 3605,
      "lazy": 3606,
      "plate": 3607,
      "stronger": 3608,
      "friendships": 3609,
      "immediately": 3610,
      "Pre": 3611,
      "parts": 3612,
      "passing": 3613,
      "ignore": 3614,
      "Amer": 3615,
      "ror": 3616,
      "reaction": 3617,
      "dear": 3618,
      "nights": 3619,
      "appreciated": 3620,
      "spirit": 3621,
      "loyal": 3622,
      "Americ": 3623,
      "13": 3624,
      "flight": 3625,
      "mort": 3626,
      "force": 3627,
      "wash": 3628,
      "lass": 3629,
      "affair": 3630,
      "tors": 3631,
      "appropri": 3632,
      "trigger": 3633,
      "effective": 3634,
      "nasty": 3635,
      "jump": 3636,
      "sis": 3637,
      "sli": 3638,
      "selfish": 3639,
      "actual": 3640,
      "sooner": 3641,
      "employer": 3642,
      "Anxiety": 3643,
      "bilities": 3644,
      "xic": 3645,
      "init": 3646,
      "ida": 3647,
      "nightma": 3648,
      "succeed": 3649,
      "severe": 3650,
      "promise": 3651,
      "satisfied": 3652,
      "bi": 3653,
      "ience": 3654,
      "squ": 3655,
      "tour": 3656,
      "loc": 3657,
      "families": 3658,
      "center": 3659,
      "involve": 3660,
      "medicine": 3661,
      "split": 3662,
      "Ive": 3663,
      "ht": 3664,
      "besides": 3665,
      "ghost": 3666,
      "contribut": 3667,
      "ruined": 3668,
      "enjoying": 3669,
      "promised": 3670,
      "dreams": 3671,
      "riding": 3672,
      "mistakes": 3673,
      "score": 3674,
      "heavy": 3675,
      "education": 3676,
      "21": 3677,
      "Give": 3678,
      "fla": 3679,
      "hmm": 3680,
      "rate": 3681,
      "rup": 3682,
      "scen": 3683,
      "mechan": 3684,
      "surely": 3685,
      "disrespect": 3686,
      "earn": 3687,
      "Recent": 3688,
      "Children": 3689,
      "gers": 3690,
      "gather": 3691,
      "vom": 3692,
      "suit": 3693,
      "extens": 3694,
      "indust": 3695,
      "spilled": 3696,
      "pted": 3697,
      "Cool": 3698,
      "assume": 3699,
      "discussion": 3700,
      "Dou": 3701,
      "ape": 3702,
      "omy": 3703,
      "itary": 3704,
      "wasnt": 3705,
      "worthy": 3706,
      "counter": 3707,
      "plane": 3708,
      "capa": 3709,
      "trained": 3710,
      "smoking": 3711,
      "candy": 3712,
      "Recently": 3713,
      "diss": 3714,
      "rock": 3715,
      "aring": 3716,
      "iling": 3717,
      "whom": 3718,
      "opened": 3719,
      "Before": 3720,
      "focusing": 3721,
      "doctors": 3722,
      "judg": 3723,
      "Therap": 3724,
      "chocolate": 3725,
      "inj": 3726,
      "atively": 3727,
      "youtube": 3728,
      "arm": 3729,
      "letter": 3730,
      "therapists": 3731,
      "priv": 3732,
      "figured": 3733,
      "layoff": 3734,
      "waste": 3735,
      "breaths": 3736,
      "hide": 3737,
      "thri": 3738,
      "era": 3739,
      "beer": 3740,
      "ify": 3741,
      "happier": 3742,
      "homework": 3743,
      "senior": 3744,
      "Mer": 3745,
      "ban": 3746,
      "ots": 3747,
      "trapped": 3748,
      "idge": 3749,
      "chick": 3750,
      "lights": 3751,
      "approved": 3752,
      "behaviour": 3753,
      "require": 3754,
      "guidance": 3755,
      "incredibly": 3756,
      "dumb": 3757,
      "multi": 3758,
      "osing": 3759,
      "wan": 3760,
      "ellent": 3761,
      "cars": 3762,
      "grown": 3763,
      "quest": 3764,
      "draw": 3765,
      "cruise": 3766,
      "ese": 3767,
      "eye": 3768,
      "reaking": 3769,
      "disorder": 3770,
      "afterwards": 3771,
      "struggles": 3772,
      "drop": 3773,
      "legal": 3774,
      "separated": 3775,
      "Plus": 3776,
      "OU": 3777,
      "uary": 3778,
      "anytime": 3779,
      "speech": 3780,
      "blings": 3781,
      "occup": 3782,
      "HE": 3783,
      "sold": 3784,
      "determin": 3785,
      "uni": 3786,
      "workout": 3787,
      "fulfill": 3788,
      "distracted": 3789,
      "laund": 3790,
      "About": 3791,
      "describe": 3792,
      "routine": 3793,
      "department": 3794,
      "messed": 3795,
      "acks": 3796,
      "oldest": 3797,
      "dealt": 3798,
      "prescri": 3799,
      "identify": 3800,
      "ired": 3801,
      "kit": 3802,
      "language": 3803,
      "zz": 3804,
      "ann": 3805,
      "aband": 3806,
      "terms": 3807,
      "plus": 3808,
      "overall": 3809,
      "avoiding": 3810,
      "arently": 3811,
      "difficulty": 3812,
      "soo": 3813,
      "showing": 3814,
      "gifts": 3815,
      "Start": 3816,
      "17": 3817,
      "zon": 3818,
      "ancy": 3819,
      "reject": 3820,
      "elled": 3821,
      "sports": 3822,
      "Find": 3823,
      "request": 3824,
      "orida": 3825,
      "iding": 3826,
      "rican": 3827,
      "emer": 3828,
      "tax": 3829,
      "moms": 3830,
      "create": 3831,
      "flash": 3832,
      "miserable": 3833,
      "blow": 3834,
      "cast": 3835,
      "wave": 3836,
      "abusive": 3837,
      "intro": 3838,
      "tree": 3839,
      "basic": 3840,
      "charge": 3841,
      "schol": 3842,
      "laundry": 3843,
      "tight": 3844,
      "adays": 3845,
      "profile": 3846,
      "bored": 3847,
      "ilt": 3848,
      "contest": 3849,
      "associ": 3850,
      "pleased": 3851,
      "coaster": 3852,
      "laptop": 3853,
      "Facebook": 3854,
      "24": 3855,
      "Ama": 3856,
      "Che": 3857,
      "ison": 3858,
      "white": 3859,
      "couch": 3860,
      "partners": 3861,
      "salary": 3862,
      "employee": 3863,
      "garden": 3864,
      "industry": 3865,
      "Cali": 3866,
      "fic": 3867,
      "match": 3868,
      "ana": 3869,
      "release": 3870,
      "aly": 3871,
      "upon": 3872,
      "mming": 3873,
      "expense": 3874,
      "None": 3875,
      "filled": 3876,
      "sc": 3877,
      "ug": 3878,
      "react": 3879,
      "replace": 3880,
      "closing": 3881,
      "highly": 3882,
      "interviews": 3883,
      "arship": 3884,
      "preparing": 3885,
      "intendo": 3886,
      "mutual": 3887,
      "Here": 3888,
      "jer": 3889,
      "forth": 3890,
      "otherwise": 3891,
      "boring": 3892,
      "corner": 3893,
      "Remember": 3894,
      "cleaned": 3895,
      "warm": 3896,
      "bothers": 3897,
      "glass": 3898,
      "enter": 3899,
      "illness": 3900,
      "Whenever": 3901,
      "types": 3902,
      "demand": 3903,
      "performance": 3904,
      "shelter": 3905,
      "appropriate": 3906,
      "Ouch": 3907,
      "stinks": 3908,
      "worries": 3909,
      "ished": 3910,
      "disgusting": 3911,
      "distancing": 3912,
      "sky": 3913,
      "increased": 3914,
      "scholarship": 3915,
      "cti": 3916,
      "mic": 3917,
      "expo": 3918,
      "siblings": 3919,
      "chased": 3920,
      "ail": 3921,
      "evalu": 3922,
      "sand": 3923,
      "tho": 3924,
      "independ": 3925,
      "toxic": 3926,
      "fornia": 3927,
      "irty": 3928,
      "pression": 3929,
      "relative": 3930,
      "complex": 3931,
      "function": 3932,
      "colleag": 3933,
      "desire": 3934,
      "failure": 3935,
      "communicating": 3936,
      "qualified": 3937,
      "insom": 3938,
      "atic": 3939,
      "Think": 3940,
      "chose": 3941,
      "advise": 3942,
      "troubling": 3943,
      "fairly": 3944,
      "www": 3945,
      "requires": 3946,
      "including": 3947,
      "dangerous": 3948,
      "temporary": 3949,
      "App": 3950,
      "hum": 3951,
      "utic": 3952,
      "ada": 3953,
      "lawn": 3954,
      "channel": 3955,
      "agencies": 3956,
      "baseball": 3957,
      "aper": 3958,
      "recor": 3959,
      "dee": 3960,
      "causes": 3961,
      "amazed": 3962,
      "encouragement": 3963,
      "occas": 3964,
      "concentrate": 3965,
      "betrayed": 3966,
      "consul": 3967,
      "Merry": 3968,
      "Fin": 3969,
      "Iam": 3970,
      "cro": 3971,
      "evid": 3972,
      "flying": 3973,
      "jumped": 3974,
      "cop": 3975,
      "gotta": 3976,
      "incident": 3977,
      "quality": 3978,
      "Happ": 3979,
      "Sund": 3980,
      "ges": 3981,
      "mill": 3982,
      "tty": 3983,
      "altern": 3984,
      "vet": 3985,
      "tim": 3986,
      "pee": 3987,
      "iest": 3988,
      "plant": 3989,
      "supplies": 3990,
      "household": 3991,
      "distant": 3992,
      "shake": 3993,
      "license": 3994,
      "isolating": 3995,
      "hungry": 3996,
      "soul": 3997,
      "stic": 3998,
      "todd": 3999,
      "roof": 4000,
      "ulous": 4001,
      "winning": 4002,
      "gging": 4003,
      "Doug": 4004,
      "pes": 4005,
      "pun": 4006,
      "source": 4007,
      "ses": 4008,
      "ution": 4009,
      "debt": 4010,
      "babies": 4011,
      "hurtful": 4012,
      "engage": 4013,
      "smaller": 4014,
      "nearly": 4015,
      "swimming": 4016,
      "Lol": 4017,
      "cul": 4018,
      "tun": 4019,
      "therape": 4020,
      "sym": 4021,
      "exercises": 4022,
      "divorced": 4023,
      "typically": 4024,
      "committed": 4025,
      "accepting": 4026,
      "fol": 4027,
      "total": 4028,
      "becomes": 4029,
      "hesit": 4030,
      "raised": 4031,
      "breaks": 4032,
      "bud": 4033,
      "paycheck": 4034,
      "2020": 4035,
      "application": 4036,
      "Talking": 4037,
      "California": 4038,
      "urs": 4039,
      "reass": 4040,
      "nerves": 4041,
      "differently": 4042,
      "journey": 4043,
      "additional": 4044,
      "fantastic": 4045,
      "therapeutic": 4046,
      "Had": 4047,
      "lough": 4048,
      "mall": 4049,
      "niece": 4050,
      "hire": 4051,
      "stories": 4052,
      "isolation": 4053,
      "furlough": 4054,
      "assignment": 4055,
      "Sup": 4056,
      "procrast": 4057,
      "cards": 4058,
      "cared": 4059,
      "ques": 4060,
      "excellent": 4061,
      "regularly": 4062,
      "exhausted": 4063,
      "emergen": 4064,
      "OH": 4065,
      "ship": 4066,
      "belong": 4067,
      "promoted": 4068,
      "circle": 4069,
      "previously": 4070,
      "wasted": 4071,
      "productive": 4072,
      "machine": 4073,
      "signing": 4074,
      "bummed": 4075,
      "apologize": 4076,
      "particip": 4077,
      "35": 4078,
      "Fam": 4079,
      "Ph": 4080,
      "gender": 4081,
      "resol": 4082,
      "elder": 4083,
      "rules": 4084,
      "shoot": 4085,
      "pregnancy": 4086,
      "ites": 4087,
      "forced": 4088,
      "helpless": 4089,
      "surv": 4090,
      "military": 4091,
      "songs": 4092,
      "damage": 4093,
      "fart": 4094,
      "tin": 4095,
      "toys": 4096,
      "trad": 4097,
      "visiting": 4098,
      "mixed": 4099,
      "pursue": 4100,
      "multiple": 4101,
      "awake": 4102,
      "hated": 4103,
      "isnt": 4104,
      "abl": 4105,
      "unemployed": 4106,
      "shock": 4107,
      "logical": 4108,
      "tripped": 4109,
      "grie": 4110,
      "Super": 4111,
      "Yout": 4112,
      "denti": 4113,
      "selling": 4114,
      "anuary": 4115,
      "inting": 4116,
      "surve": 4117,
      "handling": 4118,
      "killing": 4119,
      "milk": 4120,
      "Youtube": 4121,
      "block": 4122,
      "sle": 4123,
      "locked": 4124,
      "possibility": 4125,
      "via": 4126,
      "heartbroken": 4127,
      "counsell": 4128,
      "racing": 4129,
      "teenager": 4130,
      "Pretty": 4131,
      "Break": 4132,
      "bread": 4133,
      "cap": 4134,
      "une": 4135,
      "vic": 4136,
      "itions": 4137,
      "hired": 4138,
      "propo": 4139,
      "aster": 4140,
      "cheese": 4141,
      "attacks": 4142,
      "society": 4143,
      "Therapy": 4144,
      "abandon": 4145,
      "mart": 4146,
      "spr": 4147,
      "ids": 4148,
      "packed": 4149,
      "nowadays": 4150,
      "grandfather": 4151,
      "aked": 4152,
      "relaxed": 4153,
      "behaviors": 4154,
      "000": 4155,
      "clin": 4156,
      "medications": 4157,
      "Disney": 4158,
      "ricane": 4159,
      "remot": 4160,
      "lovely": 4161,
      "urally": 4162,
      "shirt": 4163,
      "standard": 4164,
      "interests": 4165,
      "graduation": 4166,
      "qualify": 4167,
      "obviously": 4168,
      "quarantine": 4169,
      "private": 4170,
      "Mom": 4171,
      "somebody": 4172,
      "model": 4173,
      "marry": 4174,
      "restri": 4175,
      "failing": 4176,
      "provider": 4177,
      "temper": 4178,
      "delivered": 4179,
      "nuts": 4180,
      "slight": 4181,
      "conse": 4182,
      "prove": 4183,
      "brothers": 4184,
      "drinks": 4185,
      "numbers": 4186,
      "judge": 4187,
      "evidence": 4188,
      "Ad": 4189,
      "mouth": 4190,
      "stair": 4191,
      "thetic": 4192,
      "ario": 4193,
      "fright": 4194,
      "unfair": 4195,
      "ury": 4196,
      "auto": 4197,
      "terrifying": 4198,
      "delicious": 4199,
      "projects": 4200,
      "throwing": 4201,
      "praying": 4202,
      "pushing": 4203,
      "commitment": 4204,
      "relieved": 4205,
      "Engl": 4206,
      "wreck": 4207,
      "folks": 4208,
      "Uber": 4209,
      "Ve": 4210,
      "fed": 4211,
      "comb": 4212,
      "compassion": 4213,
      "deb": 4214,
      "ulation": 4215,
      "threat": 4216,
      "nail": 4217,
      "followed": 4218,
      "cases": 4219,
      "flix": 4220,
      "Sunday": 4221,
      "swe": 4222,
      "wit": 4223,
      "stain": 4224,
      "verage": 4225,
      "dishes": 4226,
      "stomach": 4227,
      "Instead": 4228,
      "charac": 4229,
      "diagnosis": 4230,
      "Makes": 4231,
      "bowl": 4232,
      "wishes": 4233,
      "ba": 4234,
      "freaking": 4235,
      "uct": 4236,
      "ams": 4237,
      "prevent": 4238,
      "throughout": 4239,
      "thankfully": 4240,
      "ikes": 4241,
      "necessarily": 4242,
      "agreed": 4243,
      "techniques": 4244,
      "fil": 4245,
      "nam": 4246,
      "vul": 4247,
      "repair": 4248,
      "toll": 4249,
      "suck": 4250,
      "wouldnt": 4251,
      "shouldnt": 4252,
      "puts": 4253,
      "stays": 4254,
      "entially": 4255,
      "pued": 4256,
      "hug": 4257,
      "sibling": 4258,
      "began": 4259,
      "Donal": 4260,
      "personality": 4261,
      "presents": 4262,
      "camp": 4263,
      "applications": 4264,
      "robbed": 4265,
      "World": 4266,
      "emergency": 4267,
      "More": 4268,
      "Tom": 4269,
      "ky": 4270,
      "stable": 4271,
      "formed": 4272,
      "gold": 4273,
      "ache": 4274,
      "olen": 4275,
      "points": 4276,
      "burger": 4277,
      "contract": 4278,
      "individual": 4279,
      "capable": 4280,
      "vit": 4281,
      "stolen": 4282,
      "vert": 4283,
      "surround": 4284,
      "settle": 4285,
      "crap": 4286,
      "treats": 4287,
      "drove": 4288,
      "science": 4289,
      "spider": 4290,
      "tools": 4291,
      "honor": 4292,
      "dentist": 4293,
      "counsellor": 4294,
      "Fl": 4295,
      "cue": 4296,
      "picking": 4297,
      "twin": 4298,
      "anti": 4299,
      "host": 4300,
      "rap": 4301,
      "everybody": 4302,
      "sons": 4303,
      "fridge": 4304,
      "shape": 4305,
      "version": 4306,
      "bedroom": 4307,
      "delay": 4308,
      "depending": 4309,
      "chances": 4310,
      "required": 4311,
      "volunteer": 4312,
      "engineering": 4313,
      "beliefs": 4314,
      "budget": 4315,
      "80": 4316,
      "LY": 4317,
      "Went": 4318,
      "Year": 4319,
      "toi": 4320,
      "ency": 4321,
      "gosh": 4322,
      "empt": 4323,
      "tele": 4324,
      "boyfriends": 4325,
      "grandparents": 4326,
      "suggested": 4327,
      "topic": 4328,
      "mainly": 4329,
      "mates": 4330,
      "depends": 4331,
      "perfectly": 4332,
      "ignored": 4333,
      "irritated": 4334,
      "method": 4335,
      "chicken": 4336,
      "Family": 4337,
      "Over": 4338,
      "aid": 4339,
      "yelled": 4340,
      "tos": 4341,
      "fection": 4342,
      "shes": 4343,
      "hardly": 4344,
      "alloween": 4345,
      "submit": 4346,
      "Stay": 4347,
      "increase": 4348,
      "Correct": 4349,
      "toddler": 4350,
      "vulner": 4351,
      "January": 4352,
      "Other": 4353,
      "Wa": 4354,
      "bby": 4355,
      "fle": 4356,
      "limit": 4357,
      "comments": 4358,
      "abused": 4359,
      "oper": 4360,
      "created": 4361,
      "creating": 4362,
      "skin": 4363,
      "200": 4364,
      "randomly": 4365,
      "attractive": 4366,
      "congrat": 4367,
      "Amazon": 4368,
      "stairs": 4369,
      "YOU": 4370,
      "dig": 4371,
      "nit": 4372,
      "kes": 4373,
      "defin": 4374,
      "bros": 4375,
      "effor": 4376,
      "dile": 4377,
      "patter": 4378,
      "tutor": 4379,
      "orders": 4380,
      "NOT": 4381,
      "cancelled": 4382,
      "texting": 4383,
      "Florida": 4384,
      "toilet": 4385,
      "Coun": 4386,
      "March": 4387,
      "York": 4388,
      "gage": 4389,
      "spre": 4390,
      "mature": 4391,
      "habits": 4392,
      "Med": 4393,
      "Next": 4394,
      "award": 4395,
      "cross": 4396,
      "ico": 4397,
      "lord": 4398,
      "pm": 4399,
      "stance": 4400,
      "retire": 4401,
      "bear": 4402,
      "ared": 4403,
      "peer": 4404,
      "hole": 4405,
      "fulness": 4406,
      "Whats": 4407,
      "waking": 4408,
      "creep": 4409,
      "hates": 4410,
      "luckily": 4411,
      "ski": 4412,
      "Read": 4413,
      "dates": 4414,
      "Losing": 4415,
      "sne": 4416,
      "info": 4417,
      "sters": 4418,
      "retail": 4419,
      "mes": 4420,
      "root": 4421,
      "irus": 4422,
      "romantic": 4423,
      "backs": 4424,
      "built": 4425,
      "resent": 4426,
      "exercising": 4427,
      "particularly": 4428,
      "ridic": 4429,
      "economy": 4430,
      "patterns": 4431,
      "dum": 4432,
      "mma": 4433,
      "rot": 4434,
      "sor": 4435,
      "inated": 4436,
      "icle": 4437,
      "ably": 4438,
      "nose": 4439,
      "talent": 4440,
      "istic": 4441,
      "guard": 4442,
      "phones": 4443,
      "price": 4444,
      "finances": 4445,
      "Trying": 4446,
      "papers": 4447,
      "peaceful": 4448,
      "suicide": 4449,
      "frequently": 4450,
      "PA": 4451,
      "Two": 4452,
      "argue": 4453,
      "ician": 4454,
      "motor": 4455,
      "union": 4456,
      "hitting": 4457,
      "states": 4458,
      "leads": 4459,
      "joined": 4460,
      "blamed": 4461,
      "include": 4462,
      "meaningful": 4463,
      "efforts": 4464,
      "dirty": 4465,
      "uro": 4466,
      "yell": 4467,
      "stim": 4468,
      "atta": 4469,
      "lling": 4470,
      "stub": 4471,
      "basement": 4472,
      "affects": 4473,
      "allows": 4474,
      "savings": 4475,
      "wanna": 4476,
      "colleagues": 4477,
      "spread": 4478,
      "Bas": 4479,
      "Same": 4480,
      "cell": 4481,
      "nor": 4482,
      "rang": 4483,
      "impossible": 4484,
      "checking": 4485,
      "counselors": 4486,
      "gged": 4487,
      "traveling": 4488,
      "virtually": 4489,
      "professors": 4490,
      "websites": 4491,
      "AA": 4492,
      "DO": 4493,
      "Dang": 4494,
      "mand": 4495,
      "accur": 4496,
      "exact": 4497,
      "conven": 4498,
      "shy": 4499,
      "intense": 4500,
      "craft": 4501,
      "naturally": 4502,
      "joining": 4503,
      "flat": 4504,
      "swim": 4505,
      "brave": 4506,
      "HAT": 4507,
      "lean": 4508,
      "artic": 4509,
      "blessing": 4510,
      "immu": 4511,
      "mary": 4512,
      "drivers": 4513,
      "trail": 4514,
      "supporting": 4515,
      "Exerc": 4516,
      "dollar": 4517,
      "stealing": 4518,
      "assignments": 4519,
      "uncertainty": 4520,
      "restrictions": 4521,
      "immune": 4522,
      "Bet": 4523,
      "Hu": 4524,
      "tea": 4525,
      "insecure": 4526,
      "reply": 4527,
      "series": 4528,
      "smoke": 4529,
      "Usu": 4530,
      "mun": 4531,
      "cock": 4532,
      "anybody": 4533,
      "nology": 4534,
      "backyard": 4535,
      "curious": 4536,
      "oppo": 4537,
      "ountain": 4538,
      "screen": 4539,
      "crashed": 4540,
      "survivor": 4541,
      "alternative": 4542,
      "Sp": 4543,
      "pie": 4544,
      "reci": 4545,
      "veh": 4546,
      "contacting": 4547,
      "stores": 4548,
      "cutting": 4549,
      "Looking": 4550,
      "adults": 4551,
      "genu": 4552,
      "flood": 4553,
      "signed": 4554,
      "Usually": 4555,
      "Ac": 4556,
      "Act": 4557,
      "ina": 4558,
      "aling": 4559,
      "weak": 4560,
      "pred": 4561,
      "held": 4562,
      "useless": 4563,
      "shown": 4564,
      "distress": 4565,
      "hahaha": 4566,
      "expressing": 4567,
      "laughing": 4568,
      "practicing": 4569,
      "mortgage": 4570,
      "rejected": 4571,
      "expenses": 4572,
      "opposite": 4573,
      "Due": 4574,
      "ax": 4575,
      "ressed": 4576,
      "serve": 4577,
      "aside": 4578,
      "page": 4579,
      "unted": 4580,
      "fearful": 4581,
      "headed": 4582,
      "visited": 4583,
      "managed": 4584,
      "contacted": 4585,
      "accomplishment": 4586,
      "convince": 4587,
      "appearance": 4588,
      "Happy": 4589,
      "90": 4590,
      "fru": 4591,
      "flies": 4592,
      "link": 4593,
      "abilities": 4594,
      "cons": 4595,
      "carpet": 4596,
      "guide": 4597,
      "bird": 4598,
      "accomplished": 4599,
      "destroyed": 4600,
      "initi": 4601,
      "sandwi": 4602,
      "million": 4603,
      "dilemma": 4604,
      "Add": 4605,
      "Eag": 4606,
      "ctr": 4607,
      "stat": 4608,
      "station": 4609,
      "rome": 4610,
      "neither": 4611,
      "friendly": 4612,
      "workplace": 4613,
      "certi": 4614,
      "tears": 4615,
      "cape": 4616,
      "ivity": 4617,
      "leaves": 4618,
      "deeply": 4619,
      "organis": 4620,
      "fishing": 4621,
      "repeat": 4622,
      "arrived": 4623,
      "scenario": 4624,
      "South": 4625,
      "orrow": 4626,
      "define": 4627,
      "exas": 4628,
      "cture": 4629,
      "lessons": 4630,
      "classi": 4631,
      "desper": 4632,
      "competent": 4633,
      "occasion": 4634,
      "Eagles": 4635,
      "Le": 4636,
      "dut": 4637,
      "thru": 4638,
      "nder": 4639,
      "solutions": 4640,
      "restaurants": 4641,
      "masks": 4642,
      "strategy": 4643,
      "triggers": 4644,
      "convin": 4645,
      "written": 4646,
      "customer": 4647,
      "religious": 4648,
      "America": 4649,
      "bio": 4650,
      "resolve": 4651,
      "coll": 4652,
      "seas": 4653,
      "tip": 4654,
      "paran": 4655,
      "diving": 4656,
      "ival": 4657,
      "attacked": 4658,
      "electr": 4659,
      "congrats": 4660,
      "continuing": 4661,
      "htt": 4662,
      "fulfilling": 4663,
      "tiny": 4664,
      "Exercise": 4665,
      "organisations": 4666,
      "Still": 4667,
      "dit": 4668,
      "ghe": 4669,
      "infect": 4670,
      "inspir": 4671,
      "odd": 4672,
      "hier": 4673,
      "establ": 4674,
      "schooling": 4675,
      "intel": 4676,
      "grandson": 4677,
      "nado": 4678,
      "cloud": 4679,
      "nearby": 4680,
      "separate": 4681,
      "repeated": 4682,
      "fingers": 4683,
      "sympa": 4684,
      "elderly": 4685,
      "Uh": 4686,
      "range": 4687,
      "edom": 4688,
      "outcome": 4689,
      "YouT": 4690,
      "discovered": 4691,
      "closest": 4692,
      "drives": 4693,
      "rescue": 4694,
      "offering": 4695,
      "tension": 4696,
      "texts": 4697,
      "knocked": 4698,
      "ligent": 4699,
      "limited": 4700,
      "slightly": 4701,
      "Tomorrow": 4702,
      "Texas": 4703,
      "average": 4704,
      "hall": 4705,
      "kiss": 4706,
      "oil": 4707,
      "Thinking": 4708,
      "hero": 4709,
      "understands": 4710,
      "downs": 4711,
      "advis": 4712,
      "hurricane": 4713,
      "basis": 4714,
      "connecting": 4715,
      "laying": 4716,
      "AD": 4717,
      "SO": 4718,
      "mirr": 4719,
      "sending": 4720,
      "ero": 4721,
      "stoked": 4722,
      "neck": 4723,
      "urday": 4724,
      "relatively": 4725,
      "realise": 4726,
      "minist": 4727,
      "attempt": 4728,
      "2021": 4729,
      "refused": 4730,
      "climb": 4731,
      "camera": 4732,
      "transfer": 4733,
      "strive": 4734,
      "consult": 4735,
      "ursday": 4736,
      "vehicle": 4737,
      "60": 4738,
      "lab": 4739,
      "scri": 4740,
      "vy": 4741,
      "asy": 4742,
      "disappo": 4743,
      "woods": 4744,
      "Always": 4745,
      "rained": 4746,
      "patience": 4747,
      "improving": 4748,
      "developed": 4749,
      "clarify": 4750,
      "disappointing": 4751,
      "AT": 4752,
      "ME": 4753,
      "Parent": 4754,
      "punch": 4755,
      "pounds": 4756,
      "alarm": 4757,
      "paint": 4758,
      "packing": 4759,
      "providing": 4760,
      "grab": 4761,
      "disease": 4762,
      "scares": 4763,
      "Inter": 4764,
      "freedom": 4765,
      "nervousness": 4766,
      "painting": 4767,
      "bothered": 4768,
      "burn": 4769,
      "levels": 4770,
      "competitive": 4771,
      "recovery": 4772,
      "chase": 4773,
      "difficulties": 4774,
      "participate": 4775,
      "accurate": 4776,
      "Mc": 4777,
      "Stu": 4778,
      "chair": 4779,
      "jum": 4780,
      "cts": 4781,
      "bomb": 4782,
      "needing": 4783,
      "Nope": 4784,
      "Indeed": 4785,
      "continues": 4786,
      "burned": 4787,
      "Depression": 4788,
      "Seems": 4789,
      "arguing": 4790,
      "Trust": 4791,
      "acceptable": 4792,
      "furloughed": 4793,
      "Ap": 4794,
      "Ar": 4795,
      "Ask": 4796,
      "cket": 4797,
      "itor": 4798,
      "lun": 4799,
      "nament": 4800,
      "yo": 4801,
      "ino": 4802,
      "stability": 4803,
      "els": 4804,
      "whil": 4805,
      "ember": 4806,
      "background": 4807,
      "apps": 4808,
      "houses": 4809,
      "parties": 4810,
      "player": 4811,
      "color": 4812,
      "basket": 4813,
      "Dec": 4814,
      "legally": 4815,
      "responsibilities": 4816,
      "reminds": 4817,
      "flir": 4818,
      "provided": 4819,
      "concentr": 4820,
      "occupied": 4821,
      "exposure": 4822,
      "deeper": 4823,
      "survive": 4824,
      "Mine": 4825,
      "Nintendo": 4826,
      "Pr": 4827,
      "ients": 4828,
      "anted": 4829,
      "escape": 4830,
      "tast": 4831,
      "saf": 4832,
      "ously": 4833,
      "aggre": 4834,
      "breast": 4835,
      "Alcohol": 4836,
      "Christ": 4837,
      "horror": 4838,
      "increasing": 4839,
      "atory": 4840,
      "rewarding": 4841,
      "destroy": 4842,
      "resolved": 4843,
      "congratulations": 4844,
      "Basically": 4845,
      "sandwich": 4846,
      "HO": 4847,
      "cab": 4848,
      "rely": 4849,
      "blessed": 4850,
      "lif": 4851,
      "explan": 4852,
      "everytime": 4853,
      "overseas": 4854,
      "contem": 4855,
      "tornado": 4856,
      "sided": 4857,
      "lower": 4858,
      "signs": 4859,
      "dude": 4860,
      "attracted": 4861,
      "relieve": 4862,
      "kicked": 4863,
      "spoke": 4864,
      "bottle": 4865,
      "Both": 4866,
      "slept": 4867,
      "ridiculous": 4868,
      "Grand": 4869,
      "election": 4870,
      "fro": 4871,
      "ugh": 4872,
      "input": 4873,
      "influ": 4874,
      "onav": 4875,
      "deter": 4876,
      "weigh": 4877,
      "underlying": 4878,
      "standing": 4879,
      "faster": 4880,
      "ruin": 4881,
      "rule": 4882,
      "interaction": 4883,
      "minim": 4884,
      "earning": 4885,
      "logist": 4886,
      "grass": 4887,
      "Marie": 4888,
      "exhausting": 4889,
      "ville": 4890,
      "independent": 4891,
      "tunnel": 4892,
      "Counsel": 4893,
      "Actually": 4894,
      "Mex": 4895,
      "cart": 4896,
      "equ": 4897,
      "ii": 4898,
      "utr": 4899,
      "tom": 4900,
      "itar": 4901,
      "happily": 4902,
      "sitive": 4903,
      "lifetime": 4904,
      "manner": 4905,
      "Thankfully": 4906,
      "izes": 4907,
      "believed": 4908,
      "payment": 4909,
      "pastor": 4910,
      "drank": 4911,
      "calming": 4912,
      "parks": 4913,
      "snacks": 4914,
      "cooked": 4915,
      "iano": 4916,
      "Look": 4917,
      "technology": 4918,
      "procrastin": 4919,
      "whilst": 4920,
      "onavirus": 4921,
      "egg": 4922,
      "hund": 4923,
      "sive": 4924,
      "sens": 4925,
      "swear": 4926,
      "analy": 4927,
      "haunted": 4928,
      "ripped": 4929,
      "fries": 4930,
      "expl": 4931,
      "unfaithful": 4932,
      "lake": 4933,
      "breakfast": 4934,
      "listened": 4935,
      "solid": 4936,
      "Been": 4937,
      "allowing": 4938,
      "posted": 4939,
      "valuable": 4940,
      "crushed": 4941,
      "unique": 4942,
      "mirror": 4943,
      "Dep": 4944,
      "Know": 4945,
      "Night": 4946,
      "bage": 4947,
      "dam": 4948,
      "ker": 4949,
      "rec": 4950,
      "heat": 4951,
      "fake": 4952,
      "comprom": 4953,
      "mber": 4954,
      "creat": 4955,
      "mile": 4956,
      "supporter": 4957,
      "purchased": 4958,
      "organized": 4959,
      "appears": 4960,
      "garage": 4961,
      "various": 4962,
      "character": 4963,
      "During": 4964,
      "Ro": 4965,
      "Rel": 4966,
      "fond": 4967,
      "kne": 4968,
      "bless": 4969,
      "mothers": 4970,
      "owner": 4971,
      "ague": 4972,
      "confide": 4973,
      "freel": 4974,
      "considerate": 4975,
      "actively": 4976,
      "spiders": 4977,
      "suicid": 4978,
      "AC": 4979,
      "TH": 4980,
      "las": 4981,
      "nar": 4982,
      "nes": 4983,
      "thus": 4984,
      "loans": 4985,
      "poss": 4986,
      "closet": 4987,
      "earth": 4988,
      "vomited": 4989,
      "relatives": 4990,
      "safely": 4991,
      "dance": 4992,
      "dump": 4993,
      "sight": 4994,
      "los": 4995,
      "lover": 4996,
      "ications": 4997,
      "suspect": 4998,
      "apparently": 4999,
      "county": 5000,
      "chest": 5001,
      "teeth": 5002,
      "managing": 5003,
      "assum": 5004,
      "misunderstanding": 5005,
      "garbage": 5006,
      "material": 5007,
      "LE": 5008,
      "aven": 5009,
      "lbs": 5010,
      "thor": 5011,
      "sustain": 5012,
      "acion": 5013,
      "igin": 5014,
      "lesson": 5015,
      "engaging": 5016,
      "finishing": 5017,
      "essential": 5018,
      "borrowed": 5019,
      "proposed": 5020,
      "Parents": 5021,
      "AM": 5022,
      "Mus": 5023,
      "Sat": 5024,
      "bond": 5025,
      "ckey": 5026,
      "wine": 5027,
      "served": 5028,
      "veter": 5029,
      "aller": 5030,
      "sales": 5031,
      "bucks": 5032,
      "friday": 5033,
      "insane": 5034,
      "dedic": 5035,
      "coasters": 5036,
      "associate": 5037,
      "remote": 5038,
      "Vegas": 5039,
      "vulnerable": 5040,
      "Abu": 5041,
      "Bye": 5042,
      "Ten": 5043,
      "VER": 5044,
      "gut": 5045,
      "hits": 5046,
      "mower": 5047,
      "toe": 5048,
      "owe": 5049,
      "entered": 5050,
      "pear": 5051,
      "taste": 5052,
      "mentary": 5053,
      "proof": 5054,
      "ints": 5055,
      "interactions": 5056,
      "phy": 5057,
      "para": 5058,
      "remembering": 5059,
      "driveway": 5060,
      "instance": 5061,
      "cruel": 5062,
      "invested": 5063,
      "flowers": 5064,
      "nightmare": 5065,
      "dissol": 5066,
      "grieving": 5067,
      "abandoned": 5068,
      "consequ": 5069,
      "UK": 5070,
      "Yikes": 5071,
      "dry": 5072,
      "glo": 5073,
      "inf": 5074,
      "cher": 5075,
      "Though": 5076,
      "hiking": 5077,
      "tooth": 5078,
      "corpor": 5079,
      "reflection": 5080,
      "encouraging": 5081,
      "awareness": 5082,
      "brief": 5083,
      "ING": 5084,
      "breed": 5085,
      "Better": 5086,
      "Col": 5087,
      "GO": 5088,
      "Wal": 5089,
      "gan": 5090,
      "nap": 5091,
      "pit": 5092,
      "sac": 5093,
      "shad": 5094,
      "forms": 5095,
      "keys": 5096,
      "sund": 5097,
      "supr": 5098,
      "ops": 5099,
      "names": 5100,
      "vaccines": 5101,
      "behavioral": 5102,
      "techn": 5103,
      "intimid": 5104,
      "opinions": 5105,
      "temporarily": 5106,
      "critical": 5107,
      "econom": 5108,
      "aspects": 5109,
      "tournament": 5110,
      "English": 5111,
      "urope": 5112,
      "advisor": 5113,
      "Appear": 5114,
      "Abuse": 5115,
      "Appearance": 5116,
      "Fo": 5117,
      "PC": 5118,
      "pod": 5119,
      "anced": 5120,
      "sugar": 5121,
      "disagree": 5122,
      "entia": 5123,
      "remembered": 5124,
      "achel": 5125,
      "thrown": 5126,
      "cashier": 5127,
      "nurse": 5128,
      "triggered": 5129,
      "record": 5130,
      "Jo": 5131,
      "Ju": 5132,
      "Si": 5133,
      "TO": 5134,
      "blast": 5135,
      "fal": 5136,
      "origin": 5137,
      "roat": 5138,
      "sees": 5139,
      "dom": 5140,
      "west": 5141,
      "noises": 5142,
      "harsh": 5143,
      "counting": 5144,
      "excuse": 5145,
      "stopping": 5146,
      "caut": 5147,
      "Procrast": 5148,
      "tons": 5149,
      "amazon": 5150,
      "controlling": 5151,
      "explained": 5152,
      "double": 5153,
      "irritating": 5154,
      "Seeing": 5155,
      "confronted": 5156,
      "crowds": 5157,
      "compared": 5158,
      "flashbacks": 5159,
      "fif": 5160,
      "mso": 5161,
      "spray": 5162,
      "thr": 5163,
      "informed": 5164,
      "meas": 5165,
      "height": 5166,
      "wild": 5167,
      "idi": 5168,
      "acknowledge": 5169,
      "mos": 5170,
      "hockey": 5171,
      "consist": 5172,
      "ieties": 5173,
      "lifestyle": 5174,
      "homes": 5175,
      "realistic": 5176,
      "giant": 5177,
      "resident": 5178,
      "rides": 5179,
      "agreement": 5180,
      "methods": 5181,
      "dynam": 5182,
      "freaked": 5183,
      "determined": 5184,
      "announ": 5185,
      "motorcycle": 5186,
      "YouTube": 5187,
      "explanation": 5188,
      "hundred": 5189,
      "cate": 5190,
      "font": 5191,
      "acknowled": 5192,
      "inder": 5193,
      "permission": 5194,
      "dislike": 5195,
      "ishing": 5196,
      "minds": 5197,
      "graduating": 5198,
      "Turns": 5199,
      "crossed": 5200,
      "duty": 5201,
      "sacri": 5202,
      "mately": 5203,
      "vable": 5204,
      "erous": 5205,
      "onic": 5206,
      "toy": 5207,
      "kemon": 5208,
      "peed": 5209,
      "notes": 5210,
      "pressed": 5211,
      "hopes": 5212,
      "percent": 5213,
      "rub": 5214,
      "stresses": 5215,
      "plays": 5216,
      "ums": 5217,
      "Canada": 5218,
      "craw": 5219,
      "distur": 5220,
      "idays": 5221,
      "iction": 5222,
      "charged": 5223,
      "property": 5224,
      "crashing": 5225,
      "injury": 5226,
      "suicidal": 5227,
      "BT": 5228,
      "Cry": 5229,
      "lend": 5230,
      "pig": 5231,
      "pumped": 5232,
      "eral": 5233,
      "ensure": 5234,
      "alle": 5235,
      "itation": 5236,
      "max": 5237,
      "rich": 5238,
      "among": 5239,
      "ute": 5240,
      "unusual": 5241,
      "sheet": 5242,
      "supple": 5243,
      "umerous": 5244,
      "passes": 5245,
      "sorts": 5246,
      "improvement": 5247,
      "potentially": 5248,
      "boards": 5249,
      "noticing": 5250,
      "qualifications": 5251,
      "meantime": 5252,
      "knock": 5253,
      "chiat": 5254,
      "Finally": 5255,
      "classic": 5256,
      "determine": 5257,
      "cult": 5258,
      "ev": 5259,
      "lat": 5260,
      "mend": 5261,
      "rd": 5262,
      "san": 5263,
      "tered": 5264,
      "hell": 5265,
      "diaper": 5266,
      "gia": 5267,
      "ignoring": 5268,
      "neglect": 5269,
      "deserves": 5270,
      "explaining": 5271,
      "distractions": 5272,
      "political": 5273,
      "Turk": 5274,
      "nightmares": 5275,
      "kitten": 5276,
      "Waiting": 5277,
      "Procrastination": 5278,
      "CD": 5279,
      "fra": 5280,
      "lli": 5281,
      "numerous": 5282,
      "ome": 5283,
      "pill": 5284,
      "piano": 5285,
      "ram": 5286,
      "rural": 5287,
      "refresh": 5288,
      "youre": 5289,
      "edge": 5290,
      "ric": 5291,
      "unknown": 5292,
      "usion": 5293,
      "reality": 5294,
      "pressured": 5295,
      "vacu": 5296,
      "oblig": 5297,
      "discussing": 5298,
      "faced": 5299,
      "arguments": 5300,
      "voices": 5301,
      "psychiat": 5302,
      "bullied": 5303,
      "politics": 5304,
      "introdu": 5305,
      "victim": 5306,
      "spring": 5307,
      "AY": 5308,
      "Brad": 5309,
      "Net": 5310,
      "gate": 5311,
      "recall": 5312,
      "remin": 5313,
      "cops": 5314,
      "libr": 5315,
      "location": 5316,
      "degre": 5317,
      "oping": 5318,
      "pretend": 5319,
      "bugs": 5320,
      "advance": 5321,
      "creates": 5322,
      "conditions": 5323,
      "values": 5324,
      "sexually": 5325,
      "deadline": 5326,
      "smoo": 5327,
      "speeding": 5328,
      "judgement": 5329,
      "reminis": 5330,
      "Halloween": 5331,
      "Job": 5332,
      "Ser": 5333,
      "wra": 5334,
      "ality": 5335,
      "itle": 5336,
      "worn": 5337,
      "typing": 5338,
      "olar": 5339,
      "greatly": 5340,
      "dish": 5341,
      "breathe": 5342,
      "leted": 5343,
      "tless": 5344,
      "waited": 5345,
      "ipolar": 5346,
      "guessing": 5347,
      "addic": 5348,
      "deciding": 5349,
      "distraction": 5350,
      "receiving": 5351,
      "poorly": 5352,
      "smelled": 5353,
      "Donald": 5354,
      "library": 5355,
      "3rd": 5356,
      "45": 5357,
      "Hol": 5358,
      "Must": 5359,
      "gor": 5360,
      "attic": 5361,
      "reunion": 5362,
      "exper": 5363,
      "unhealthy": 5364,
      "hasnt": 5365,
      "interact": 5366,
      "crack": 5367,
      "employers": 5368,
      "clue": 5369,
      "factors": 5370,
      "qualities": 5371,
      "pushed": 5372,
      "landlord": 5373,
      "addicted": 5374,
      "responses": 5375,
      "Talk": 5376,
      "hesitant": 5377,
      "false": 5378,
      "degrees": 5379,
      "300": 5380,
      "Big": 5381,
      "Nash": 5382,
      "VE": 5383,
      "eight": 5384,
      "lane": 5385,
      "phob": 5386,
      "sca": 5387,
      "rehab": 5388,
      "lef": 5389,
      "fees": 5390,
      "sucked": 5391,
      "ership": 5392,
      "guitar": 5393,
      "wracking": 5394,
      "scaring": 5395,
      "Almost": 5396,
      "motivate": 5397,
      "deserved": 5398,
      "pulling": 5399,
      "dementia": 5400,
      "adopted": 5401,
      "transit": 5402,
      "contributing": 5403,
      "extensions": 5404,
      "Check": 5405,
      "insomnia": 5406,
      "combination": 5407,
      "flew": 5408,
      "retirement": 5409,
      "dedicated": 5410,
      "Nashville": 5411,
      "Bu": 5412,
      "Mi": 5413,
      "Ya": 5414,
      "size": 5415,
      "acts": 5416,
      "prison": 5417,
      "minded": 5418,
      "wood": 5419,
      "weekends": 5420,
      "resource": 5421,
      "babysit": 5422,
      "devastating": 5423,
      "fights": 5424,
      "obse": 5425,
      "physics": 5426,
      "Anyway": 5427,
      "charities": 5428,
      "fellow": 5429,
      "deadlines": 5430,
      "catching": 5431,
      "buddies": 5432,
      "hotels": 5433,
      "software": 5434,
      "Breakups": 5435,
      "basketball": 5436,
      "dissolution": 5437,
      "Netflix": 5438,
      "Each": 5439,
      "Fall": 5440,
      "slu": 5441,
      "wound": 5442,
      "elity": 5443,
      "fet": 5444,
      "docu": 5445,
      "pace": 5446,
      "daycare": 5447,
      "owned": 5448,
      "discover": 5449,
      "mindset": 5450,
      "ears": 5451,
      "Such": 5452,
      "hubby": 5453,
      "thanksgiving": 5454,
      "physician": 5455,
      "assess": 5456,
      "sensitive": 5457,
      "desperate": 5458,
      "Bro": 5459,
      "Europe": 5460,
      "List": 5461,
      "dim": 5462,
      "phar": 5463,
      "Ohh": 5464,
      "positions": 5465,
      "torn": 5466,
      "foods": 5467,
      "primary": 5468,
      "grossed": 5469,
      "growth": 5470,
      "approaching": 5471,
      "routines": 5472,
      "squir": 5473,
      "entertain": 5474,
      "intelligent": 5475,
      "aggressive": 5476,
      "22": 5477,
      "Kids": 5478,
      "Part": 5479,
      "WO": 5480,
      "cto": 5481,
      "fence": 5482,
      "gin": 5483,
      "jail": 5484,
      "ham": 5485,
      "wide": 5486,
      "rier": 5487,
      "acy": 5488,
      "reamed": 5489,
      "offic": 5490,
      "morti": 5491,
      "claim": 5492,
      "ionship": 5493,
      "collect": 5494,
      "cording": 5495,
      "pressures": 5496,
      "publ": 5497,
      "Awww": 5498,
      "complaining": 5499,
      "strict": 5500,
      "crowd": 5501,
      "Consider": 5502,
      "creepy": 5503,
      "July": 5504,
      "500": 5505,
      "Bob": 5506,
      "Cur": 5507,
      "mal": 5508,
      "mir": 5509,
      "ert": 5510,
      "arant": 5511,
      "arti": 5512,
      "consci": 5513,
      "monitor": 5514,
      "izations": 5515,
      "mindfulness": 5516,
      "stressors": 5517,
      "decl": 5518,
      "completed": 5519,
      "discussed": 5520,
      "Person": 5521,
      "willingness": 5522,
      "leading": 5523,
      "meditate": 5524,
      "storms": 5525,
      "ultimately": 5526,
      "Working": 5527,
      "lifted": 5528,
      "teenagers": 5529,
      "onym": 5530,
      "prescription": 5531,
      "Finding": 5532,
      "infected": 5533,
      "smooth": 5534,
      "BE": 5535,
      "Event": 5536,
      "mg": 5537,
      "ature": 5538,
      "recon": 5539,
      "toler": 5540,
      "males": 5541,
      "idelity": 5542,
      "compe": 5543,
      "comment": 5544,
      "raising": 5545,
      "choosing": 5546,
      "shoulder": 5547,
      "sets": 5548,
      "redund": 5549,
      "confer": 5550,
      "colors": 5551,
      "rooms": 5552,
      "refuse": 5553,
      "trips": 5554,
      "staring": 5555,
      "spiritual": 5556,
      "ugly": 5557,
      "jerk": 5558,
      "electric": 5559,
      "consequences": 5560,
      "CAN": 5561,
      "Pu": 5562,
      "Tot": 5563,
      "bachel": 5564,
      "ek": 5565,
      "mountain": 5566,
      "rab": 5567,
      "onder": 5568,
      "renew": 5569,
      "ando": 5570,
      "rode": 5571,
      "escal": 5572,
      "peers": 5573,
      "joke": 5574,
      "spare": 5575,
      "igate": 5576,
      "supported": 5577,
      "asks": 5578,
      "brush": 5579,
      "mark": 5580,
      "strang": 5581,
      "vibe": 5582,
      "runs": 5583,
      "eaten": 5584,
      "obje": 5585,
      "factor": 5586,
      "Dealing": 5587,
      "companion": 5588,
      "president": 5589,
      "journaling": 5590,
      "survey": 5591,
      "twins": 5592,
      "convenient": 5593,
      "sunday": 5594,
      "transition": 5595,
      "Dont": 5596,
      "Ly": 5597,
      "PS": 5598,
      "Rob": 5599,
      "ially": 5600,
      "rare": 5601,
      "intless": 5602,
      "retired": 5603,
      "ene": 5604,
      "alo": 5605,
      "vember": 5606,
      "coach": 5607,
      "sea": 5608,
      "neat": 5609,
      "pointless": 5610,
      "surprising": 5611,
      "realizing": 5612,
      "openly": 5613,
      "drama": 5614,
      "entirely": 5615,
      "travelling": 5616,
      "meditating": 5617,
      "powerful": 5618,
      "description": 5619,
      "volunteering": 5620,
      "USA": 5621,
      "priorit": 5622,
      "incredible": 5623,
      "admitted": 5624,
      "farted": 5625,
      "stimul": 5626,
      "status": 5627,
      "OM": 5628,
      "Qu": 5629,
      "Tinder": 5630,
      "Under": 5631,
      "hat": 5632,
      "hiding": 5633,
      "pound": 5634,
      "league": 5635,
      "elabor": 5636,
      "sleepy": 5637,
      "grandpa": 5638,
      "bosses": 5639,
      "answering": 5640,
      "vaccinated": 5641,
      "destru": 5642,
      "grounded": 5643,
      "roommates": 5644,
      "humili": 5645,
      "pieces": 5646,
      "repeatedly": 5647,
      "squirrel": 5648,
      "Lyft": 5649,
      "bun": 5650,
      "baking": 5651,
      "bipolar": 5652,
      "ole": 5653,
      "phi": 5654,
      "rarely": 5655,
      "tends": 5656,
      "zed": 5657,
      "leting": 5658,
      "bee": 5659,
      "mass": 5660,
      "amin": 5661,
      "according": 5662,
      "una": 5663,
      "unpleasant": 5664,
      "reluct": 5665,
      "kindness": 5666,
      "stray": 5667,
      "acceptance": 5668,
      "encouraged": 5669,
      "snap": 5670,
      "niac": 5671,
      "banks": 5672,
      "texted": 5673,
      "gained": 5674,
      "agency": 5675,
      "insomniac": 5676,
      "Human": 5677,
      "expert": 5678,
      "lefto": 5679,
      "Back": 5680,
      "Sep": 5681,
      "bid": 5682,
      "mow": 5683,
      "scam": 5684,
      "insecur": 5685,
      "rewards": 5686,
      "seat": 5687,
      "hike": 5688,
      "sely": 5689,
      "opens": 5690,
      "pros": 5691,
      "letters": 5692,
      "thoughtful": 5693,
      "bums": 5694,
      "connections": 5695,
      "Doesn": 5696,
      "purse": 5697,
      "intimate": 5698,
      "Mostly": 5699,
      "critic": 5700,
      "ALLY": 5701,
      "layoffs": 5702,
      "attached": 5703,
      "stubborn": 5704,
      "sympathetic": 5705,
      "freelance": 5706,
      "mortified": 5707,
      "insecurities": 5708,
      "95": 5709,
      "Gar": 5710,
      "Las": 5711,
      "hint": 5712,
      "pha": 5713,
      "serving": 5714,
      "roach": 5715,
      "amuse": 5716,
      "plat": 5717,
      "disci": 5718,
      "finds": 5719,
      "High": 5720,
      "brown": 5721,
      "calcul": 5722,
      "tress": 5723,
      "driven": 5724,
      "shocking": 5725,
      "added": 5726,
      "cousins": 5727,
      "chasing": 5728,
      "arrive": 5729,
      "rupt": 5730,
      "punish": 5731,
      "niture": 5732,
      "mandatory": 5733,
      "Current": 5734,
      "amusement": 5735,
      "IS": 5736,
      "Lots": 5737,
      "Sm": 5738,
      "Taking": 5739,
      "YES": 5740,
      "bite": 5741,
      "mild": 5742,
      "pin": 5743,
      "intr": 5744,
      "inner": 5745,
      "isms": 5746,
      "cos": 5747,
      "unts": 5748,
      "compla": 5749,
      "below": 5750,
      "differences": 5751,
      "rented": 5752,
      "visits": 5753,
      "views": 5754,
      "dads": 5755,
      "birds": 5756,
      "former": 5757,
      "businesses": 5758,
      "Love": 5759,
      "furniture": 5760,
      "adequ": 5761,
      "subjects": 5762,
      "Enjoy": 5763,
      "slip": 5764,
      "Apparently": 5765,
      "assuming": 5766,
      "corporate": 5767,
      "Crying": 5768,
      "Ob": 5769,
      "pic": 5770,
      "rut": 5771,
      "vice": 5772,
      "void": 5773,
      "eras": 5774,
      "stated": 5775,
      "albums": 5776,
      "loosing": 5777,
      "ador": 5778,
      "ades": 5779,
      "irresponsible": 5780,
      "spit": 5781,
      "monday": 5782,
      "context": 5783,
      "funk": 5784,
      "churches": 5785,
      "substance": 5786,
      "airport": 5787,
      "judging": 5788,
      "salad": 5789,
      "blocked": 5790,
      "tember": 5791,
      "popular": 5792,
      "mechanisms": 5793,
      "injured": 5794,
      "thrilled": 5795,
      "film": 5796,
      "lliant": 5797,
      "September": 5798,
      "Garbo": 5799,
      "AR": 5800,
      "bang": 5801,
      "dancing": 5802,
      "pile": 5803,
      "atleast": 5804,
      "select": 5805,
      "liking": 5806,
      "cance": 5807,
      "constru": 5808,
      "goodbye": 5809,
      "granted": 5810,
      "guarant": 5811,
      "marath": 5812,
      "marks": 5813,
      "2000": 5814,
      "worthwhile": 5815,
      "magic": 5816,
      "assured": 5817,
      "haircut": 5818,
      "ternal": 5819,
      "France": 5820,
      "volunteered": 5821,
      "transport": 5822,
      "technique": 5823,
      "disrespectful": 5824,
      "convinced": 5825,
      "establish": 5826,
      "veteran": 5827,
      "heights": 5828,
      "destructive": 5829,
      "canceled": 5830,
      "Ge": 5831,
      "Lately": 5832,
      "boun": 5833,
      "mig": 5834,
      "upper": 5835,
      "zone": 5836,
      "retake": 5837,
      "item": 5838,
      "ional": 5839,
      "tical": 5840,
      "admi": 5841,
      "ulate": 5842,
      "concept": 5843,
      "sale": 5844,
      "greed": 5845,
      "shine": 5846,
      "anxieties": 5847,
      "ables": 5848,
      "Dogs": 5849,
      "official": 5850,
      "igned": 5851,
      "cents": 5852,
      "bull": 5853,
      "vision": 5854,
      "possibilities": 5855,
      "favorites": 5856,
      "assure": 5857,
      "parked": 5858,
      "warning": 5859,
      "included": 5860,
      "porch": 5861,
      "practiced": 5862,
      "tricks": 5863,
      "tricky": 5864,
      "brilliant": 5865,
      "battle": 5866,
      "American": 5867,
      "sweat": 5868,
      "paranoid": 5869,
      "ministr": 5870,
      "lifting": 5871,
      "Eventually": 5872,
      "Totally": 5873,
      "adorable": 5874,
      "Foc": 5875,
      "Ru": 5876,
      "Res": 5877,
      "Yup": 5878,
      "ctic": 5879,
      "sink": 5880,
      "meals": 5881,
      "indic": 5882,
      "perman": 5883,
      "backed": 5884,
      "ideal": 5885,
      "offers": 5886,
      "intent": 5887,
      "nessee": 5888,
      "jection": 5889,
      "advoc": 5890,
      "honesty": 5891,
      "topics": 5892,
      "hotline": 5893,
      "organizations": 5894,
      "Star": 5895,
      "paperwork": 5896,
      "gaining": 5897,
      "chain": 5898,
      "fancy": 5899,
      "religion": 5900,
      "warehouse": 5901,
      "ghest": 5902,
      "December": 5903,
      "contempl": 5904,
      "Mexico": 5905,
      "fifteen": 5906,
      "redundant": 5907,
      "Currently": 5908,
      "Either": 5909,
      "Him": 5910,
      "Hoping": 5911,
      "NY": 5912,
      "Sign": 5913,
      "bere": 5914,
      "hid": 5915,
      "lly": 5916,
      "sources": 5917,
      "title": 5918,
      "van": 5919,
      "ree": 5920,
      "heck": 5921,
      "fest": 5922,
      "fever": 5923,
      "idk": 5924,
      "nest": 5925,
      "definit": 5926,
      "hers": 5927,
      "epis": 5928,
      "shining": 5929,
      "shoulders": 5930,
      "Didn": 5931,
      "wished": 5932,
      "giver": 5933,
      "resort": 5934,
      "huh": 5935,
      "horse": 5936,
      "relaxation": 5937,
      "Anyone": 5938,
      "laws": 5939,
      "moods": 5940,
      "regardless": 5941,
      "symptom": 5942,
      "secrets": 5943,
      "laughed": 5944,
      "shots": 5945,
      "elementary": 5946,
      "extension": 5947,
      "compromise": 5948,
      "Saturday": 5949,
      "Tennessee": 5950,
      "sacrif": 5951,
      "Out": 5952,
      "Red": 5953,
      "belt": 5954,
      "bake": 5955,
      "dwell": 5956,
      "dang": 5957,
      "gay": 5958,
      "jun": 5959,
      "pink": 5960,
      "thunder": 5961,
      "anas": 5962,
      "atest": 5963,
      "gee": 5964,
      "hill": 5965,
      "anyways": 5966,
      "unacceptable": 5967,
      "audi": 5968,
      "author": 5969,
      "fold": 5970,
      "pocket": 5971,
      "sadly": 5972,
      "disconnected": 5973,
      "bron": 5974,
      "payments": 5975,
      "trustworthy": 5976,
      "uesday": 5977,
      "commer": 5978,
      "hua": 5979,
      "archite": 5980,
      "crime": 5981,
      "improved": 5982,
      "promising": 5983,
      "legs": 5984,
      "spirits": 5985,
      "dedication": 5986,
      "screaming": 5987,
      "grav": 5988,
      "loaned": 5989,
      "soooo": 5990,
      "initial": 5991,
      "drawing": 5992,
      "annual": 5993,
      "cheesecake": 5994,
      "sensible": 5995,
      "vacuum": 5996,
      "Felt": 5997,
      "Joh": 5998,
      "Sal": 5999,
      "bour": 6000,
      "fication": 6001,
      "ima": 6002,
      "lacking": 6003,
      "pon": 6004,
      "ptive": 6005,
      "uber": 6006,
      "wing": 6007,
      "stone": 6008,
      "rep": 6009,
      "forgotten": 6010,
      "sum": 6011,
      "upside": 6012,
      "hooked": 6013,
      "exual": 6014,
      "ravel": 6015,
      "raped": 6016,
      "boost": 6017,
      "aggrav": 6018,
      "cious": 6019,
      "careers": 6020,
      "completing": 6021,
      "phr": 6022,
      "prize": 6023,
      "hangout": 6024,
      "wheel": 6025,
      "scheduled": 6026,
      "instin": 6027,
      "Second": 6028,
      "typical": 6029,
      "developing": 6030,
      "Feels": 6031,
      "route": 6032,
      "rushed": 6033,
      "soup": 6034,
      "evaluation": 6035,
      "inspiration": 6036,
      "discipl": 6037,
      "marathon": 6038,
      "ED": 6039,
      "Gri": 6040,
      "LL": 6041,
      "Long": 6042,
      "Watch": 6043,
      "nu": 6044,
      "rust": 6045,
      "tro": 6046,
      "tone": 6047,
      "errand": 6048,
      "repet": 6049,
      "otic": 6050,
      "mob": 6051,
      "wet": 6052,
      "fool": 6053,
      "greater": 6054,
      "spar": 6055,
      "positivity": 6056,
      "sleeps": 6057,
      "moves": 6058,
      "minor": 6059,
      "corn": 6060,
      "1000": 6061,
      "20s": 6062,
      "gnitive": 6063,
      "figuring": 6064,
      "extended": 6065,
      "purchase": 6066,
      "network": 6067,
      "reduced": 6068,
      "immediate": 6069,
      "releasing": 6070,
      "staffs": 6071,
      "customers": 6072,
      "influence": 6073,
      "exploring": 6074,
      "idiot": 6075,
      "allevi": 6076,
      "scale": 6077,
      "Ty": 6078,
      "Wo": 6079,
      "Wonder": 6080,
      "awe": 6081,
      "bble": 6082,
      "bout": 6083,
      "drow": 6084,
      "ians": 6085,
      "jar": 6086,
      "zoo": 6087,
      "rejection": 6088,
      "ows": 6089,
      "core": 6090,
      "dos": 6091,
      "abroad": 6092,
      "someday": 6093,
      "moder": 6094,
      "thise": 6095,
      "updated": 6096,
      "yep": 6097,
      "happend": 6098,
      "greatest": 6099,
      "shit": 6100,
      "underwear": 6101,
      "discour": 6102,
      "appointments": 6103,
      "ashing": 6104,
      "appreciative": 6105,
      "quitting": 6106,
      "logically": 6107,
      "cookie": 6108,
      "thesis": 6109,
      "humans": 6110,
      "distracts": 6111,
      "finger": 6112,
      "insights": 6113,
      "copy": 6114,
      "tradition": 6115,
      "ranged": 6116,
      "jumping": 6117,
      "elaborate": 6118,
      "Har": 6119,
      "blog": 6120,
      "labor": 6121,
      "zing": 6122,
      "insu": 6123,
      "stea": 6124,
      "ata": 6125,
      "replaced": 6126,
      "envy": 6127,
      "plants": 6128,
      "grind": 6129,
      "confusing": 6130,
      "treas": 6131,
      "decre": 6132,
      "Supp": 6133,
      "blaming": 6134,
      "expectation": 6135,
      "healthcare": 6136,
      "interviewed": 6137,
      "crimin": 6138,
      "legit": 6139,
      "protective": 6140,
      "psych": 6141,
      "emails": 6142,
      "sticks": 6143,
      "continued": 6144,
      "bananas": 6145,
      "Meditation": 6146,
      "infidelity": 6147,
      "reconci": 6148,
      "reluctant": 6149,
      "admire": 6150,
      "John": 6151,
      "IF": 6152,
      "Link": 6153,
      "NC": 6154,
      "cable": 6155,
      "etry": 6156,
      "fits": 6157,
      "mur": 6158,
      "oled": 6159,
      "ona": 6160,
      "neutr": 6161,
      "depressive": 6162,
      "rights": 6163,
      "bitter": 6164,
      "attending": 6165,
      "regist": 6166,
      "Hahaha": 6167,
      "casino": 6168,
      "firend": 6169,
      "bulance": 6170,
      "scored": 6171,
      "instrument": 6172,
      "ctively": 6173,
      "reassure": 6174,
      "debts": 6175,
      "cabin": 6176,
      "Depending": 6177,
      "2nd": 6178,
      "Des": 6179,
      "Hard": 6180,
      "tat": 6181,
      "vase": 6182,
      "veget": 6183,
      "rolled": 6184,
      "forums": 6185,
      "amp": 6186,
      "icy": 6187,
      "butt": 6188,
      "greg": 6189,
      "stret": 6190,
      "breakups": 6191,
      "tremend": 6192,
      "shaking": 6193,
      "neighbour": 6194,
      "responsive": 6195,
      "steady": 6196,
      "respectful": 6197,
      "snack": 6198,
      "costs": 6199,
      "boxes": 6200,
      "violence": 6201,
      "washing": 6202,
      "prescribed": 6203,
      "skydiving": 6204,
      "peeved": 6205,
      "frightened": 6206,
      "recipe": 6207,
      "certification": 6208,
      "nesday": 6209,
      "Holidays": 6210,
      "onymous": 6211,
      "mobile": 6212,
      "RI": 6213,
      "gent": 6214,
      "gart": 6215,
      "iam": 6216,
      "ture": 6217,
      "wat": 6218,
      "anch": 6219,
      "recru": 6220,
      "resolution": 6221,
      "encounter": 6222,
      "enthus": 6223,
      "coho": 6224,
      "blew": 6225,
      "arest": 6226,
      "ambulance": 6227,
      "nearest": 6228,
      "allas": 6229,
      "depress": 6230,
      "polic": 6231,
      "Doctor": 6232,
      "fathers": 6233,
      "teens": 6234,
      "believes": 6235,
      "stock": 6236,
      "fruster": 6237,
      "craving": 6238,
      "healthier": 6239,
      "patients": 6240,
      "cups": 6241,
      "judged": 6242,
      "writer": 6243,
      "preparation": 6244,
      "carrying": 6245,
      "mechanic": 6246,
      "requirements": 6247,
      "taxes": 6248,
      "genuine": 6249,
      "predic": 6250,
      "definet": 6251,
      "Lebron": 6252,
      "climbing": 6253,
      "VERY": 6254,
      "evict": 6255,
      "enthusi": 6256,
      "coholic": 6257,
      "1st": 6258,
      "800": 6259,
      "Air": 6260,
      "Bel": 6261,
      "HD": 6262,
      "Lord": 6263,
      "Ul": 6264,
      "batt": 6265,
      "nine": 6266,
      "oce": 6267,
      "tar": 6268,
      "itiz": 6269,
      "solo": 6270,
      "masters": 6271,
      "dome": 6272,
      "gol": 6273,
      "gossi": 6274,
      "weed": 6275,
      "reassurance": 6276,
      "disaster": 6277,
      "comparing": 6278,
      "chef": 6279,
      "funeral": 6280,
      "hurry": 6281,
      "listens": 6282,
      "annoy": 6283,
      "rench": 6284,
      "positives": 6285,
      "embarrass": 6286,
      "mistry": 6287,
      "refuses": 6288,
      "recommendation": 6289,
      "Unless": 6290,
      "receptive": 6291,
      "distraught": 6292,
      "States": 6293,
      "ggle": 6294,
      "instructions": 6295,
      "starved": 6296,
      "binge": 6297,
      "bowling": 6298,
      "shooting": 6299,
      "standards": 6300,
      "manners": 6301,
      "psychiatrist": 6302,
      "Dr": 6303,
      "Ta": 6304,
      "cement": 6305,
      "flex": 6306,
      "lace": 6307,
      "nav": 6308,
      "insecurity": 6309,
      "attribut": 6310,
      "itis": 6311,
      "sole": 6312,
      "ides": 6313,
      "precious": 6314,
      "upbeat": 6315,
      "unit": 6316,
      "unmotivated": 6317,
      "workforce": 6318,
      "aud": 6319,
      "cig": 6320,
      "chores": 6321,
      "disability": 6322,
      "disorders": 6323,
      "omen": 6324,
      "buf": 6325,
      "march": 6326,
      "impression": 6327,
      "conduct": 6328,
      "gesture": 6329,
      "champ": 6330,
      "reports": 6331,
      "loads": 6332,
      "instructor": 6333,
      "Poor": 6334,
      "psychological": 6335,
      "slipped": 6336,
      "determination": 6337,
      "frightening": 6338,
      "sneak": 6339,
      "sustainable": 6340,
      "podcast": 6341,
      "supplement": 6342,
      "Robin": 6343,
      "Grief": 6344,
      "gregation": 6345,
      "battling": 6346,
      "Au": 6347,
      "FO": 6348,
      "Ind": 6349,
      "Made": 6350,
      "Omg": 6351,
      "Psy": 6352,
      "THE": 6353,
      "Wed": 6354,
      "ae": 6355,
      "dorm": 6356,
      "gam": 6357,
      "lent": 6358,
      "national": 6359,
      "nintendo": 6360,
      "tack": 6361,
      "zi": 6362,
      "instant": 6363,
      "stit": 6364,
      "enced": 6365,
      "meat": 6366,
      "behave": 6367,
      "bled": 6368,
      "lip": 6369,
      "REALLY": 6370,
      "Thursday": 6371,
      "needy": 6372,
      "overly": 6373,
      "intu": 6374,
      "internal": 6375,
      "waii": 6376,
      "turtle": 6377,
      "terribly": 6378,
      "identity": 6379,
      "dia": 6380,
      "openings": 6381,
      "Ahh": 6382,
      "falls": 6383,
      "negatively": 6384,
      "subscri": 6385,
      "Whoa": 6386,
      "silence": 6387,
      "windows": 6388,
      "described": 6389,
      "unexpectedly": 6390,
      "banana": 6391,
      "campus": 6392,
      "http": 6393,
      "necklace": 6394,
      "Christian": 6395,
      "intentions": 6396,
      "advocate": 6397,
      "Linked": 6398,
      "Ear": 6399,
      "Making": 6400,
      "Pan": 6401,
      "Phi": 6402,
      "SU": 6403,
      "Sad": 6404,
      "THAT": 6405,
      "aim": 6406,
      "aunts": 6407,
      "bie": 6408,
      "cough": 6409,
      "nis": 6410,
      "osity": 6411,
      "sane": 6412,
      "error": 6413,
      "insp": 6414,
      "album": 6415,
      "elig": 6416,
      "ittle": 6417,
      "ayu": 6418,
      "soever": 6419,
      "socially": 6420,
      "heaven": 6421,
      "section": 6422,
      "outdoor": 6423,
      "como": 6424,
      "deleted": 6425,
      "congregation": 6426,
      "arts": 6427,
      "whatsoever": 6428,
      "ousand": 6429,
      "imp": 6430,
      "proven": 6431,
      "shat": 6432,
      "sadden": 6433,
      "prin": 6434,
      "relation": 6435,
      "countries": 6436,
      "girlfriends": 6437,
      "effic": 6438,
      "pressants": 6439,
      "classroom": 6440,
      "Google": 6441,
      "reasoning": 6442,
      "headache": 6443,
      "crappy": 6444,
      "vior": 6445,
      "pointed": 6446,
      "responding": 6447,
      "farm": 6448,
      "disappointment": 6449,
      "answered": 6450,
      "spaces": 6451,
      "paths": 6452,
      "protection": 6453,
      "regards": 6454,
      "snowing": 6455,
      "heavily": 6456,
      "screamed": 6457,
      "reassuring": 6458,
      "surveys": 6459,
      "Walmart": 6460,
      "cautious": 6461,
      "stimulus": 6462,
      "phase": 6463,
      "murder": 6464,
      "HH": 6465,
      "bod": 6466,
      "jam": 6467,
      "nie": 6468,
      "pics": 6469,
      "thousand": 6470,
      "ergart": 6471,
      "inu": 6472,
      "sten": 6473,
      "stro": 6474,
      "remove": 6475,
      "youth": 6476,
      "isa": 6477,
      "soci": 6478,
      "master": 6479,
      "adap": 6480,
      "update": 6481,
      "unnecessary": 6482,
      "foster": 6483,
      "Door": 6484,
      "fav": 6485,
      "spelling": 6486,
      "paste": 6487,
      "creative": 6488,
      "highway": 6489,
      "earned": 6490,
      "prices": 6491,
      "troubled": 6492,
      "strongly": 6493,
      "fiancee": 6494,
      "mentor": 6495,
      "teenage": 6496,
      "reported": 6497,
      "slam": 6498,
      "limits": 6499,
      "psychology": 6500,
      "relev": 6501,
      "nicer": 6502,
      "fatig": 6503,
      "Otherwise": 6504,
      "genuin": 6505,
      "ditched": 6506,
      "Knowing": 6507,
      "vibes": 6508,
      "guarantee": 6509,
      "tattoo": 6510,
      "stretch": 6511,
      "ocean": 6512,
      "Bell": 6513,
      "Dea": 6514,
      "iate": 6515,
      "junk": 6516,
      "kicking": 6517,
      "ology": 6518,
      "inconsiderate": 6519,
      "ato": 6520,
      "iter": 6521,
      "beating": 6522,
      "beard": 6523,
      "rophob": 6524,
      "trap": 6525,
      "ustrophob": 6526,
      "butter": 6527,
      "concl": 6528,
      "nope": 6529,
      "east": 6530,
      "impo": 6531,
      "abled": 6532,
      "grace": 6533,
      "disney": 6534,
      "bump": 6535,
      "files": 6536,
      "claustrophob": 6537,
      "curve": 6538,
      "cord": 6539,
      "handled": 6540,
      "achie": 6541,
      "socialize": 6542,
      "statement": 6543,
      "touched": 6544,
      "freshman": 6545,
      "approached": 6546,
      "suitable": 6547,
      "demanding": 6548,
      "fruit": 6549,
      "cherish": 6550,
      "technically": 6551,
      "Smash": 6552,
      "permanent": 6553,
      "neutral": 6554,
      "claustrophobic": 6555,
      "Hell": 6556,
      "Lisa": 6557,
      "ST": 6558,
      "assed": 6559,
      "scan": 6560,
      "zero": 6561,
      "indoors": 6562,
      "sticking": 6563,
      "replac": 6564,
      "returning": 6565,
      "outlet": 6566,
      "button": 6567,
      "tering": 6568,
      "ified": 6569,
      "condo": 6570,
      "kidding": 6571,
      "interf": 6572,
      "waitress": 6573,
      "border": 6574,
      "cafe": 6575,
      "addressed": 6576,
      "ohh": 6577,
      "messy": 6578,
      "assing": 6579,
      "approve": 6580,
      "recommendations": 6581,
      "nephews": 6582,
      "satisfying": 6583,
      "betrayal": 6584,
      "circumstance": 6585,
      "snakes": 6586,
      "radio": 6587,
      "ethics": 6588,
      "bottom": 6589,
      "Commun": 6590,
      "located": 6591,
      "uneasy": 6592,
      "Ready": 6593,
      "fruits": 6594,
      "assessment": 6595,
      "strangers": 6596,
      "golf": 6597,
      "eligible": 6598,
      "relevant": 6599,
      "Bl": 6600,
      "Mturk": 6601,
      "bru": 6602,
      "equal": 6603,
      "fought": 6604,
      "gbt": 6605,
      "lgbt": 6606,
      "rr": 6607,
      "sion": 6608,
      "uals": 6609,
      "wand": 6610,
      "zard": 6611,
      "arms": 6612,
      "soda": 6613,
      "sober": 6614,
      "defe": 6615,
      "Three": 6616,
      "fried": 6617,
      "exchanged": 6618,
      "external": 6619,
      "Their": 6620,
      "sounded": 6621,
      "interacting": 6622,
      "believing": 6623,
      "wore": 6624,
      "highschool": 6625,
      "adds": 6626,
      "dram": 6627,
      "mornings": 6628,
      "stops": 6629,
      "Research": 6630,
      "regain": 6631,
      "netflix": 6632,
      "risky": 6633,
      "protein": 6634,
      "shutdown": 6635,
      "separation": 6636,
      "Without": 6637,
      "investig": 6638,
      "valued": 6639,
      "secretly": 6640,
      "custody": 6641,
      "structure": 6642,
      "quarantined": 6643,
      "vomit": 6644,
      "crafts": 6645,
      "allergic": 6646,
      "intimidating": 6647,
      "phrase": 6648,
      "domestic": 6649,
      "LinkedIn": 6650,
      "ergarten": 6651,
      "genuinely": 6652,
      "lgbtq": 6653,
      "4th": 6654,
      "FC": 6655,
      "Mo": 6656,
      "Sha": 6657,
      "Wr": 6658,
      "War": 6659,
      "bust": 6660,
      "ien": 6661,
      "scold": 6662,
      "theme": 6663,
      "itled": 6664,
      "socks": 6665,
      "trade": 6666,
      "aret": 6667,
      "chip": 6668,
      "utations": 6669,
      "tie": 6670,
      "ican": 6671,
      "joking": 6672,
      "sake": 6673,
      "imple": 6674,
      "caregiver": 6675,
      "thankyou": 6676,
      "advent": 6677,
      "shovel": 6678,
      "jealousy": 6679,
      "inviting": 6680,
      "raines": 6681,
      "refund": 6682,
      "Ahhh": 6683,
      "climate": 6684,
      "tuition": 6685,
      "cameras": 6686,
      "affordable": 6687,
      "development": 6688,
      "candid": 6689,
      "bags": 6690,
      "guidel": 6691,
      "switching": 6692,
      "nursing": 6693,
      "surrounding": 6694,
      "https": 6695,
      "ADHD": 6696,
      "posse": 6697,
      "Music": 6698,
      "humiliated": 6699,
      "intrusive": 6700,
      "migraines": 6701,
      "Salutations": 6702,
      "errands": 6703,
      "insul": 6704,
      "Agreed": 6705,
      "Car": 6706,
      "Call": 6707,
      "DR": 6708,
      "Spe": 6709,
      "Whe": 6710,
      "aled": 6711,
      "bak": 6712,
      "ium": 6713,
      "leng": 6714,
      "south": 6715,
      "wounds": 6716,
      "yer": 6717,
      "throat": 6718,
      "inno": 6719,
      "ream": 6720,
      "reactions": 6721,
      "theless": 6722,
      "alcoholic": 6723,
      "chr": 6724,
      "entitled": 6725,
      "expressed": 6726,
      "artment": 6727,
      "raw": 6728,
      "proceed": 6729,
      "chosen": 6730,
      "whose": 6731,
      "disclose": 6732,
      "esting": 6733,
      "estranged": 6734,
      "countable": 6735,
      "chemistry": 6736,
      "centers": 6737,
      "parcel": 6738,
      "classmates": 6739,
      "husbands": 6740,
      "testing": 6741,
      "handy": 6742,
      "engagement": 6743,
      "Alright": 6744,
      "dropping": 6745,
      "involves": 6746,
      "miscar": 6747,
      "misunderstood": 6748,
      "dependent": 6749,
      "returns": 6750,
      "occurred": 6751,
      "adjusting": 6752,
      "eggs": 6753,
      "global": 6754,
      "culture": 6755,
      "frame": 6756,
      "Personally": 6757,
      "rabbit": 6758,
      "leftovers": 6759,
      "calculus": 6760,
      "transportation": 6761,
      "cigaret": 6762,
      "Cal": 6763,
      "Gue": 6764,
      "Lea": 6765,
      "President": 6766,
      "dread": 6767,
      "ego": 6768,
      "gno": 6769,
      "rise": 6770,
      "inary": 6771,
      "unreasonable": 6772,
      "confir": 6773,
      "eager": 6774,
      "overnight": 6775,
      "schoolwork": 6776,
      "bug": 6777,
      "bubble": 6778,
      "excuses": 6779,
      "crete": 6780,
      "blown": 6781,
      "visual": 6782,
      "stepping": 6783,
      "skating": 6784,
      "cuts": 6785,
      "10x": 6786,
      "supermarket": 6787,
      "managers": 6788,
      "burning": 6789,
      "denied": 6790,
      "blocking": 6791,
      "celebrating": 6792,
      "screams": 6793,
      "bully": 6794,
      "agrees": 6795,
      "departments": 6796,
      "rollercoaster": 6797,
      "contribute": 6798,
      "gatherings": 6799,
      "blowing": 6800,
      "clinical": 6801,
      "procrastinating": 6802,
      "tolerate": 6803,
      "alleviate": 6804,
      "Psycho": 6805,
      "Cer": 6806,
      "Ever": 6807,
      "Use": 6808,
      "Wish": 6809,
      "draining": 6810,
      "naked": 6811,
      "pills": 6812,
      "thier": 6813,
      "tori": 6814,
      "outlook": 6815,
      "domin": 6816,
      "ONE": 6817,
      "accountable": 6818,
      "uling": 6819,
      "ousing": 6820,
      "ssions": 6821,
      "mum": 6822,
      "grat": 6823,
      "iously": 6824,
      "interns": 6825,
      "calend": 6826,
      "wishing": 6827,
      "singing": 6828,
      "enjoyable": 6829,
      "coronavirus": 6830,
      "vacations": 6831,
      "booked": 6832,
      "troubles": 6833,
      "object": 6834,
      "covering": 6835,
      "Hawaii": 6836,
      "distracting": 6837,
      "larger": 6838,
      "sunny": 6839,
      "adopt": 6840,
      "apologized": 6841,
      "population": 6842,
      "guns": 6843,
      "Coronavirus": 6844,
      "violent": 6845,
      "judgment": 6846,
      "exposed": 6847,
      "settled": 6848,
      "hostile": 6849,
      "dumping": 6850,
      "objective": 6851,
      "OMG": 6852,
      "Quite": 6853,
      "definetely": 6854,
      "bodies": 6855,
      "guidelines": 6856,
      "Whether": 6857,
      "AP": 6858,
      "Again": 6859,
      "CE": 6860,
      "Fre": 6861,
      "dive": 6862,
      "ires": 6863,
      "ja": 6864,
      "plain": 6865,
      "pitch": 6866,
      "xmas": 6867,
      "thursday": 6868,
      "inappropriate": 6869,
      "stare": 6870,
      "remarried": 6871,
      "tory": 6872,
      "ority": 6873,
      "beside": 6874,
      "arrange": 6875,
      "owed": 6876,
      "cooper": 6877,
      "kee": 6878,
      "liqu": 6879,
      "comic": 6880,
      "utili": 6881,
      "loser": 6882,
      "acket": 6883,
      "ula": 6884,
      "unting": 6885,
      "Whatever": 6886,
      "perfection": 6887,
      "immun": 6888,
      "ilit": 6889,
      "Ohhh": 6890,
      "crunch": 6891,
      "stressor": 6892,
      "parrot": 6893,
      "lists": 6894,
      "realization": 6895,
      "shaky": 6896,
      "tougher": 6897,
      "ensed": 6898,
      "restroom": 6899,
      "concerning": 6900,
      "Holy": 6901,
      "interviewing": 6902,
      "picks": 6903,
      "Haven": 6904,
      "specializes": 6905,
      "clown": 6906,
      "examples": 6907,
      "funds": 6908,
      "provides": 6909,
      "passionate": 6910,
      "Pokemon": 6911,
      "released": 6912,
      "Reading": 6913,
      "sorority": 6914,
      "flirt": 6915,
      "originally": 6916,
      "pigs": 6917,
      "addictive": 6918,
      "Believe": 6919,
      "buffet": 6920,
      "stroke": 6921,
      "66": 6922,
      "Ble": 6923,
      "Eats": 6924,
      "GPA": 6925,
      "Ill": 6926,
      "Land": 6927,
      "Str": 6928,
      "bay": 6929,
      "dun": 6930,
      "jack": 6931,
      "ored": 6932,
      "pant": 6933,
      "pal": 6934,
      "ral": 6935,
      "oul": 6936,
      "sted": 6937,
      "orth": 6938,
      "orph": 6939,
      "orient": 6940,
      "ases": 6941,
      "trag": 6942,
      "outcomes": 6943,
      "outdoors": 6944,
      "sue": 6945,
      "sus": 6946,
      "mode": 6947,
      "confirm": 6948,
      "concrete": 6949,
      "makeup": 6950,
      "boo": 6951,
      "owners": 6952,
      "Social": 6953,
      "span": 6954,
      "rested": 6955,
      "Home": 6956,
      "2018": 6957,
      "treatments": 6958,
      "teams": 6959,
      "burst": 6960,
      "processing": 6961,
      "cling": 6962,
      "suffers": 6963,
      "facility": 6964,
      "charges": 6965,
      "landed": 6966,
      "LOVE": 6967,
      "hunting": 6968,
      "shiba": 6969,
      "wasting": 6970,
      "lockdowns": 6971,
      "instruments": 6972,
      "recovering": 6973,
      "priority": 6974,
      "exists": 6975,
      "locally": 6976,
      "Donalds": 6977,
      "vitamin": 6978,
      "tutoring": 6979,
      "flooded": 6980,
      "Interesting": 6981,
      "McDonalds": 6982,
      "tasted": 6983,
      "procrastinate": 6984,
      "knees": 6985,
      "announced": 6986,
      "Geor": 6987,
      "image": 6988,
      "policy": 6989,
      "internship": 6990,
      "23": 6991,
      "78": 6992,
      "99": 6993,
      "Gu": 6994,
      "LA": 6995,
      "Tes": 6996,
      "ec": 6997,
      "kin": 6998,
      "tes": 6999,
      "eria": 7000,
      "onin": 7001,
      "ory": 7002,
      "timer": 7003,
      "empath": 7004,
      "unaware": 7005,
      "uninterested": 7006,
      "inese": 7007,
      "boot": 7008,
      "discount": 7009,
      "afterward": 7010,
      "rumor": 7011,
      "compat": 7012,
      "compens": 7013,
      "ummer": 7014,
      "attemp": 7015,
      "curi": 7016,
      "ception": 7017,
      "obtain": 7018,
      "muscle": 7019,
      "extent": 7020,
      "accidents": 7021,
      "reminder": 7022,
      "potato": 7023,
      "accomplishing": 7024,
      "rolls": 7025,
      "doub": 7026,
      "sunshine": 7027,
      "AND": 7028,
      "gardening": 7029,
      "nonetheless": 7030,
      "variety": 7031,
      "mortality": 7032,
      "Relationship": 7033,
      "spirituality": 7034,
      "contemplated": 7035,
      "Day": 7036,
      "Dallas": 7037,
      "Id": 7038,
      "Ma": 7039,
      "Yay": 7040,
      "aha": 7041,
      "cin": 7042,
      "ficial": 7043,
      "ials": 7044,
      "sought": 7045,
      "tall": 7046,
      "intake": 7047,
      "hectic": 7048,
      "chrome": 7049,
      "gov": 7050,
      "gear": 7051,
      "tied": 7052,
      "loop": 7053,
      "absolut": 7054,
      "hilar": 7055,
      "safer": 7056,
      "pler": 7057,
      "affe": 7058,
      "Heal": 7059,
      "surface": 7060,
      "monthly": 7061,
      "upsets": 7062,
      "commend": 7063,
      "heading": 7064,
      "frustrations": 7065,
      "petty": 7066,
      "socializing": 7067,
      "musical": 7068,
      "presenting": 7069,
      "reliable": 7070,
      "drag": 7071,
      "HIN": 7072,
      "investment": 7073,
      "director": 7074,
      "skillset": 7075,
      "disrespected": 7076,
      "Addition": 7077,
      "concentrating": 7078,
      "knee": 7079,
      "hundreds": 7080,
      "disturbing": 7081,
      "complaint": 7082,
      "discipline": 7083,
      "Blue": 7084,
      "innocent": 7085,
      "Guess": 7086,
      "5th": 7087,
      "70": 7088,
      "Eve": 7089,
      "Girl": 7090,
      "Hm": 7091,
      "Jap": 7092,
      "MA": 7093,
      "MW": 7094,
      "Pick": 7095,
      "Shar": 7096,
      "dies": 7097,
      "housing": 7098,
      "iving": 7099,
      "oven": 7100,
      "sin": 7101,
      "ud": 7102,
      "ued": 7103,
      "zom": 7104,
      "indoor": 7105,
      "enn": 7106,
      "ssibly": 7107,
      "ishes": 7108,
      "vegan": 7109,
      "tires": 7110,
      "nea": 7111,
      "aced": 7112,
      "debit": 7113,
      "oped": 7114,
      "green": 7115,
      "poetry": 7116,
      "whoever": 7117,
      "dismiss": 7118,
      "Help": 7119,
      "appet": 7120,
      "ruining": 7121,
      "compli": 7122,
      "excit": 7123,
      "Sometime": 7124,
      "walmart": 7125,
      "jeans": 7126,
      "trend": 7127,
      "deals": 7128,
      "shoe": 7129,
      "headaches": 7130,
      "craz": 7131,
      "messing": 7132,
      "click": 7133,
      "recommended": 7134,
      "dressed": 7135,
      "slower": 7136,
      "airplane": 7137,
      "reminding": 7138,
      "dragon": 7139,
      "conflicts": 7140,
      "bullying": 7141,
      "demon": 7142,
      "loaded": 7143,
      "regrets": 7144,
      "damaged": 7145,
      "spoiled": 7146,
      "occurring": 7147,
      "surviving": 7148,
      "reviews": 7149,
      "strengths": 7150,
      "frequent": 7151,
      "hesitate": 7152,
      "threatened": 7153,
      "priceless": 7154,
      "damn": 7155,
      "economic": 7156,
      "Six": 7157,
      "dynamics": 7158,
      "slump": 7159,
      "Communication": 7160,
      "shoveling": 7161,
      "Tesla": 7162,
      "64": 7163,
      "ARE": 7164,
      "EM": 7165,
      "Much": 7166,
      "Octo": 7167,
      "baked": 7168,
      "evil": 7169,
      "ggling": 7170,
      "gaming": 7171,
      "honey": 7172,
      "lined": 7173,
      "praise": 7174,
      "witch": 7175,
      "zen": 7176,
      "reconnect": 7177,
      "seper": 7178,
      "livid": 7179,
      "geology": 7180,
      "administr": 7181,
      "hook": 7182,
      "ification": 7183,
      "Youre": 7184,
      "cissi": 7185,
      "disabled": 7186,
      "clothing": 7187,
      "beforehand": 7188,
      "bris": 7189,
      "sidewalk": 7190,
      "liness": 7191,
      "positively": 7192,
      "decor": 7193,
      "rescu": 7194,
      "cudd": 7195,
      "ordering": 7196,
      "designed": 7197,
      "facetime": 7198,
      "accused": 7199,
      "Exc": 7200,
      "United": 7201,
      "denies": 7202,
      "accommo": 7203,
      "Took": 7204,
      "providers": 7205,
      "graph": 7206,
      "presence": 7207,
      "Mario": 7208,
      "polite": 7209,
      "guided": 7210,
      "micals": 7211,
      "timately": 7212,
      "bearable": 7213,
      "dumps": 7214,
      "articles": 7215,
      "biology": 7216,
      "pillow": 7217,
      "introduced": 7218,
      "Seriously": 7219,
      "junior": 7220,
      "commercial": 7221,
      "Ultimately": 7222,
      "August": 7223,
      "intuition": 7224,
      "efficient": 7225,
      "tragic": 7226,
      "Dad": 7227,
      "FH": 7228,
      "Five": 7229,
      "LLO": 7230,
      "UN": 7231,
      "Yoga": 7232,
      "halloween": 7233,
      "ihood": 7234,
      "kni": 7235,
      "tab": 7236,
      "ingred": 7237,
      "solit": 7238,
      "emption": 7239,
      "paced": 7240,
      "susp": 7241,
      "acle": 7242,
      "ppies": 7243,
      "confe": 7244,
      "workload": 7245,
      "rage": 7246,
      "raff": 7247,
      "profiles": 7248,
      "shall": 7249,
      "overlooked": 7250,
      "offended": 7251,
      "lasting": 7252,
      "inte": 7253,
      "intention": 7254,
      "brace": 7255,
      "eachother": 7256,
      "entials": 7257,
      "expired": 7258,
      "distressed": 7259,
      "embarassed": 7260,
      "stuffed": 7261,
      "Regard": 7262,
      "ketch": 7263,
      "holds": 7264,
      "ogra": 7265,
      "charity": 7266,
      "deny": 7267,
      "shortly": 7268,
      "organize": 7269,
      "State": 7270,
      "Step": 7271,
      "potty": 7272,
      "typed": 7273,
      "shutting": 7274,
      "tempted": 7275,
      "sliding": 7276,
      "individuals": 7277,
      "glasses": 7278,
      "telephone": 7279,
      "sneaking": 7280,
      "attach": 7281,
      "scenarios": 7282,
      "heroin": 7283,
      "Relax": 7284,
      "briefly": 7285,
      "economics": 7286,
      "mosqui": 7287,
      "reminiscing": 7288,
      "document": 7289,
      "conference": 7290,
      "renewed": 7291,
      "adequate": 7292,
      "attributes": 7293,
      "Wednesday": 7294,
      "favour": 7295,
      "compatible": 7296,
      "appetite": 7297,
      "October": 7298,
      "knife": 7299,
      "29": 7300,
      "Bar": 7301,
      "Cow": 7302,
      "Cra": 7303,
      "Dream": 7304,
      "EA": 7305,
      "HER": 7306,
      "Set": 7307,
      "VC": 7308,
      "awaiting": 7309,
      "aversion": 7310,
      "bind": 7311,
      "cities": 7312,
      "kar": 7313,
      "pump": 7314,
      "user": 7315,
      "anonymous": 7316,
      "stating": 7317,
      "rear": 7318,
      "letic": 7319,
      "leash": 7320,
      "rose": 7321,
      "forgetting": 7322,
      "wasp": 7323,
      "highest": 7324,
      "unavoid": 7325,
      "unlikely": 7326,
      "unbearable": 7327,
      "affirmation": 7328,
      "disappear": 7329,
      "litter": 7330,
      "chemicals": 7331,
      "centered": 7332,
      "dealership": 7333,
      "headphones": 7334,
      "puzz": 7335,
      "bedtime": 7336,
      "athletic": 7337,
      "fixing": 7338,
      "lawyer": 7339,
      "fields": 7340,
      "warr": 7341,
      "crucial": 7342,
      "salt": 7343,
      "gene": 7344,
      "sexuality": 7345,
      "celebrated": 7346,
      "practices": 7347,
      "rushing": 7348,
      "limiting": 7349,
      "psychologist": 7350,
      "materials": 7351,
      "punished": 7352,
      "Phone": 7353,
      "England": 7354,
      "talented": 7355,
      "Grandma": 7356,
      "Counseling": 7357,
      "suprising": 7358,
      "dynamic": 7359,
      "CDC": 7360,
      "wrapped": 7361,
      "enemy": 7362,
      "architecture": 7363,
      "confirmed": 7364,
      "BA": 7365,
      "Black": 7366,
      "FIN": 7367,
      "Hang": 7368,
      "LPC": 7369,
      "WH": 7370,
      "fans": 7371,
      "hal": 7372,
      "iven": 7373,
      "lamp": 7374,
      "oia": 7375,
      "py": 7376,
      "pone": 7377,
      "patch": 7378,
      "rings": 7379,
      "scor": 7380,
      "inch": 7381,
      "massive": 7382,
      "deposit": 7383,
      "mold": 7384,
      "urge": 7385,
      "poison": 7386,
      "coup": 7387,
      "discomfort": 7388,
      "disrup": 7389,
      "prank": 7390,
      "hometown": 7391,
      "cheaper": 7392,
      "bridge": 7393,
      "phany": 7394,
      "bands": 7395,
      "Gosh": 7396,
      "freely": 7397,
      "smi": 7398,
      "bars": 7399,
      "drift": 7400,
      "vacy": 7401,
      "simpler": 7402,
      "enery": 7403,
      "nailed": 7404,
      "Everytime": 7405,
      "schedules": 7406,
      "darn": 7407,
      "directions": 7408,
      "bullies": 7409,
      "flipped": 7410,
      "periods": 7411,
      "dressing": 7412,
      "ANd": 7413,
      "Times": 7414,
      "damaging": 7415,
      "transp": 7416,
      "11pm": 7417,
      "reference": 7418,
      "pursuing": 7419,
      "Kinda": 7420,
      "scratched": 7421,
      "walls": 7422,
      "bien": 7423,
      "gathering": 7424,
      "scenery": 7425,
      "remotely": 7426,
      "Looks": 7427,
      "acknowledging": 7428,
      "pharma": 7429,
      "NYC": 7430,
      "steak": 7431,
      "evicted": 7432,
      "adapt": 7433,
      "fatigue": 7434,
      "implement": 7435,
      "chronic": 7436,
      "Certain": 7437,
      "ingredients": 7438,
      "AS": 7439,
      "BH": 7440,
      "Bir": 7441,
      "Based": 7442,
      "BMW": 7443,
      "FB": 7444,
      "Saw": 7445,
      "UG": 7446,
      "WE": 7447,
      "WHAT": 7448,
      "bac": 7449,
      "iation": 7450,
      "links": 7451,
      "wrap": 7452,
      "xx": 7453,
      "anny": 7454,
      "tracking": 7455,
      "goin": 7456,
      "esus": 7457,
      "withdra": 7458,
      "gyms": 7459,
      "worship": 7460,
      "irts": 7461,
      "novel": 7462,
      "profit": 7463,
      "shor": 7464,
      "printer": 7465,
      "brut": 7466,
      "fraud": 7467,
      "elsewhere": 7468,
      "experiment": 7469,
      "pressing": 7470,
      "fuck": 7471,
      "distri": 7472,
      "cuz": 7473,
      "questioning": 7474,
      "IDS": 7475,
      "syl": 7476,
      "privacy": 7477,
      "mistrust": 7478,
      "fallen": 7479,
      "behaved": 7480,
      "weights": 7481,
      "ladies": 7482,
      "Anim": 7483,
      "swings": 7484,
      "straw": 7485,
      "repeating": 7486,
      "achievement": 7487,
      "shifts": 7488,
      "wrecked": 7489,
      "struck": 7490,
      "Boy": 7491,
      "introvert": 7492,
      "occasions": 7493,
      "circles": 7494,
      "paranoia": 7495,
      "hamster": 7496,
      "artist": 7497,
      "geez": 7498,
      "Watching": 7499,
      "decrease": 7500,
      "Despite": 7501,
      "princip": 7502,
      "rescued": 7503,
      "400": 7504,
      "Ant": 7505,
      "Cam": 7506,
      "Cont": 7507,
      "Dri": 7508,
      "Epi": 7509,
      "Found": 7510,
      "Fair": 7511,
      "French": 7512,
      "GP": 7513,
      "Gener": 7514,
      "OD": 7515,
      "Wars": 7516,
      "bf": 7517,
      "dough": 7518,
      "ditch": 7519,
      "kay": 7520,
      "ode": 7521,
      "umed": 7522,
      "represent": 7523,
      "orado": 7524,
      "lege": 7525,
      "elim": 7526,
      "behaving": 7527,
      "liber": 7528,
      "uten": 7529,
      "ticked": 7530,
      "tiring": 7531,
      "dess": 7532,
      "irked": 7533,
      "updating": 7534,
      "chore": 7535,
      "carrier": 7536,
      "careless": 7537,
      "ideally": 7538,
      "sounding": 7539,
      "spice": 7540,
      "interpret": 7541,
      "interrup": 7542,
      "filed": 7543,
      "longest": 7544,
      "puppies": 7545,
      "ashed": 7546,
      "madden": 7547,
      "responded": 7548,
      "Everybody": 7549,
      "comforting": 7550,
      "assumed": 7551,
      "apartments": 7552,
      "formula": 7553,
      "speaks": 7554,
      "facts": 7555,
      "denom": 7556,
      "confidential": 7557,
      "merry": 7558,
      "LOT": 7559,
      "chap": 7560,
      "Marine": 7561,
      "impacted": 7562,
      "referring": 7563,
      "blindsided": 7564,
      "wisdom": 7565,
      "ghosted": 7566,
      "hmmm": 7567,
      "scene": 7568,
      "puede": 7569,
      "delayed": 7570,
      "occasionally": 7571,
      "obligated": 7572,
      "selected": 7573,
      "bounce": 7574,
      "navigate": 7575,
      "rumors": 7576,
      "curiosity": 7577,
      "Relationships": 7578,
      "zombie": 7579,
      "Epiphany": 7580,
      "DE": 7581,
      "Dash": 7582,
      "Jesus": 7583,
      "Mountain": 7584,
      "North": 7585,
      "Slow": 7586,
      "SAT": 7587,
      "Stress": 7588,
      "UFC": 7589,
      "bally": 7590,
      "dip": 7591,
      "pity": 7592,
      "vity": 7593,
      "incompetent": 7594,
      "strain": 7595,
      "reson": 7596,
      "asp": 7597,
      "heim": 7598,
      "rice": 7599,
      "chill": 7600,
      "comun": 7601,
      "loom": 7602,
      "ica": 7603,
      "lla": 7604,
      "abusing": 7605,
      "terap": 7606,
      "hoped": 7607,
      "herbs": 7608,
      "expression": 7609,
      "cony": 7610,
      "donate": 7611,
      "wouldve": 7612,
      "overweight": 7613,
      "avement": 7614,
      "istics": 7615,
      "ners": 7616,
      "monsters": 7617,
      "chem": 7618,
      "buried": 7619,
      "bitch": 7620,
      "tennis": 7621,
      "payday": 7622,
      "ptions": 7623,
      "trees": 7624,
      "lonliness": 7625,
      "solation": 7626,
      "handed": 7627,
      "skilled": 7628,
      "licensed": 7629,
      "inval": 7630,
      "sickness": 7631,
      "Real": 7632,
      "covid19": 7633,
      "generous": 7634,
      "asser": 7635,
      "ooo": 7636,
      "calmly": 7637,
      "Until": 7638,
      "leader": 7639,
      "balcony": 7640,
      "saturday": 7641,
      "boarding": 7642,
      "Need": 7643,
      "irrational": 7644,
      "mediate": 7645,
      "sunlight": 7646,
      "celebration": 7647,
      "reflecting": 7648,
      "survived": 7649,
      "evaluate": 7650,
      "functioning": 7651,
      "witness": 7652,
      "puedes": 7653,
      "YOUR": 7654,
      "stubbed": 7655,
      "linked": 7656,
      "convincing": 7657,
      "ghet": 7658,
      "creatures": 7659,
      "Colorado": 7660,
      "prioritize": 7661,
      "platform": 7662,
      "bereavement": 7663,
      "vania": 7664,
      "treasure": 7665,
      "frusterating": 7666,
      "bakery": 7667,
      "Georgia": 7668,
      "empathize": 7669,
      "600": 7670,
      "Easter": 7671,
      "Law": 7672,
      "Penn": 7673,
      "QVC": 7674,
      "SS": 7675,
      "Sur": 7676,
      "Sue": 7677,
      "bell": 7678,
      "bits": 7679,
      "eve": 7680,
      "fash": 7681,
      "gently": 7682,
      "mouse": 7683,
      "nue": 7684,
      "sinking": 7685,
      "stir": 7686,
      "tocol": 7687,
      "entr": 7688,
      "ories": 7689,
      "lemon": 7690,
      "arrang": 7691,
      "iones": 7692,
      "sore": 7693,
      "sopho": 7694,
      "theres": 7695,
      "lovable": 7696,
      "erection": 7697,
      "pero": 7698,
      "peoples": 7699,
      "protocol": 7700,
      "tearing": 7701,
      "portion": 7702,
      "decades": 7703,
      "fren": 7704,
      "addy": 7705,
      "blan": 7706,
      "akes": 7707,
      "superbowl": 7708,
      "anticipation": 7709,
      "cleaner": 7710,
      "professionals": 7711,
      "cler": 7712,
      "throws": 7713,
      "prayer": 7714,
      "addressing": 7715,
      "iology": 7716,
      "porn": 7717,
      "recognized": 7718,
      "criteria": 7719,
      "fantas": 7720,
      "Possibly": 7721,
      "crowded": 7722,
      "behaviours": 7723,
      "survival": 7724,
      "nails": 7725,
      "witter": 7726,
      "biological": 7727,
      "Army": 7728,
      "thrones": 7729,
      "diapers": 7730,
      "officer": 7731,
      "conscious": 7732,
      "Wonderful": 7733,
      "discouraged": 7734,
      "tremendous": 7735,
      "gratitude": 7736,
      "attempting": 7737,
      "doubts": 7738,
      "EMDR": 7739,
      "sylvania": 7740,
      "Pennsylvania": 7741,
      "sophomore": 7742,
      "27": 7743,
      "6th": 7744,
      "AIDS": 7745,
      "Croat": 7746,
      "DBH": 7747,
      "Game": 7748,
      "Hold": 7749,
      "Neither": 7750,
      "WI": 7751,
      "Women": 7752,
      "Yo": 7753,
      "bis": 7754,
      "cot": 7755,
      "dirt": 7756,
      "gf": 7757,
      "jacket": 7758,
      "pens": 7759,
      "pier": 7760,
      "sau": 7761,
      "tw": 7762,
      "ull": 7763,
      "zheim": 7764,
      "static": 7765,
      "retreat": 7766,
      "toes": 7767,
      "melat": 7768,
      "cognitive": 7769,
      "lizard": 7770,
      "riages": 7771,
      "goo": 7772,
      "verbally": 7773,
      "icago": 7774,
      "moon": 7775,
      "wehr": 7776,
      "cessi": 7777,
      "herbal": 7778,
      "jokes": 7779,
      "november": 7780,
      "donuts": 7781,
      "tasty": 7782,
      "imate": 7783,
      "pokemon": 7784,
      "illy": 7785,
      "ankle": 7786,
      "betes": 7787,
      "disagreement": 7788,
      "comedy": 7789,
      "Init": 7790,
      "mini": 7791,
      "mins": 7792,
      "gradually": 7793,
      "heads": 7794,
      "rence": 7795,
      "devices": 7796,
      "skate": 7797,
      "despair": 7798,
      "10k": 7799,
      "painfully": 7800,
      "academics": 7801,
      "appreciates": 7802,
      "tub": 7803,
      "midnight": 7804,
      "severance": 7805,
      "Exams": 7806,
      "Mean": 7807,
      "rising": 7808,
      "resumes": 7809,
      "hospitalized": 7810,
      "majors": 7811,
      "Feelings": 7812,
      "racist": 7813,
      "Plan": 7814,
      "hyper": 7815,
      "shell": 7816,
      "existing": 7817,
      "maintaining": 7818,
      "softball": 7819,
      "grieve": 7820,
      "resentment": 7821,
      "trails": 7822,
      "alternatives": 7823,
      "initiative": 7824,
      "weighing": 7825,
      "shady": 7826,
      "bachelor": 7827,
      "reconcile": 7828,
      "Landwehr": 7829,
      "hilarious": 7830,
      "fashion": 7831,
      "Awe": 7832,
      "Bab": 7833,
      "EX": 7834,
      "Master": 7835,
      "San": 7836,
      "data": 7837,
      "gall": 7838,
      "nies": 7839,
      "tling": 7840,
      "onions": 7841,
      "repay": 7842,
      "repor": 7843,
      "enger": 7844,
      "antide": 7845,
      "alert": 7846,
      "itals": 7847,
      "roaches": 7848,
      "cooped": 7849,
      "comics": 7850,
      "neath": 7851,
      "admir": 7852,
      "entering": 7853,
      "endless": 7854,
      "endorph": 7855,
      "notices": 7856,
      "worris": 7857,
      "ndrome": 7858,
      "empathise": 7859,
      "Thought": 7860,
      "preschool": 7861,
      "jogging": 7862,
      "donal": 7863,
      "greet": 7864,
      "plates": 7865,
      "proced": 7866,
      "proactive": 7867,
      "grounds": 7868,
      "carefully": 7869,
      "spite": 7870,
      "igs": 7871,
      "homeschool": 7872,
      "woes": 7873,
      "tear": 7874,
      "solving": 7875,
      "forwarding": 7876,
      "meets": 7877,
      "stalled": 7878,
      "suggesting": 7879,
      "winner": 7880,
      "coverage": 7881,
      "bench": 7882,
      "Uni": 7883,
      "wheels": 7884,
      "successfully": 7885,
      "shorts": 7886,
      "autism": 7887,
      "researching": 7888,
      "postings": 7889,
      "companionship": 7890,
      "mediation": 7891,
      "screwed": 7892,
      "ignores": 7893,
      "meaningless": 7894,
      "quarter": 7895,
      "protected": 7896,
      "defend": 7897,
      "defensive": 7898,
      "slide": 7899,
      "wrecking": 7900,
      "crossing": 7901,
      "Phys": 7902,
      "traditions": 7903,
      "recipro": 7904,
      "minimal": 7905,
      "dimin": 7906,
      "publish": 7907,
      "escalate": 7908,
      "picnic": 7909,
      "enthusiastic": 7910,
      "adventure": 7911,
      "dunno": 7912,
      "ecstatic": 7913,
      "absolute": 7914,
      "Additionally": 7915,
      "withdrawal": 7916,
      "chemical": 7917,
      "worrisome": 7918,
      "5ravel": 7919,
      "Fun": 7920,
      "Ir": 7921,
      "June": 7922,
      "KY": 7923,
      "Tha": 7924,
      "bare": 7925,
      "ders": 7926,
      "eh": 7927,
      "jel": 7928,
      "knit": 7929,
      "lone": 7930,
      "oy": 7931,
      "oops": 7932,
      "tank": 7933,
      "t5ravel": 7934,
      "vows": 7935,
      "thir": 7936,
      "sta": 7937,
      "sting": 7938,
      "rein": 7939,
      "army": 7940,
      "owl": 7941,
      "forgiven": 7942,
      "livel": 7943,
      "rimin": 7944,
      "dose": 7945,
      "compre": 7946,
      "emony": 7947,
      "getic": 7948,
      "abnormal": 7949,
      "deta": 7950,
      "indu": 7951,
      "ushes": 7952,
      "nos": 7953,
      "oker": 7954,
      "afk": 7955,
      "ilot": 7956,
      "pract": 7957,
      "homemade": 7958,
      "lete": 7959,
      "checks": 7960,
      "November": 7961,
      "paring": 7962,
      "listed": 7963,
      "decade": 7964,
      "siders": 7965,
      "colleges": 7966,
      "angered": 7967,
      "handful": 7968,
      "obst": 7969,
      "refusing": 7970,
      "Yourself": 7971,
      "servations": 7972,
      "daunting": 7973,
      "Except": 7974,
      "involving": 7975,
      "legacy": 7976,
      "btw": 7977,
      "cakes": 7978,
      "windy": 7979,
      "chaos": 7980,
      "flip": 7981,
      "attraction": 7982,
      "validation": 7983,
      "attendant": 7984,
      "accounts": 7985,
      "ALL": 7986,
      "Comparing": 7987,
      "blows": 7988,
      "rotten": 7989,
      "trailer": 7990,
      "narrow": 7991,
      "narcissi": 7992,
      "Listen": 7993,
      "pharmacy": 7994,
      "phia": 7995,
      "expertise": 7996,
      "instincts": 7997,
      "NCC": 7998,
      "vegetables": 7999,
      "Taco": 8000,
      "tackle": 8001,
      "conclusion": 8002,
      "bruary": 8003,
      "keeper": 8004,
      "liquid": 8005,
      "immunity": 8006,
      "booze": 8007,
      "kayaking": 8008,
      "arrangement": 8009,
      "zheimer": 8010,
      "Initially": 8011,
      "livelihood": 8012,
      "Bra": 8013,
      "CS": 8014,
      "Cup": 8015,
      "Hon": 8016,
      "Lack": 8017,
      "Norm": 8018,
      "Nah": 8019,
      "Old": 8020,
      "Pat": 8021,
      "daddy": 8022,
      "lous": 8023,
      "lers": 8024,
      "twent": 8025,
      "tuesday": 8026,
      "woud": 8027,
      "thick": 8028,
      "inher": 8029,
      "atm": 8030,
      "reun": 8031,
      "resist": 8032,
      "tota": 8033,
      "entos": 8034,
      "mel": 8035,
      "females": 8036,
      "iden": 8037,
      "keto": 8038,
      "rip": 8039,
      "acqui": 8040,
      "abs": 8041,
      "deer": 8042,
      "devest": 8043,
      "moil": 8044,
      "urger": 8045,
      "impress": 8046,
      "affir": 8047,
      "poo": 8048,
      "shed": 8049,
      "underneath": 8050,
      "carto": 8051,
      "apple": 8052,
      "startled": 8053,
      "beings": 8054,
      "apnea": 8055,
      "Somehow": 8056,
      "turmoil": 8057,
      "advising": 8058,
      "barking": 8059,
      "tains": 8060,
      "skunk": 8061,
      "horia": 8062,
      "magine": 8063,
      "negat": 8064,
      "reliever": 8065,
      "denial": 8066,
      "brains": 8067,
      "effected": 8068,
      "circus": 8069,
      "recognizing": 8070,
      "scores": 8071,
      "complained": 8072,
      "Lucky": 8073,
      "defense": 8074,
      "thrive": 8075,
      "requested": 8076,
      "demands": 8077,
      "lunches": 8078,
      "measure": 8079,
      "percentage": 8080,
      "rics": 8081,
      "criticism": 8082,
      "construction": 8083,
      "episode": 8084,
      "championship": 8085,
      "saddened": 8086,
      "investigation": 8087,
      "Fresh": 8088,
      "excitement": 8089,
      "unavoidable": 8090,
      "Croatia": 8091,
      "twenty": 8092,
      "totaled": 8093,
      "devestated": 8094,
      "Apri": 8095,
      "Fear": 8096,
      "Kid": 8097,
      "Might": 8098,
      "Sy": 8099,
      "eze": 8100,
      "fade": 8101,
      "slo": 8102,
      "retraining": 8103,
      "reloc": 8104,
      "enh": 8105,
      "eness": 8106,
      "antid": 8107,
      "thed": 8108,
      "theater": 8109,
      "isy": 8110,
      "otro": 8111,
      "bean": 8112,
      "femin": 8113,
      "yourselves": 8114,
      "acer": 8115,
      "actor": 8116,
      "pest": 8117,
      "abit": 8118,
      "Than": 8119,
      "daytime": 8120,
      "premi": 8121,
      "unrealistic": 8122,
      "tak": 8123,
      "taker": 8124,
      "talents": 8125,
      "newer": 8126,
      "muse": 8127,
      "weekly": 8128,
      "famous": 8129,
      "applau": 8130,
      "appartment": 8131,
      "esta": 8132,
      "ceremony": 8133,
      "brow": 8134,
      "mindful": 8135,
      "childish": 8136,
      "turkey": 8137,
      "lessness": 8138,
      "teh": 8139,
      "stored": 8140,
      "solved": 8141,
      "grandfathers": 8142,
      "Alzheimer": 8143,
      "relap": 8144,
      "Anytime": 8145,
      "storage": 8146,
      "begging": 8147,
      "isolate": 8148,
      "balanced": 8149,
      "drawn": 8150,
      "touching": 8151,
      "Anger": 8152,
      "technic": 8153,
      "systems": 8154,
      "February": 8155,
      "florida": 8156,
      "majority": 8157,
      "appeals": 8158,
      "describing": 8159,
      "racial": 8160,
      "terminate": 8161,
      "consume": 8162,
      "strengthen": 8163,
      "alien": 8164,
      "clarity": 8165,
      "Therapist": 8166,
      "fulfillment": 8167,
      "anax": 8168,
      "colleague": 8169,
      "consejer": 8170,
      "Staying": 8171,
      "north": 8172,
      "collap": 8173,
      "equally": 8174,
      "crawling": 8175,
      "competing": 8176,
      "punishment": 8177,
      "sacrifice": 8178,
      "flexible": 8179,
      "instantly": 8180,
      "dramatic": 8181,
      "miscarriage": 8182,
      "cigarettes": 8183,
      "Cowboys": 8184,
      "Animals": 8185,
      "Biden": 8186,
      "Econ": 8187,
      "Gr": 8188,
      "LD": 8189,
      "Mor": 8190,
      "Oof": 8191,
      "Sort": 8192,
      "Sim": 8193,
      "WFH": 8194,
      "Yet": 8195,
      "drained": 8196,
      "gap": 8197,
      "iu": 8198,
      "jit": 8199,
      "mour": 8200,
      "nutr": 8201,
      "obe": 8202,
      "pam": 8203,
      "sla": 8204,
      "scra": 8205,
      "slack": 8206,
      "erto": 8207,
      "recip": 8208,
      "ordin": 8209,
      "arise": 8210,
      "aswell": 8211,
      "lyrics": 8212,
      "heated": 8213,
      "outs": 8214,
      "chig": 8215,
      "ambien": 8216,
      "locks": 8217,
      "peak": 8218,
      "somedays": 8219,
      "justice": 8220,
      "persist": 8221,
      "fulfilled": 8222,
      "illegal": 8223,
      "overre": 8224,
      "choir": 8225,
      "streaming": 8226,
      "theirs": 8227,
      "mighty": 8228,
      "ples": 8229,
      "ets": 8230,
      "bites": 8231,
      "dialo": 8232,
      "importance": 8233,
      "caution": 8234,
      "examine": 8235,
      "skip": 8236,
      "Chicago": 8237,
      "named": 8238,
      "obli": 8239,
      "observed": 8240,
      "extend": 8241,
      "umba": 8242,
      "tune": 8243,
      "depth": 8244,
      "faction": 8245,
      "halfway": 8246,
      "manageable": 8247,
      "risks": 8248,
      "properties": 8249,
      "lebron": 8250,
      "boundary": 8251,
      "mism": 8252,
      "deaths": 8253,
      "adoles": 8254,
      "irritable": 8255,
      "braves": 8256,
      "transgender": 8257,
      "smashed": 8258,
      "soothing": 8259,
      "Starting": 8260,
      "alternate": 8261,
      "characters": 8262,
      "prevents": 8263,
      "resentful": 8264,
      "article": 8265,
      "distressing": 8266,
      "concentration": 8267,
      "contemplate": 8268,
      "analytical": 8269,
      "ACT": 8270,
      "Foot": 8271,
      "victimized": 8272,
      "obsessive": 8273,
      "mountains": 8274,
      "Obvious": 8275,
      "diabetes": 8276,
      "Panic": 8277,
      "bearded": 8278,
      "bumped": 8279,
      "principal": 8280,
      "Generally": 8281,
      "chapter": 8282,
      "bisexual": 8283,
      "chigan": 8284,
      "El": 8285,
      "FL": 8286,
      "Hur": 8287,
      "Isolation": 8288,
      "MO": 8289,
      "Mist": 8290,
      "RO": 8291,
      "Summer": 8292,
      "Washing": 8293,
      "dreading": 8294,
      "native": 8295,
      "nanny": 8296,
      "infection": 8297,
      "onna": 8298,
      "ento": 8299,
      "alley": 8300,
      "ota": 8301,
      "secon": 8302,
      "licies": 8303,
      "ambit": 8304,
      "geous": 8305,
      "packs": 8306,
      "nessed": 8307,
      "adn": 8308,
      "acles": 8309,
      "precaut": 8310,
      "ifying": 8311,
      "conscience": 8312,
      "ause": 8313,
      "inevit": 8314,
      "policies": 8315,
      "chooled": 8316,
      "lasts": 8317,
      "Hii": 8318,
      "compound": 8319,
      "manife": 8320,
      "settling": 8321,
      "frank": 8322,
      "heals": 8323,
      "players": 8324,
      "handsome": 8325,
      "expects": 8326,
      "embarr": 8327,
      "superficial": 8328,
      "heartbreaking": 8329,
      "statements": 8330,
      "imagined": 8331,
      "horribly": 8332,
      "leadership": 8333,
      "warming": 8334,
      "qualification": 8335,
      "50s": 8336,
      "includes": 8337,
      "settings": 8338,
      "chips": 8339,
      "Amazing": 8340,
      "Adult": 8341,
      "Veter": 8342,
      "threatening": 8343,
      "witnessed": 8344,
      "goldfish": 8345,
      "television": 8346,
      "digital": 8347,
      "cocky": 8348,
      "inspiring": 8349,
      "WOW": 8350,
      "audio": 8351,
      "gossip": 8352,
      "affeine": 8353,
      "Health": 8354,
      "integr": 8355,
      "attachment": 8356,
      "brutal": 8357,
      "district": 8358,
      "Driving": 8359,
      "denomination": 8360,
      "igslist": 8361,
      "lousy": 8362,
      "applaud": 8363,
      "dialogue": 8364,
      "Football": 8365,
      "Obviously": 8366,
      "Washington": 8367,
      "seconds": 8368,
      "precautions": 8369,
      "Br": 8370,
      "Ben": 8371,
      "Bul": 8372,
      "CBT": 8373,
      "Ebay": 8374,
      "Language": 8375,
      "NE": 8376,
      "Oops": 8377,
      "TI": 8378,
      "THIN": 8379,
      "West": 8380,
      "cues": 8381,
      "das": 8382,
      "eer": 8383,
      "kers": 8384,
      "lin": 8385,
      "rally": 8386,
      "rates": 8387,
      "smar": 8388,
      "swer": 8389,
      "uable": 8390,
      "yum": 8391,
      "york": 8392,
      "zer": 8393,
      "invis": 8394,
      "ouch": 8395,
      "reset": 8396,
      "reconnected": 8397,
      "anta": 8398,
      "elphia": 8399,
      "beers": 8400,
      "oward": 8401,
      "trave": 8402,
      "whis": 8403,
      "empathetic": 8404,
      "updates": 8405,
      "unwanted": 8406,
      "uncommon": 8407,
      "ctu": 8408,
      "affection": 8409,
      "progre": 8410,
      "weet": 8411,
      "dismissed": 8412,
      "print": 8413,
      "startup": 8414,
      "supports": 8415,
      "omg": 8416,
      "aughter": 8417,
      "listic": 8418,
      "avs": 8419,
      "listener": 8420,
      "atted": 8421,
      "rental": 8422,
      "frustrates": 8423,
      "10th": 8424,
      "Chinese": 8425,
      "pains": 8426,
      "hormon": 8427,
      "nostalgia": 8428,
      "similarly": 8429,
      "approaches": 8430,
      "burnt": 8431,
      "rats": 8432,
      "chedule": 8433,
      "ladelphia": 8434,
      "hospitals": 8435,
      "accomplishments": 8436,
      "mediator": 8437,
      "satisfy": 8438,
      "elev": 8439,
      "transplant": 8440,
      "spots": 8441,
      "Disorder": 8442,
      "firmations": 8443,
      "affairs": 8444,
      "ghosts": 8445,
      "HELLO": 8446,
      "Disneyland": 8447,
      "compassionate": 8448,
      "cocktail": 8449,
      "established": 8450,
      "script": 8451,
      "Practi": 8452,
      "Mexican": 8453,
      "analyze": 8454,
      "technical": 8455,
      "Joe": 8456,
      "ramen": 8457,
      "gorgeous": 8458,
      "Brothers": 8459,
      "claims": 8460,
      "Puerto": 8461,
      "scams": 8462,
      "repetitive": 8463,
      "traditional": 8464,
      "target": 8465,
      "Philadelphia": 8466,
      "aimless": 8467,
      "wander": 8468,
      "invaluable": 8469,
      "Baby": 8470,
      "gallon": 8471,
      "inherited": 8472,
      "absence": 8473,
      "April": 8474,
      "acerb": 8475,
      "Mistakes": 8476,
      "smarter": 8477,
      "34": 8478,
      "37": 8479,
      "65": 8480,
      "CN": 8481,
      "CPA": 8482,
      "Mac": 8483,
      "Pa": 8484,
      "cere": 8485,
      "filing": 8486,
      "foward": 8487,
      "gau": 8488,
      "ki": 8489,
      "rink": 8490,
      "tus": 8491,
      "vital": 8492,
      "wage": 8493,
      "oral": 8494,
      "anded": 8495,
      "hah": 8496,
      "bleed": 8497,
      "tick": 8498,
      "paired": 8499,
      "suade": 8500,
      "frica": 8501,
      "uncondition": 8502,
      "auction": 8503,
      "persuade": 8504,
      "depresed": 8505,
      "overcoming": 8506,
      "overthinking": 8507,
      "ista": 8508,
      "quiz": 8509,
      "relating": 8510,
      "relacion": 8511,
      "firstly": 8512,
      "aint": 8513,
      "Isn": 8514,
      "Shes": 8515,
      "seeming": 8516,
      "pretending": 8517,
      "exclu": 8518,
      "diam": 8519,
      "shops": 8520,
      "ohhh": 8521,
      "renting": 8522,
      "blank": 8523,
      "viable": 8524,
      "granddaughter": 8525,
      "design": 8526,
      "birthdays": 8527,
      "hearted": 8528,
      "virgin": 8529,
      "generate": 8530,
      "Online": 8531,
      "decides": 8532,
      "pickup": 8533,
      "tubing": 8534,
      "hrs": 8535,
      "keywords": 8536,
      "beaten": 8537,
      "attract": 8538,
      "performing": 8539,
      "tempt": 8540,
      "terminated": 8541,
      "hyped": 8542,
      "Corona": 8543,
      "writers": 8544,
      "effectively": 8545,
      "chihua": 8546,
      "washed": 8547,
      "thrift": 8548,
      "workouts": 8549,
      "associated": 8550,
      "resolving": 8551,
      "Wait": 8552,
      "convenience": 8553,
      "consultation": 8554,
      "consistently": 8555,
      "maxim": 8556,
      "collecting": 8557,
      "published": 8558,
      "declined": 8559,
      "smoothly": 8560,
      "surprisingly": 8561,
      "Focus": 8562,
      "sacrifices": 8563,
      "Woah": 8564,
      "legitimate": 8565,
      "candidate": 8566,
      "potatoes": 8567,
      "raffle": 8568,
      "resonate": 8569,
      "admirable": 8570,
      "recipes": 8571,
      "chihuahua": 8572,
      "Ass": 8573,
      "Africa": 8574,
      "BI": 8575,
      "BO": 8576,
      "Bad": 8577,
      "Gard": 8578,
      "Grub": 8579,
      "House": 8580,
      "King": 8581,
      "Live": 8582,
      "Little": 8583,
      "Mind": 8584,
      "PE": 8585,
      "Pandemic": 8586,
      "Rick": 8587,
      "Te": 8588,
      "Tough": 8589,
      "Yum": 8590,
      "blu": 8591,
      "caffeine": 8592,
      "dur": 8593,
      "fas": 8594,
      "fate": 8595,
      "gal": 8596,
      "gang": 8597,
      "iju": 8598,
      "sab": 8599,
      "intru": 8600,
      "engl": 8601,
      "encies": 8602,
      "isle": 8603,
      "hass": 8604,
      "otiv": 8605,
      "rol": 8606,
      "arrested": 8607,
      "trum": 8608,
      "seven": 8609,
      "semi": 8610,
      "combat": 8611,
      "escap": 8612,
      "amer": 8613,
      "washer": 8614,
      "loat": 8615,
      "newest": 8616,
      "adul": 8617,
      "aba": 8618,
      "destress": 8619,
      "odds": 8620,
      "unge": 8621,
      "consent": 8622,
      "noisy": 8623,
      "therefore": 8624,
      "ief": 8625,
      "cted": 8626,
      "afloat": 8627,
      "hardship": 8628,
      "propose": 8629,
      "shirts": 8630,
      "iedad": 8631,
      "downtown": 8632,
      "downstairs": 8633,
      "cerely": 8634,
      "waiter": 8635,
      "brid": 8636,
      "lessen": 8637,
      "teaches": 8638,
      "easiest": 8639,
      "attended": 8640,
      "consideration": 8641,
      "adding": 8642,
      "ansiedad": 8643,
      "aching": 8644,
      "normalcy": 8645,
      "cedes": 8646,
      "syndrome": 8647,
      "balls": 8648,
      "generation": 8649,
      "assa": 8650,
      "incrimin": 8651,
      "cliche": 8652,
      "presented": 8653,
      "nearing": 8654,
      "sweethe": 8655,
      "faces": 8656,
      "Mechan": 8657,
      "counts": 8658,
      "beauty": 8659,
      "posting": 8660,
      "vestry": 8661,
      "addictions": 8662,
      "snowed": 8663,
      "NOW": 8664,
      "recovered": 8665,
      "governing": 8666,
      "Works": 8667,
      "harmful": 8668,
      "consumed": 8669,
      "slacking": 8670,
      "hype": 8671,
      "clubs": 8672,
      "partially": 8673,
      "squid": 8674,
      "capacity": 8675,
      "waves": 8676,
      "victi": 8677,
      "digging": 8678,
      "Hub": 8679,
      "Addiction": 8680,
      "grabbed": 8681,
      "minimum": 8682,
      "analyst": 8683,
      "recital": 8684,
      "blessings": 8685,
      "episod": 8686,
      "folding": 8687,
      "gentle": 8688,
      "subscription": 8689,
      "inspired": 8690,
      "Death": 8691,
      "butterflies": 8692,
      "WHY": 8693,
      "terapia": 8694,
      "assertive": 8695,
      "Practice": 8696,
      "blues": 8697,
      "ijuana": 8698,
      "english": 8699,
      "incriminating": 8700,
      "26": 8701,
      "32": 8702,
      "8th": 8703,
      "Cou": 8704,
      "Cha": 8705,
      "Care": 8706,
      "Gonna": 8707,
      "Ide": 8708,
      "Learning": 8709,
      "MV": 8710,
      "Rem": 8711,
      "Sweet": 8712,
      "Tech": 8713,
      "Tuesday": 8714,
      "cd": 8715,
      "df": 8716,
      "dge": 8717,
      "fting": 8718,
      "guts": 8719,
      "rational": 8720,
      "sketch": 8721,
      "tx": 8722,
      "tent": 8723,
      "wings": 8724,
      "thi": 8725,
      "ths": 8726,
      "inform": 8727,
      "remor": 8728,
      "respective": 8729,
      "hacer": 8730,
      "roles": 8731,
      "arcti": 8732,
      "fork": 8733,
      "forgave": 8734,
      "complac": 8735,
      "esp": 8736,
      "loaf": 8737,
      "hop": 8738,
      "exchange": 8739,
      "units": 8740,
      "opard": 8741,
      "popped": 8742,
      "civil": 8743,
      "disput": 8744,
      "offs": 8745,
      "apping": 8746,
      "breaker": 8747,
      "wonders": 8748,
      "manip": 8749,
      "believable": 8750,
      "turing": 8751,
      "marijuana": 8752,
      "mines": 8753,
      "puked": 8754,
      "chats": 8755,
      "picky": 8756,
      "cheduling": 8757,
      "trainer": 8758,
      "burri": 8759,
      "berty": 8760,
      "begins": 8761,
      "Megan": 8762,
      "snuck": 8763,
      "tendency": 8764,
      "casual": 8765,
      "divorces": 8766,
      "Tracks": 8767,
      "swallow": 8768,
      "volley": 8769,
      "screw": 8770,
      "itudes": 8771,
      "killer": 8772,
      "candies": 8773,
      "Marriage": 8774,
      "optimism": 8775,
      "identified": 8776,
      "anguages": 8777,
      "spooked": 8778,
      "engineers": 8779,
      "cheerful": 8780,
      "nicely": 8781,
      "flavor": 8782,
      "flags": 8783,
      "microb": 8784,
      "consulted": 8785,
      "capital": 8786,
      "lung": 8787,
      "HOW": 8788,
      "explor": 8789,
      "dumpster": 8790,
      "College": 8791,
      "Michigan": 8792,
      "Focusing": 8793,
      "aggravated": 8794,
      "register": 8795,
      "stitute": 8796,
      "shattered": 8797,
      "calendar": 8798,
      "compensate": 8799,
      "administrative": 8800,
      "brisk": 8801,
      "favourite": 8802,
      "rosemary": 8803,
      "Antarcti": 8804,
      "french": 8805,
      "cereal": 8806,
      "duration": 8807,
      "hassle": 8808,
      "Mechanical": 8809,
      "episodes": 8810,
      "remorse": 8811,
      "Antarctica": 8812,
      "Aust": 8813,
      "Bost": 8814,
      "Cu": 8815,
      "Di": 8816,
      "Du": 8817,
      "Dam": 8818,
      "Fine": 8819,
      "GBT": 8820,
      "Half": 8821,
      "Imagine": 8822,
      "LGBT": 8823,
      "OF": 8824,
      "Pot": 8825,
      "Put": 8826,
      "SC": 8827,
      "Sar": 8828,
      "Scot": 8829,
      "Yan": 8830,
      "cil": 8831,
      "cage": 8832,
      "iser": 8833,
      "lor": 8834,
      "ox": 8835,
      "opath": 8836,
      "pting": 8837,
      "uk": 8838,
      "vs": 8839,
      "voc": 8840,
      "inconvenient": 8841,
      "installed": 8842,
      "atures": 8843,
      "rend": 8844,
      "refri": 8845,
      "reven": 8846,
      "remission": 8847,
      "enable": 8848,
      "serves": 8849,
      "leap": 8850,
      "alter": 8851,
      "seed": 8852,
      "forbid": 8853,
      "outsider": 8854,
      "utter": 8855,
      "tiem": 8856,
      "neve": 8857,
      "icians": 8858,
      "ented": 8859,
      "somethings": 8860,
      "anyhow": 8861,
      "lakers": 8862,
      "ives": 8863,
      "pointing": 8864,
      "bold": 8865,
      "mug": 8866,
      "partying": 8867,
      "carried": 8868,
      "angel": 8869,
      "Heart": 8870,
      "Hearing": 8871,
      "quits": 8872,
      "persons": 8873,
      "omics": 8874,
      "kindergarten": 8875,
      "pretended": 8876,
      "buzz": 8877,
      "fron": 8878,
      "functions": 8879,
      "guest": 8880,
      "importantly": 8881,
      "enjoys": 8882,
      "attitudes": 8883,
      "matches": 8884,
      "mattress": 8885,
      "desired": 8886,
      "desires": 8887,
      "heartbreak": 8888,
      "searched": 8889,
      "Cost": 8890,
      "tutors": 8891,
      "seriousness": 8892,
      "clearance": 8893,
      "behalf": 8894,
      "signals": 8895,
      "avoided": 8896,
      "pizzas": 8897,
      "auton": 8898,
      "satisfaction": 8899,
      "brakes": 8900,
      "starving": 8901,
      "complications": 8902,
      "occurrence": 8903,
      "pleasantly": 8904,
      "judgmental": 8905,
      "deepest": 8906,
      "Finan": 8907,
      "procrastination": 8908,
      "belonged": 8909,
      "belongings": 8910,
      "budgeting": 8911,
      "vulnerability": 8912,
      "defining": 8913,
      "definately": 8914,
      "predict": 8915,
      "painted": 8916,
      "jumps": 8917,
      "tastes": 8918,
      "Roll": 8919,
      "Rock": 8920,
      "original": 8921,
      "addicts": 8922,
      "Russi": 8923,
      "festival": 8924,
      "aggravating": 8925,
      "drowned": 8926,
      "anchor": 8927,
      "ayudar": 8928,
      "jamas": 8929,
      "slammed": 8930,
      "utilize": 8931,
      "Sharon": 8932,
      "drifted": 8933,
      "Birth": 8934,
      "dessert": 8935,
      "liquidations": 8936,
      "woudl": 8937,
      "Economics": 8938,
      "Hurricane": 8939,
      "invisible": 8940,
      "victims": 8941,
      "txt": 8942,
      "Boston": 8943,
      "refriger": 8944,
      "Baha": 8945,
      "Lon": 8946,
      "PM": 8947,
      "Tri": 8948,
      "drain": 8949,
      "msy": 8950,
      "nug": 8951,
      "tong": 8952,
      "vag": 8953,
      "wol": 8954,
      "yall": 8955,
      "za": 8956,
      "thirty": 8957,
      "stages": 8958,
      "endo": 8959,
      "orting": 8960,
      "meh": 8961,
      "alian": 8962,
      "becu": 8963,
      "arbit": 8964,
      "sear": 8965,
      "format": 8966,
      "outgoing": 8967,
      "outta": 8968,
      "chills": 8969,
      "goof": 8970,
      "verbal": 8971,
      "ami": 8972,
      "geon": 8973,
      "tier": 8974,
      "pad": 8975,
      "default": 8976,
      "pple": 8977,
      "mopped": 8978,
      "moody": 8979,
      "odles": 8980,
      "Italian": 8981,
      "urity": 8982,
      "dong": 8983,
      "ours": 8984,
      "eable": 8985,
      "mente": 8986,
      "proce": 8987,
      "bore": 8988,
      "lotto": 8989,
      "grasp": 8990,
      "agend": 8991,
      "supply": 8992,
      "backwards": 8993,
      "display": 8994,
      "angle": 8995,
      "ames": 8996,
      "compar": 8997,
      "gluten": 8998,
      "meanwhile": 8999,
      "mato": 9000,
      "puberty": 9001,
      "cuando": 9002,
      "humor": 9003,
      "China": 9004,
      "2019": 9005,
      "appreciation": 9006,
      "horrifying": 9007,
      "personalities": 9008,
      "severely": 9009,
      "sweetest": 9010,
      "gifted": 9011,
      "chart": 9012,
      "keyboard": 9013,
      "ITs": 9014,
      "Keeping": 9015,
      "products": 9016,
      "translate": 9017,
      "hypo": 9018,
      "pursued": 9019,
      "smells": 9020,
      "violation": 9021,
      "dissa": 9022,
      "thood": 9023,
      "incidents": 9024,
      "surroundings": 9025,
      "collabor": 9026,
      "McDonald": 9027,
      "HOw": 9028,
      "thorough": 9029,
      "categor": 9030,
      "acknowledged": 9031,
      "rubbing": 9032,
      "neglected": 9033,
      "introduce": 9034,
      "WOR": 9035,
      "festive": 9036,
      "instinct": 9037,
      "firends": 9038,
      "watches": 9039,
      "predicament": 9040,
      "nieces": 9041,
      "compliment": 9042,
      "ography": 9043,
      "auctioned": 9044,
      "complacent": 9045,
      "Bahamas": 9046,
      "Asi": 9047,
      "Bes": 9048,
      "CU": 9049,
      "CAn": 9050,
      "Den": 9051,
      "Mart": 9052,
      "Switch": 9053,
      "Up": 9054,
      "assistant": 9055,
      "apre": 9056,
      "cavs": 9057,
      "gned": 9058,
      "ibility": 9059,
      "pically": 9060,
      "poker": 9061,
      "sma": 9062,
      "scat": 9063,
      "twee": 9064,
      "yl": 9065,
      "incapable": 9066,
      "tobac": 9067,
      "ordeal": 9068,
      "eld": 9069,
      "hable": 9070,
      "rovert": 9071,
      "code": 9072,
      "wire": 9073,
      "kees": 9074,
      "versus": 9075,
      "geared": 9076,
      "timing": 9077,
      "pathetic": 9078,
      "cans": 9079,
      "unner": 9080,
      "indul": 9081,
      "goods": 9082,
      "harassing": 9083,
      "immen": 9084,
      "impatient": 9085,
      "cist": 9086,
      "spin": 9087,
      "igu": 9088,
      "evenings": 9089,
      "problematic": 9090,
      "downer": 9091,
      "compul": 9092,
      "intoler": 9093,
      "moral": 9094,
      "Nobody": 9095,
      "excel": 9096,
      "tense": 9097,
      "tease": 9098,
      "marke": 9099,
      "stocked": 9100,
      "pressuring": 9101,
      "shaken": 9102,
      "fortune": 9103,
      "matically": 9104,
      "annoys": 9105,
      "restless": 9106,
      "reschedule": 9107,
      "Beha": 9108,
      "superv": 9109,
      "rainy": 9110,
      "loses": 9111,
      "accus": 9112,
      "approval": 9113,
      "oooo": 9114,
      "overwhelm": 9115,
      "clearing": 9116,
      "deserted": 9117,
      "berry": 9118,
      "seasonal": 9119,
      "charging": 9120,
      "promises": 9121,
      "respected": 9122,
      "organizing": 9123,
      "commonly": 9124,
      "hospice": 9125,
      "ballet": 9126,
      "drastic": 9127,
      "tendencies": 9128,
      "lando": 9129,
      "gains": 9130,
      "boxing": 9131,
      "storming": 9132,
      "turkish": 9133,
      "streets": 9134,
      "scream": 9135,
      "loudly": 9136,
      "tracked": 9137,
      "racking": 9138,
      "impacts": 9139,
      "practically": 9140,
      "lifts": 9141,
      "orean": 9142,
      "abandonment": 9143,
      "Started": 9144,
      "jerks": 9145,
      "culpr": 9146,
      "automatically": 9147,
      "submitted": 9148,
      "rooting": 9149,
      "kissing": 9150,
      "Counselor": 9151,
      "compromised": 9152,
      "THat": 9153,
      "measures": 9154,
      "reminisce": 9155,
      "babysitter": 9156,
      "Listening": 9157,
      "Understand": 9158,
      "spark": 9159,
      "Typically": 9160,
      "neighbours": 9161,
      "recruiter": 9162,
      "itizen": 9163,
      "achieved": 9164,
      "interfering": 9165,
      "length": 9166,
      "pumpkin": 9167,
      "scoring": 9168,
      "endorphins": 9169,
      "Irma": 9170,
      "relapses": 9171,
      "nutrition": 9172,
      "forklift": 9173,
      "Damn": 9174,
      "oxy": 9175,
      "Birthday": 9176,
      "refrigerator": 9177,
      "searches": 9178,
      "boredom": 9179,
      "agenda": 9180,
      "Besides": 9181,
      "tobacco": 9182,
      "immensely": 9183,
      "36": 9184,
      "Char": 9185,
      "DAY": 9186,
      "EVERY": 9187,
      "Fortun": 9188,
      "IR": 9189,
      "Ira": 9190,
      "Living": 9191,
      "Ment": 9192,
      "Mil": 9193,
      "Math": 9194,
      "Reach": 9195,
      "Winter": 9196,
      "Ye": 9197,
      "equi": 9198,
      "ga": 9199,
      "hen": 9200,
      "jor": 9201,
      "ooh": 9202,
      "pas": 9203,
      "pup": 9204,
      "slice": 9205,
      "voted": 9206,
      "erer": 9207,
      "inadequate": 9208,
      "stig": 9209,
      "reliving": 9210,
      "relying": 9211,
      "rella": 9212,
[...]
